{"<s>":0,"<pad>":1,"</s>":2,"<unk>":3,"<mask>":4,"!":5,"\"":6,"#":7,"$":8,"%":9,"&":10,"'":11,"(":12,")":13,"*":14,"+":15,",":16,"-":17,".":18,"/":19,"0":20,"1":21,"2":22,"3":23,"4":24,"5":25,"6":26,"7":27,"8":28,"9":29,":":30,";":31,"<":32,"=":33,">":34,"?":35,"@":36,"A":37,"B":38,"C":39,"D":40,"E":41,"F":42,"G":43,"H":44,"I":45,"J":46,"K":47,"L":48,"M":49,"N":50,"O":51,"P":52,"Q":53,"R":54,"S":55,"T":56,"U":57,"V":58,"W":59,"X":60,"Y":61,"Z":62,"[":63,"\\":64,"]":65,"^":66,"_":67,"`":68,"a":69,"b":70,"c":71,"d":72,"e":73,"f":74,"g":75,"h":76,"i":77,"j":78,"k":79,"l":80,"m":81,"n":82,"o":83,"p":84,"q":85,"r":86,"s":87,"t":88,"u":89,"v":90,"w":91,"x":92,"y":93,"z":94,"{":95,"|":96,"}":97,"~":98,"¡":99,"¢":100,"£":101,"¤":102,"¥":103,"¦":104,"§":105,"¨":106,"©":107,"ª":108,"«":109,"¬":110,"®":111,"¯":112,"°":113,"±":114,"²":115,"³":116,"´":117,"µ":118,"¶":119,"·":120,"¸":121,"¹":122,"º":123,"»":124,"¼":125,"½":126,"¾":127,"¿":128,"À":129,"Á":130,"Â":131,"Ã":132,"Ä":133,"Å":134,"Æ":135,"Ç":136,"È":137,"É":138,"Ê":139,"Ë":140,"Ì":141,"Í":142,"Î":143,"Ï":144,"Ð":145,"Ñ":146,"Ò":147,"Ó":148,"Ô":149,"Õ":150,"Ö":151,"×":152,"Ø":153,"Ù":154,"Ú":155,"Û":156,"Ü":157,"Ý":158,"Þ":159,"ß":160,"à":161,"á":162,"â":163,"ã":164,"ä":165,"å":166,"æ":167,"ç":168,"è":169,"é":170,"ê":171,"ë":172,"ì":173,"í":174,"î":175,"ï":176,"ð":177,"ñ":178,"ò":179,"ó":180,"ô":181,"õ":182,"ö":183,"÷":184,"ø":185,"ù":186,"ú":187,"û":188,"ü":189,"ý":190,"þ":191,"ÿ":192,"Ā":193,"ā":194,"Ă":195,"ă":196,"Ą":197,"ą":198,"Ć":199,"ć":200,"Ĉ":201,"ĉ":202,"Ċ":203,"ċ":204,"Č":205,"č":206,"Ď":207,"ď":208,"Đ":209,"đ":210,"Ē":211,"ē":212,"Ĕ":213,"ĕ":214,"Ė":215,"ė":216,"Ę":217,"ę":218,"Ě":219,"ě":220,"Ĝ":221,"ĝ":222,"Ğ":223,"ğ":224,"Ġ":225,"ġ":226,"Ģ":227,"ģ":228,"Ĥ":229,"ĥ":230,"Ħ":231,"ħ":232,"Ĩ":233,"ĩ":234,"Ī":235,"ī":236,"Ĭ":237,"ĭ":238,"Į":239,"į":240,"İ":241,"ı":242,"Ĳ":243,"ĳ":244,"Ĵ":245,"ĵ":246,"Ķ":247,"ķ":248,"ĸ":249,"Ĺ":250,"ĺ":251,"Ļ":252,"ļ":253,"Ľ":254,"ľ":255,"Ŀ":256,"ŀ":257,"Ł":258,"ł":259,"Ń":260,"Ġd":261,"es":262,"Ġl":263,"in":264,"on":265,"Ġa":266,"Ġs":267,"Ġp":268,"Ġe":269,"Ġc":270,"Ã¥":271,"Ã©":272,"ou":273,"an":274,"Ġdi":275,"te":276,"Ġm":277,"Ã®":278,"Ġt":279,"re":280,"Ã¨":281,"ne":282,"dj":283,"Ġk":284,"ye":285,"Ġf":286,"ch":287,"Ġb":288,"Ġv":289,"Ġn":290,"Ġr":291,"Ġon":292,"Ġ(":293,"ins":294,"er":295,"eu":296,"Ġes":297,"Ġles":298,"Ã©n":299,"ae":300,"Ġdes":301,"me":302,"Ġet":303,"dje":304,"ss":305,"le":306,"it":307,"ot":308,"Ã´":309,"Ġest":310,"Ġco":311,"Ã¨s":312,"Ġpo":313,"al":314,"Ġli":315,"Ġki":316,"ant":317,"Ġdj":318,"int":319,"Ġene":320,").":321,"Ġdo":322,"Ġav":323,"el":324,"ro":325,"Ġi":326,"ri":327,"jh":328,"Ã»":329,"ĠÃ¥":330,"et":331,"Ġg":332,"Ġpa":333,"Ġso":334,"aedje":335,"xh":336,"Ãª":337,"us":338,"ve":339,"ce":340,"de":341,"Li":342,"Ġsi":343,"wa":344,"ke":345,"Ġtch":346,"sse":347,"st":348,"ir":349,"Ġ\"":350,"19":351,"ol":352,"ut":353,"se":354,"ont":355,"Ġdel":356,"at":357,"mint":358,"Ġdins":359,"os":360,"Ġavou":361,"ra":362,"Ġ).":363,"20":364,"we":365,"Ã¥r":366,"is":367,"Ãªye":368,"la":369,"ĠM":370,"yes":371,"alon":372,"ran":373,"Ã§":374,"oÃ»":375,"Ġw":376,"im":377,"âĢ":378,"ĠnÃ©n":379,"am":380,"eus":381,"18":382,"Ã¨t":383,"ĠD":384,"Ġla":385,"ĠL":386,"10":387,"Ġo":388,"ac":389,"Ã©nt":390,"Ġst":391,"Ġal":392,"ĠB":393,"15":394,"Ġ:":395,"Ġtot":396,"17":397,"âĢĻ":398,"16":399,"14":400,"On":401,"ci":402,"ĠC":403,"13":404,"24":405,"as":406,"25":407,"pe":408,"27":409,"28":410,"Ġpus":411,"26":412,"23":413,"29":414,"di":415,"inme":416,"Ġvi":417,"our":418,"Ġwalon":419,"ĠS":420,"Ġpr":421,"yÃ®":422,"ar":423,"eur":424,"wait":425,"eut":426,"ire":427,"ete":428,"Ġpl":429,"Ġh":430,"Ġno":431,"Ġcome":432,"ĠA":433,"and":434,"ter":435,"Ġmo":436,"eye":437,"en":438,"pr":439,"gn":440,"ĠP":441,"ĠÃ§":442,"om":443,"tch":444,"Ġdis":445,"djes":446,"or":447,"Les":448,"ur":449,"be":450,"ons":451,"li":452,"Ã®s":453,"vi":454,"Ġsc":455,"esse":456,"Ã¥z":457,"ind":458,"odje":459,"ĠÃ´":460,"Ġeto":461,"Ġri":462,"ĠF":463,"Ġto":464,"Et":465,"Ġfwait":466,"ants":467,"Ġont":468,"Ġel":469,"Ġ19":470,"teut":471,"Ġca":472,"Ġra":473,"Ġgn":474,"Ġmot":475,"ĠmÃ¥":476,"Ġesteut":477,"out":478,"ĠÃ¨":479,"Ġou":480,"Ġma":481,"ess":482,"gne":483,"ti":484,"Il":485,"ĠR":486,"ĠfÃ©":487,"reye":488,"Ġu":489,"aedjes":490,"ĠG":491,"ĠLi":492,"ĠstÃ®":493,"ey":494,"Ã©s":495,"),":496,"Ġan":497,"ĠT":498,"Ġfo":499,"lo":500,"Ġcw":501,"inne":502,"wÃ¨s":503,"ĠW":504,"rÃ¥":505,"ĠbÃ©n":506,"um":507,"Ġil":508,"Ġtro":509,"ike":510,"Ġsol":511,"Ġda":512,"Ġdiv":513,"Ġci":514,"Ġsont":515,"irt":516,"xhe":517,"Ġre":518,"Ġvo":519,"ces":520,"ite":521,"00":522,"rijh":523,"olodje":524,"Ãªyes":525,"rÃ®":526,"ans":527,"tes":528,"Ġ*":529,"olodjeye":530,"Ġte":531,"ĠH":532,"acw":533,"ure":534,"Ġaveut":535,"ĠE":536,"Ã´p":537,"ĠN":538,"Dj":539,"Ġbo":540,"ene":541,"yet":542,"ic":543,"ond":544,"Ġmet":545,"Ã©ve":546,"che":547,"Ġdjins":548,"Ġva":549,"kes":550,"imolodjeye":551,"ĠJ":552,"Ġapr":553,"Ġsa":554,"Ġdit":555,"nes":556,"ni":557,"Ġbi":558,"Ġses":559,"inte":560,"Ġpol":561,"uz":562,"ĠÃ¥s":563,"ing":564,"ranc":565,"Etimolodjeye":566,"tit":567,"ĠcÃ´p":568,"min":569,"Ġgran":570,"Ġmins":571,"Ġeyet":572,"Ġ20":573,"Ġni":574,"Ġsacw":575,"Ġdeus":576,"ere":577,"yis":578,"ance":579,"Ġfi":580,"ome":581,"ĠpÃ¥r":582,"ĠÃ¨n":583,"Ġmi":584,"isse":585,"Ġsp":586,"ouw":587,"Ġba":588,"nut":589,"Ã´r":590,"ĠMa":591,"Ġptit":592,"ĠÂ":593,"Ġsins":594,"yi":595,"ĠDj":596,"Ġen":597,"12":598,"cion":599,"id":600,"Ã¥t":601,"ĠI":602,"ĠcÃ¥z":603,"jhe":604,"Ã¥rd":605,"Ġplae":606,"Mins":607,"Ġsch":608,"50":609,"Ġesse":610,"Ġele":611,"Ġbou":612,"ĠÃ":613,"inde":614,"Ġvos":615,"30":616,"sses":617,"Ġfranc":618,"pa":619,"ĠpÃ¥":620,"Ġac":621,"40":622,"Ġnos":623,"ĠV":624,"Ġtins":625,"Ġad":626,"vint":627,"Ġep":628,"ĠaprÃ¨s":629,"Ġpout":630,"Ġprum":631,"11":632,"esses":633,"60":634,"Ġscrijh":635,"owe":636,"onne":637,"les":638,"oz":639,"ĠdjoÃ»":640,"qu":641,"djÃ®":642,"98":643,"nÃ©":644,"Ġas":645,"95":646,"70":647,"\".":648,"ĠÃ§a":649,"Ġde":650,"48":651,"78":652,"90":653,"Ġpayis":654,"68":655,"rin":656,"35":657,"38":658,"22":659,"45":660,"Ġlu":661,"Ġai":662,"Ġsh":663,"Ġminme":664,"rece":665,"ma":666,"65":667,"ki":668,"75":669,"Ġgrand":670,"ze":671,"Ġ-":672,"Gn":673,"Ã»t":674,"rÃ¥mint":675,"wÃ¨":676,"Ġvey":677,"Ġbe":678,"Ġfoirt":679,"ĠWalon":680,"ĠÃ§ou":681,"ous":682,"au":683,"ante":684,"bes":685,"Ġcwand":686,"gu":687,"co":688,"Ġev":689,"ĠÃ¥r":690,"ket":691,"Ġpass":692,"Ġwa":693,"ler":694,"Ġpro":695,"Ġmete":696,"Ġlon":697,"win":698,"ĠfrancÃ¨s":699,"oye":700,"Ġtodi":701,"ĠÃ®":702,"ĠÃ´te":703,"Ġti":704,"96":705,"yaedje":706,"ner":707,"94":708,"po":709,"\",":710,"il":711,"Ġfr":712,"Ġtos":713,"Ġpu":714,"Ġef":715,"Ġdv":716,"onte":717,"93":718,"97":719,"ĠbrÃ¥mint":720,"ale":721,"Ġleu":722,"pi":723,"Ġmwa":724,"mes":725,"Ġdji":726,"Ġro":727,"ires":728,"Ġz":729,"itch":730,"reut":731,"ves":732,"Ġcom":733,"Ġmou":734,"77":735,"21":736,"Ġrat":737,"34":738,"Ġsovint":739,"ap":740,"ĠÂ«":741,"36":742,"est":743,"hin":744,"lÃ©":745,"lan":746,"yin":747,"Ġdju":748,"etes":749,"gnÃ®":750,"aetch":751,"zo":752,"Ġvol":753,"Ġdm":754,"Ġlom":755,"Ġling":756,"Ã¥s":757,"etch":758,"wete":759,"Ġle":760,"Ã¥d":761,"eure":762,"ĠÃ´tes":763,"Ġye":764,"44":765,"80":766,"ab":767,"Ã©ns":768,"kÃ®":769,"pu":770,"ĠpÃ®":771,"Ġmots":772,"37":773,"Ġat":774,"Dji":775,"El":776,"Ġbr":777,"iy":778,"Ġpe":779,"66":780,"ver":781,"Ġaiwe":782,"Si":783,"Ġcro":784,"Ġdire":785,"wes":786,"Ġga":787,"Ġap":788,"ĠO":789,"no":790,"Ġgro":791,"Ġfe":792,"teure":793,"Ġsie":794,"Ġlyi":795,"Ġeg":796,"ĠWalonreye":797,"55":798,"wand":799,"were":800,"ĠfÃ¥t":801,"Ġ200":802,"ijh":803,"Ġsacwants":804,"88":805,"don":806,"Ġinte":807,"ers":808,"Ġplaece":809,"vr":810,"oum":811,"ĠfoÃ»":812,"Po":813,"ĠvÃ®":814,"otch":815,"Ġam":816,"cÃ®":817,"Ġcor":818,"rÃ®t":819,"Ġonk":820,"pl":821,"Ġman":822,"99":823,"Ġmal":824,"av":825,"Ġab":826,"ĠbwÃ¨s":827,"stÃ©":828,"47":829,"Ġtcham":830,"33":831,"Ġpit":832,"jhon":833,"67":834,"ĠsÃ´":835,"fer":836,"ul":837,"Ġlive":838,"na":839,"rer":840,"ct":841,"Ġpla":842,"ert":843,"ĠdjÃ¥z":844,"dja":845,"atÃ©n":846,"if":847,"Ġend":848,"minme":849,"Ġter":850,"Ġtote":851,"ĠpÃ´":852,"ixh":853,"nou":854,"Ġyeu":855,"Ġcmin":856,"46":857,"ikes":858,"ĠprumÃ®":859,"Ġdivant":860,"58":861,"ive":862,"nd":863,"rÃ¨":864,"Ġdro":865,"Ġmon":866,"Ã¥ve":867,"Ġmetou":868,"Ele":869,"Ġrac":870,"iv":871,"ker":872,"ele":873,"Ġmoes":874,"ĠestÃ©nt":875,"Ġaveur":876,"ĠMahin":877,"Ġmar":878,"Ġfour":879,"Ene":880,"Ġfjh":881,"Ġcawete":882,"ĠTch":883,"Ġari":884,"Ġtotes":885,"of":886,"Ġ18":887,"ine":888,"ru":889,"Ġqu":890,"ĠsÃ¥":891,"Ġpont":892,"ard":893,"caedje":894,"rez":895,"Cwand":896,"Ġras":897,"Ġeplo":898,"ĠLes":899,"Ġcan":900,"ssu":901,"Ġdjin":902,"Ġpas":903,"mexh":904,"ust":905,"zi":906,"viÃ¨":907,"Ġsieke":908,"Ġtr":909,"Ġgu":910,"Dins":911,"Ġlome":912,"itan":913,"Ġpor":914,"Ġpi":915,"Ġsic":916,"atch":917,"39":918,"ade":919,"Ġleus":920,"Ġcou":921,"Ġveye":922,"ion":923,"ole":924,"Ġtroes":925,"Ġboket":926,"leur":927,"ĠlatÃ©n":928,"Ġdisk":929,"Ġlingaedje":930,"zÃ¨s":931,"ris":932,"wer":933,"rade":934,"Ġtere":935,"57":936,"Ãĩ":937,"Ġin":938,"Ã¥cion":939,"64":940,"sto":941,"Ġzel":942,"ba":943,"ile":944,"rÃ©":945,"ute":946,"Ġfa":947,"ĠÃ¨t":948,"lon":949,"mp":950,"Ã¥de":951,"Ġans":952,"Ġbiesses":953,"Ġnd":954,"ote":955,"Ġpar":956,"ĠsacwÃ¨":957,"Ġcwa":958,"Ġcre":959,"Ġcis":960,"Ġmwaisse":961,"ĠK":962,"ĠlÃ¥":963,"mints":964,"Ġmoen":965,"ĠvÃ©nt":966,"tÃ®":967,"Ġsit":968,"ĠlÃ¨s":969,"ints":970,"Ġvie":971,"mon":972,"Ġbon":973,"met":974,"ĠavÃ©nt":975,"Elle":976,"Ġseu":977,"tea":978,"Ġkel":979,"pus":980,"Ã¢":981,"Ã¥le":982,"Ġcr":983,"Ġtour":984,"gra":985,"Ġces":986,"Ġrom":987,"ĠscrÃ®t":988,"85":989,"87":990,"fond":991,"va":992,"ĠdjoÃ»s":993,"Ġplaeces":994,"ĠU":995,"Ġelle":996,"Ã´t":997,"per":998,"Ã¥l":999,"ots":1000,"ĠcÃ´ps":1001,"ice":1002,"Ġblan":1003,"ĠPa":1004,"ĠmÃ¥jhon":1005,"ĠÂ»":1006,"feye":1007,"ĠOn":1008,"ĠÃħ":1009,"ince":1010,"Ã®t":1011,"oy":1012,"Ġne":1013,"Ġbetch":1014,"pyÃ®":1015,"onn":1016,"Ġcon":1017,"Ġome":1018,"Ġefants":1019,"isses":1020,"vou":1021,"Ġsint":1022,"mer":1023,"Ġsu":1024,"stwere":1025,"Ġviyaedje":1026,"ĠfÃ©n":1027,"gnes":1028,"Â»":1029,"Ġ1":1030,"Ġres":1031,"ures":1032,"ĠLidje":1033,"Adon":1034,"Ġbodje":1035,"ĠrÃ©n":1036,"43":1037,"Ãħ":1038,"63":1039,"Ġevoye":1040,"69":1041,"Ġcont":1042,"Ġtec":1043,"Ġfourit":1044,"ay":1045,"tchÃ®":1046,"ts":1047,"Ġvoye":1048,"Ġsin":1049,"otÃ®":1050,"mexhnÃ©":1051,"Ġcla":1052,"ĠcostÃ©":1053,"Ġaler":1054,"ĠÃł":1055,"ĠDi":1056,"Ci":1057,"Ġser":1058,"Ġpitite":1059,"ĠAl":1060,"man":1061,"vÃ©":1062,"Ġdin":1063,"Ġmitan":1064,"rire":1065,"Ġovr":1066,"Ġtrop":1067,"49":1068,"Ġcal":1069,"Ġve":1070,"ĠcÃ¥ze":1071,"op":1072,"ume":1073,"Ġey":1074,"Ġtcher":1075,"prÃ¨s":1076,"Ġptits":1077,"Ġzels":1078,"odj":1079,"Ġdijh":1080,"Ġddja":1081,"one":1082,"vier":1083,"Ġvs":1084,"Ġviy":1085,"Ġtra":1086,"Ġrc":1087,"ier":1088,"Ġ)":1089,"Ġmalade":1090,"eles":1091,"Ġdisc":1092,"ĠpÃ¥rti":1093,"nÃªye":1094,"itÃ©":1095,"Ġsaetch":1096,"imbe":1097,"da":1098,"rou":1099,"teye":1100,"Ġvout":1101,"Ã´res":1102,"Ġdjusse":1103,"ape":1104,"antÃ¨s":1105,"Ġpou":1106,"Ġgaz":1107,"xhÃ®":1108,"Ġlong":1109,"mand":1110,"Ġcl":1111,"ĠcoÃ»":1112,"xhon":1113,"oir":1114,"vant":1115,"Ġson":1116,"Ġnou":1117,"aeke":1118,"Ġsor":1119,"Ġhou":1120,"Ãĩa":1121,"em":1122,"honne":1123,"Ġcour":1124,"ĠSint":1125,"Ġnosse":1126,"Ġepla":1127,"Ã§mint":1128,"ca":1129,"ps":1130,"Ġch":1131,"Ġmin":1132,"otes":1133,"lÃªye":1134,"reyes":1135,"Ġrl":1136,"antch":1137,"inse":1138,"Ġratour":1139,"Ġlin":1140,"ĠBa":1141,"Ġric":1142,"Ã¥te":1143,"Ġpad":1144,"kepyÃ®":1145,"zeu":1146,"lete":1147,"Ġdjouw":1148,"ĠMotÃ®":1149,"Ġtiesse":1150,"mÃ¥":1151,"ĠanÃªye":1152,"Ġviebe":1153,"ed":1154,"Ġar":1155,"200":1156,"noxh":1157,"oe":1158,"tÃ©":1159,"Ġcoir":1160,"cieus":1161,"Ġriv":1162,"ĠcwÃ¥r":1163,"ga":1164,"Ġ2":1165,"ĠÃ¥d":1166,"ĠBel":1167,"Ġadon":1168,"lÃ®":1169,"Ġ;":1170,"Ã´de":1171,"djre":1172,"ĠkÃ©":1173,"Ġsier":1174,"92":1175,"ramexhnÃ©":1176,"tins":1177,"100":1178,"Ġdoet":1179,"Ġmoirt":1180,"Ġgros":1181,"Ġ3":1182,"Ġbat":1183,"Ġdjus":1184,"Ġid":1185,"str":1186,"Ġgrande":1187,"ejh":1188,"ĠâĢ":1189,"oukÃ®":1190,"Ġvont":1191,"86":1192,"mo":1193,"to":1194,"ini":1195,"enes":1196,"76":1197,"91":1198,"ide":1199,"yon":1200,"Ġls":1201,"Ġpal":1202,"teur":1203,"ĠfÃ¥":1204,"Ġfam":1205,"Ã«":1206,"Ġleye":1207,"ssÃ®":1208,"56":1209,"83":1210,"ime":1211,"74":1212,"aire":1213,"vÃ¥":1214,"Ġmiete":1215,"Ġpasser":1216,"Ġfeme":1217,"Ġdifer":1218,"54":1219,"Ġtchans":1220,"lam":1221,"ĠvoltÃ®":1222,"ĠleyÃ®":1223,"Ġguere":1224,"bÃ©n":1225,"owes":1226,"Ġdizo":1227,"Ġrt":1228,"73":1229,"Ġdjonne":1230,"Ġpron":1231,"Ġtchaeke":1232,"ĠFran":1233,"AprÃ¨s":1234,"Ġair":1235,"ĠtÃ®":1236,"Ġsinse":1237,"Ġins":1238,"dene":1239,"pes":1240,"Ġdier":1241,"Ġram":1242,"ĠanÃªyes":1243,"kÃ©":1244,"ances":1245,"Ġnove":1246,"No":1247,"nÃ¨t":1248,"Ġah":1249,"Ġmuz":1250,"Ġouy":1251,"Ġbast":1252,"ujh":1253,"Ã¥re":1254,"ĠCh":1255,"Ġrs":1256,"84":1257,"fwait":1258,"ĠÃ¥reut":1259,"53":1260,"roÃ»":1261,"Ġor":1262,"Come":1263,"con":1264,"Ġprez":1265,"Ġfor":1266,"ales":1267,"ĠtchÃ¥":1268,"gue":1269,"Ġcwate":1270,"ud":1271,"Ġshu":1272,"ns":1273,"Ġ17":1274,"Ġdid":1275,"Ġbot":1276,"Ġprind":1277,"ĠNam":1278,"Ġefant":1279,"ov":1280,"Ġbiesse":1281,"ai":1282,"ĠmotÃ®":1283,"ĠÃ§oula":1284,"naedje":1285,"Ġot":1286,"Ġaf":1287,"Ġfeu":1288,"otche":1289,"Ġvic":1290,"xhes":1291,"waite":1292,"olodj":1293,"Ġxh":1294,"Ġtri":1295,"aler":1296,"euse":1297,"ĠpÃ¥rt":1298,"ĠsÃ´re":1299,"Ġeplaid":1300,"ĠvÃ®s":1301,"ean":1302,"lÃ¨s":1303,"ori":1304,"un":1305,"Ã´ze":1306,"lijhe":1307,"Di":1308,"yins":1309,"Ġgo":1310,"Ġasteure":1311,"ĠÃħr":1312,"oukÃ®z":1313,"ĠsÃ´res":1314,"ĠmÃ¥y":1315,"Ġvosse":1316,"Ġfijh":1317,"Ġmaladeye":1318,"79":1319,"aece":1320,"jhey":1321,"Co":1322,"Dis":1323,"bor":1324,"lÃ¥":1325,"zÃ®":1326,"onde":1327,"ouve":1328,"lez":1329,"150":1330,"Ġcisse":1331,"Ġ10":1332,"250":1333,"iss":1334,"lin":1335,"Ġmes":1336,"ĠtchÃ´":1337,"ĠLe":1338,"ĠhÃ´t":1339,"bi":1340,"Ġ),":1341,"teas":1342,"ĠLa":1343,"Ġds":1344,"ĠdjÃ¥zant":1345,"bert":1346,"ik":1347,"ÃĪ":1348,"Ġconte":1349,"let":1350,"oÃ»s":1351,"ĠFranc":1352,"Ġtey":1353,"aye":1354,"mot":1355,"wou":1356,"Ġdan":1357,"Ã¥v":1358,"djike":1359,"ets":1360,"Ġgre":1361,"atche":1362,"Ġtuz":1363,"Ġmonde":1364,"cint":1365,"ron":1366,"cions":1367,"Ġossu":1368,"Istwere":1369,"fe":1370,"lou":1371,"djin":1372,"tche":1373,"Ġsav":1374,"Ã´rd":1375,"Ġboune":1376,"Ġpurade":1377,"cu":1378,"ijhe":1379,"eres":1380,"Ġdispu":1381,"nt":1382,"Ġna":1383,"190":1384,"180":1385,"ist":1386,"vÃ®":1387,"Ġtim":1388,"Ġvint":1389,"160":1390,"140":1391,"Ġdvant":1392,"Ġdmor":1393,"Ġapla":1394,"ds":1395,"Ġass":1396,"Ġber":1397,"ĠMar":1398,"240":1399,"Ġfamile":1400,"uc":1401,"rey":1402,"Ġvra":1403,"lea":1404,"Ġpasse":1405,"Ġ\".":1406,"ĠDe":1407,"170":1408,"130":1409,"270":1410,"ĠmagnÃ®":1411,"000":1412,"ĠPayis":1413,"89":1414,"Nos":1415,"Sacw":1416,"ad":1417,"ez":1418,"oyÃ®":1419,"Ġem":1420,"teu":1421,"ĠtoÃ»":1422,"antes":1423,"rope":1424,"59":1425,"leu":1426,"Ġmest":1427,"rexh":1428,"280":1429,"230":1430,"290":1431,"Ġprov":1432,"ĠcmincÃ®":1433,"leurs":1434,"..":1435,"Al":1436,"pet":1437,"Ġrim":1438,"260":1439,"Ġbea":1440,"Ġovraedje":1441,"Ġviyaedjes":1442,"Des":1443,"bli":1444,"wal":1445,"Ġdjon":1446,"essÃ®":1447,"Ġwaire":1448,"Ġmoumint":1449,"ĠNameur":1450,"ses":1451,"tÃ¨s":1452,"Ġ16":1453,"Ġmw":1454,"Ġscrijheu":1455,"Ġlingaedjes":1456,"ĠBeldjike":1457,"innes":1458,"inrece":1459,"eujh":1460,"rike":1461,"Ġvoet":1462,"41":1463,"Vos":1464,"do":1465,"pli":1466,"Ġnute":1467,"Ġprinde":1468,"eujhinme":1469,"32":1470,"42":1471,"Ġ15":1472,"ĠdÃ¨s":1473,"Ġsou":1474,"ĠskepyÃ®":1475,"ĠtÃ¥rd":1476,"ĠptitÃ¨s":1477,"Ġtert":1478,"cÃ´":1479,"Ġ5":1480,"Ã¥y":1481,"Ġdjam":1482,"ĠimÃ¥":1483,"enne":1484,"Ġvoy":1485,"ĠIn":1486,"ĠeployÃ®":1487,"61":1488,"62":1489,"Ġpap":1490,"itchÃ®":1491,"zim":1492,"tere":1493,"Ġlives":1494,"ĠprÃ¨s":1495,"ĠJean":1496,"Ġevnd":1497,"Ġing":1498,"Ġtou":1499,"itche":1500,"Ã´re":1501,"Ġprumire":1502,"Ġdene":1503,"ĠtÃ©":1504,"Ġsist":1505,"Ġviye":1506,"ĠtÃ®xhon":1507,"31":1508,"Ġ+":1509,"ĠdÃ¨":1510,"Ġmont":1511,"tif":1512,"Avou":1513,"ks":1514,"toÃ»":1515,"Ġris":1516,"Ġdivins":1517,"ĠpassÃ©":1518,"Ġbetchete":1519,"ĠFrance":1520,"Ġdjonnes":1521,"72":1522,"rinne":1523,"Ġdeujhinme":1524,"ĠmÃ´de":1525,"ret":1526,"Ġeshonne":1527,"eures":1528,"Ġscrijhaedjes":1529,"Ġcmince":1530,"ĠDiu":1531,"Tot":1532,"iye":1533,"oc":1534,"Ġpic":1535,"Ġcur":1536,"Ġfot":1537,"Ġsip":1538,"Ġwan":1539,"ourd":1540,"Ġblanc":1541,"ĠcÃ©n":1542,"Ġcam":1543,"Ġmwin":1544,"rev":1545,"mete":1546,"Ġwalons":1547,"ĠcÃ¥zu":1548,"ĠlomÃ©":1549,"ltins":1550,"ande":1551,"Ã´te":1552,"71":1553,"Ġdjh":1554,"roet":1555,"Ã»s":1556,"Ġouxh":1557,"ĠsakÃ®":1558,"Ġeglijhe":1559,"Ġpronon":1560,"Ġaplacaedje":1561,"Tch":1562,"des":1563,"resse":1564,"vÃªye":1565,"Â°":1566,"ĠY":1567,"Ġint":1568,"oles":1569,"Ġof":1570,"Ġfier":1571,"otchÃ®":1572,"Ġbokets":1573,"ĠserÃ¨":1574,"''":1575,"ie":1576,"res":1577,"Ġeter":1578,"tchant":1579,"ĠmestÃ®":1580,"125":1581,"ate":1582,"Ġdu":1583,"Ġse":1584,"Ġvin":1585,"rim":1586,"xhaedje":1587,"ĠBon":1588,"Ġbele":1589,"aux":1590,"Ġinsi":1591,"124":1592,"127":1593,"So":1594,"Ġpeu":1595,"Ġcra":1596,"Ġtouw":1597,"ĠAn":1598,"ĠendÃ¨":1599,"Ġpask":1600,"ĠteyÃ¥te":1601,"114":1602,"82":1603,"go":1604,"iz":1605,"Ġ4":1606,"Ġer":1607,"Ġcnoxh":1608,"Ġtin":1609,"imÃ¥":1610,"118":1611,"123":1612,"Ġrfond":1613,"Ġespa":1614,"120":1615,"110":1616,"115":1617,"113":1618,"hi":1619,"umint":1620,"ĠEt":1621,"Ġasse":1622,"Ġfal":1623,"Ġpat":1624,"ĠpÃ¥s":1625,"ĠpÃ®ce":1626,"Ġroman":1627,"116":1628,"128":1629,"126":1630,"129":1631,"fa":1632,"laedje":1633,"rÃªye":1634,"yinne":1635,"riy":1636,"segnes":1637,"Ġtrove":1638,"Ġpolit":1639,"ĠÃ¥rti":1640,"119":1641,"117":1642,"tant":1643,"Ġfro":1644,"pete":1645,"waitÃ®":1646,"ĠHa":1647,"Ġgrands":1648,"Ġata":1649,"Ġpitit":1650,"219":1651,"215":1652,"217":1653,"213":1654,"224":1655,"chel":1656,"Ġvnou":1657,"ĠMÃ¥":1658,"lidj":1659,"uze":1660,"220":1661,"218":1662,"210":1663,"216":1664,"214":1665,"225":1666,"227":1667,"228":1668,"226":1669,"223":1670,"229":1671,"ber":1672,"ta":1673,"usse":1674,"Ġmol":1675,"Ġimp":1676,"rans":1677,"ĠUrope":1678,"Ġgazete":1679,"kin":1680,"land":1681,"Ġset":1682,"Ã»te":1683,"ĠÃ¥toÃ»":1684,"ontins":1685,"ĠRe":1686,"Ġresp":1687,"Ġtertos":1688,"Ġcat":1689,"ĠdiviÃ¨":1690,"Ġha":1691,"ĠHen":1692,"Ġshof":1693,"ĠndÃ¨":1694,"ĠÃħrdene":1695,"Ġama":1696,"Ġec":1697,"Ġmetowe":1698,"atches":1699,"Ġsistinme":1700,"ccion":1701,"zeye":1702,"Ãªy":1703,"rijhaedje":1704,"Ġsait":1705,"poirt":1706,"ĠÃ©n":1707,"ĠlÃ©":1708,"iner":1709,"Ġsac":1710,"ĠerÃ®":1711,"Ġdissu":1712,"Ġrpr":1713,"ites":1714,"Ġracsegnes":1715,"Ġassez":1716,"lmint":1717,"Ã´be":1718,"Ġscrire":1719,"indou":1720,"ĠpolÃ¨t":1721,"Ġgrosse":1722,"grafeye":1723,"ĠmÃ¥jhone":1724,"ib":1725,"lle":1726,"ĠÃ¨s":1727,"Ġag":1728,"Ġta":1729,"Ġtoum":1730,"yel":1731,"Ġbout":1732,"ha":1733,"ibe":1734,"oi":1735,"ok":1736,"Ġsetch":1737,"Ġper":1738,"Ġdim":1739,"Ġdiale":1740,"Ġmeye":1741,"rene":1742,"Ã¨r":1743,"ĠrÃ¥":1744,"Ã´z":1745,"ĠMou":1746,"Ġdivni":1747,"Ġqui":1748,"ĠidÃªye":1749,"nant":1750,"vaedje":1751,"Ġ7":1752,"ĠdnÃ©":1753,"ĠcrÃ¥":1754,"Ġmos":1755,"ĠrÃ®":1756,"yÃ®s":1757,"art":1758,"Ġscrijheus":1759,"ĠpÃ®ces":1760,"Ġmu":1761,"djwÃ¨s":1762,"elÃ¨s":1763,"xhons":1764,"Ġ\",":1765,"Ġdisf":1766,"Ġbate":1767,"purade":1768,"ĠlÃ¥dje":1769,"Ġvraiy":1770,"ĠZ":1771,"Ġ14":1772,"Ġara":1773,"Ġcost":1774,"antche":1775,"rixh":1776,"ĠwÃ¥rd":1777,"Ġoct":1778,"Ġplante":1779,"ĠinglÃ¨s":1780,"Ã¥reye":1781,"ane":1782,"Ġvatches":1783,"Ġrin":1784,"Ġsolea":1785,"Ġmost":1786,"Ġrap":1787,"ijhÃ®":1788,"ĠsÃ´d":1789,"Ġtecses":1790,"Ġbasti":1791,"Sacwants":1792,"ĠcÃ©nk":1793,"ĠezÃ¨s":1794,"djet":1795,"Ġsoci":1796,"Ġwalone":1797,"indaedje":1798,"Ġprod":1799,"Ġcins":1800,"Ã¥ke":1801,"Ġfou":1802,"Ġban":1803,"Ġvatche":1804,"Ã¥rt":1805,"Ġwice":1806,"ĠBou":1807,"ĠCal":1808,"eurs":1809,"Ġveyou":1810,"ĠtrÃ´":1811,"ass":1812,"Ġpers":1813,"Ġbin":1814,"Ġoujhe":1815,"ĠfrÃ¥z":1816,"Ġpea":1817,"ara":1818,"ions":1819,"mont":1820,"Ġtap":1821,"Ġfond":1822,"erd":1823,"roz":1824,"oÃ»t":1825,"Ġnov":1826,"Ġdivnou":1827,"Ġredj":1828,"ĠsacwantÃ¨s":1829,"Ġdierin":1830,"51":1831,"LoukÃ®z":1832,"ge":1833,"Ġdon":1834,"Ġfini":1835,"Ġval":1836,"ĠÃ¥jhey":1837,"Ġtchant":1838,"Ġfoyes":1839,"Ġdvins":1840,"Ġsincieus":1841,"djreÃ§mint":1842,"Ġtchansons":1843,"Ġrtro":1844,"ĠoctÃ´be":1845,"81":1846,"bon":1847,"Ã´tes":1848,"Ġcop":1849,"Ġtchape":1850,"Ġviz":1851,"ĠmoussÃ®":1852,"pÃ©":1853,"prez":1854,"Ġ6":1855,"ĠX":1856,"ĠawÃ¨":1857,"Ġsam":1858,"Ġcas":1859,"djo":1860,"Ã»sse":1861,"ĠBru":1862,"Ġaprume":1863,"Ã¥rds":1864,"Ġdroet":1865,"Ġcandj":1866,"Ġlinwin":1867,"djreus":1868,"ĠâĢľ":1869,"bou":1870,"ctif":1871,"dis":1872,"Ġsere":1873,"ĠcÃ¥":1874,"Ġtite":1875,"reu":1876,"Ġfl":1877,"Ġnin":1878,"veye":1879,"ĠWal":1880,"Ġdmand":1881,"lamind":1882,"mb":1883,"pit":1884,"walon":1885,"Ġletes":1886,"Ġivier":1887,"Ã»ve":1888,"tite":1889,"ĠprumÃ®s":1890,"ĠgrandÃ¨s":1891,"Ã¥des":1892,"Ġfjheut":1893,"Ġeploye":1894,");":1895,"cfeye":1896,"pw":1897,"plo":1898,"Ġdzo":1899,"Ġeures":1900,"Ġcint":1901,"Ġcene":1902,"Ãªre":1903,"Ġtchv":1904,"ĠpadrÃ®":1905,"wousse":1906,"imÃ¥djreÃ§mint":1907,"so":1908,"sin":1909,"Ġ/":1910,"Ġasto":1911,"ĠMo":1912,"135":1913,"Ġplin":1914,"ĠPo":1915,"umont":1916,"nÃªyes":1917,"Ġj":1918,"Ġpire":1919,"Ã¥ye":1920,"ĠÃ¥bes":1921,"Ġgr":1922,"Ġgri":1923,"Ġtcha":1924,"ĠalÃ©ve":1925,"Ġscole":1926,"Ġaiwes":1927,"ĠeplaidÃ®":1928,"52":1929,"si":1930,"Ġdner":1931,"Ġone":1932,"ssÃ¨s":1933,"jhes":1934,"Ġdab":1935,"ĠÃ©ndj":1936,"han":1937,"Ġ24":1938,"Ġpins":1939,"Ġme":1940,"reces":1941,"ĠvÃ©n":1942,"mey":1943,"Ã´pe":1944,"Ġdjae":1945,"ĠÃ¥be":1946,"ats":1947,"rand":1948,"Ġstroet":1949,"278":1950,"Ġviker":1951,"Ġmagn":1952,"Ġ2000":1953,"que":1954,"ĠWalons":1955,"noxhe":1956,"Ġlinwincieus":1957,"fi":1958,"kÃªye":1959,"ĠIl":1960,"ĠpÃ®s":1961,"Ġrv":1962,"rac":1963,"108":1964,"168":1965,"148":1966,"258":1967,"285":1968,"288":1969,"238":1970,"Ġrexhe":1971,"Ġtchampi":1972,"Ġtchamps":1973,"Ġpaski":1974,"Ã¢r":1975,"Ġsonk":1976,"Coinrece":1977,"honn":1978,"inltins":1979,"Ġawousse":1980,"ĠbroÃ»":1981,"ĠdoÃ»":1982,"kepi":1983,"198":1984,"208":1985,"185":1986,"188":1987,"158":1988,"178":1989,"165":1990,"138":1991,"248":1992,"255":1993,"275":1994,"268":1995,"298":1996,"ĠÃ´r":1997,"Ġrade":1998,"Ġmari":1999,"ĠGu":2000,"ĠHaust":2001,"ĠdabÃ´rd":2002,"Pu":2003,"steure":2004,"ĠlzÃ®":2005,"Ġpris":2006,"Ġptite":2007,"Ġtae":2008,"Ġfeye":2009,"ĠtchÃ©n":2010,"ĠDumont":2011,"105":2012,"265":2013,"295":2014,"ĠSch":2015,"Ġtofer":2016,"Ġcaf":2017,"ĠGn":2018,"Ġcoron":2019,"nÃ¨s":2020,"ucion":2021,"Ġlontins":2022,"Ġed":2023,"Ġdiy":2024,"Ġdist":2025,"ĠmÃ®":2026,"Ġrit":2027,"Ġcopurade":2028,"Ġpoy":2029,"etÃ©":2030,"195":2031,"205":2032,"Ã§aedje":2033,"155":2034,"Ġ:''":2035,"175":2036,"145":2037,"245":2038,"235":2039,"ĠGil":2040,"Ġcial":2041,"Ġaddje":2042,"Ġcroejh":2043,"ult":2044,"ĠÂ».":2045,"Ġtchanson":2046,"orir":2047,"ois":2048,"reus":2049,"Ġrae":2050,"Ġcoss":2051,"207":2052,"167":2053,"297":2054,"Ġuz":2055,"ĠEl":2056,"Ġwaer":2057,"Ġbrut":2058,"plin":2059,"petaedje":2060,"Por":2061,"ede":2062,"oit":2063,"ph":2064,"ront":2065,"ude":2066,"vÃ¨t":2067,"Ġtant":2068,"Ġfleurs":2069,"ĠtchvÃ¥":2070,"âĢĿ":2071,"187":2072,"Ġov":2073,"147":2074,"277":2075,"287":2076,"237":2077,"ĠEne":2078,"ĠEst":2079,"icmint":2080,"pagne":2081,"Ġmartch":2082,"ĠkÃ©cfeye":2083,"revÃ©ns":2084,"Ġpersou":2085,"der":2086,"Ġdipus":2087,"Ġkin":2088,"Ġvni":2089,"197":2090,"107":2091,"157":2092,"177":2093,"137":2094,"247":2095,"257":2096,"267":2097,"ĠÃ´tÃ¨s":2098,"Ġmay":2099,"yive":2100,"Ġdec":2101,"Ġ2007":2102,"Ġcrexh":2103,"Ġmostere":2104,"LW":2105,"Ou":2106,"az":2107,"ĠrÃ´":2108,"ven":2109,"Ã¥rs":2110,"ĠAv":2111,"Ġrexh":2112,"ĠJo":2113,"Ġegzim":2114,"Ġcorant":2115,"avÃ¥":2116,"ĠpapÃ®":2117,"pwis":2118,"ĠtchvÃ¥s":2119,"La":2120,"cou":2121,"udi":2122,"Ġast":2123,"irs":2124,"ram":2125,"ĠForir":2126,"aetchÃ®":2127,"Ġcalcaedje":2128,"ĠcwÃ¥rs":2129,"crÃ¥":2130,"ia":2131,"lons":2132,"pla":2133,"tot":2134,"uss":2135,"Ġau":2136,"Ã¨re":2137,"Ġflo":2138,"Ġbal":2139,"aegn":2140,"Ġkimin":2141,"ssele":2142,"ĠCoÃ»":2143,"256":2144,"Ġfiesse":2145,"ĠDji":2146,"Ġmanire":2147,"Ġsicrijh":2148,"Ġnel":2149,"Ġsiervi":2150,"ĠtchÃ´d":2151,"ĠimÃ¥djes":2152,"Ġarabe":2153,"Ġatch":2154,"Ġspe":2155,"Ġrm":2156,"Ġavans":2157,"rok":2158,"204":2159,"Ġsto":2160,"Ġplantes":2161,"ĠRo":2162,"Ġscrijhaedje":2163,"ĠviyÃ¨s":2164,"bout":2165,"cÃ¥":2166,"lot":2167,"tr":2168,"vol":2169,"Ġcm":2170,"Ã¥me":2171,"ĠnoÃ»":2172,"Ġdjeu":2173,"stant":2174,"ĠSi":2175,"Ġmame":2176,"ĠpÃ¥rteye":2177,"otches":2178,"Ġmwins":2179,"Div":2180,"pont":2181,"tre":2182,"zer":2183,"oux":2184,"Ġfwaite":2185,"cher":2186,"Ġrodje":2187,"Ġrowe":2188,"Ġcogne":2189,"236":2190,"ouwer":2191,"Ġparints":2192,"metou":2193,"Ġtecse":2194,"imeye":2195,"Ġmuzike":2196,"Ġaddjectif":2197,"Ces":2198,"Ġ8":2199,"estea":2200,"Ġlan":2201,"Ġaid":2202,"Ġpoyes":2203,"194":2204,"196":2205,"206":2206,"186":2207,"106":2208,"154":2209,"156":2210,"146":2211,"134":2212,"Ġtrover":2213,"Ġdedja":2214,"crijhaedje":2215,"tin":2216,"tÃªye":2217,"uf":2218,"Ġdzeu":2219,"Ġlete":2220,"Ġpere":2221,"ĠdilÃ©":2222,"tene":2223,"Ġfwa":2224,"Ġvl":2225,"Ġdjour":2226,"Ġaveu":2227,"104":2228,"Ġomes":2229,"176":2230,"164":2231,"166":2232,"144":2233,"136":2234,"246":2235,"254":2236,"274":2237,"276":2238,"284":2239,"286":2240,"266":2241,"296":2242,"div":2243,"ĠSom":2244,"ĠmÃ¥lÃ¥":2245,"ĠRom":2246,"ingu":2247,"Ġshijh":2248,"itchant":2249,"Ġcrexhe":2250,"Ġrcwer":2251,"\").":2252,"ban":2253,"nÃ®":2254,"osse":2255,"ÃĶ":2256,"Ġ12":2257,"Ġtol":2258,"Ã¨te":2259,"Ġfin":2260,"Ġbas":2261,"Ġcoleur":2262,"Ġpoirt":2263,"ric":2264,"jhÃ®":2265,"184":2266,"Ġalmand":2267,"ĠBal":2268,"174":2269,"244":2270,"264":2271,"234":2272,"294":2273,"ĠSo":2274,"Ġprin":2275,"ides":2276,"Ġdmo":2277,"Ġtchamp":2278,"Ġdandjreus":2279,"ame":2280,"asse":2281,"come":2282,"kÃ¨s":2283,"mi":2284,"Ġprijh":2285,"lets":2286,"Ġsov":2287,"ĠLuc":2288,"Ġvike":2289,"Eto":2290,"Ġmetes":2291,"ĠÃ¥rÃ¨":2292,"Ġmwaisses":2293,"Ġrasco":2294,"ĠsaetchÃ®":2295,"Ġnovele":2296,"Ġouys":2297,"Ġsereut":2298,"ave":2299,"fab":2300,"mÃªye":2301,"naedjes":2302,"nÃ©s":2303,"ob":2304,"oxh":2305,"Ġseur":2306,"Ġpet":2307,"Ġcar":2308,"teus":2309,"Ġvir":2310,"ĠrwÃ¨":2311,"Ġavoz":2312,"Ġsoce":2313,"Ġtchap":2314,"ĠMi":2315,"ĠAr":2316,"ĠmÃ¥ss":2317,"Ġspl":2318,"Ã¥sh":2319,"zist":2320,"Ġricnoxh":2321,"Ġprezint":2322,"dschel":2323,"Mi":2324,"fin":2325,"kÃ¨t":2326,"oele":2327,"pÃ¥":2328,"ry":2329,"Ġlaece":2330,"Ġpri":2331,"ĠbÃ¥":2332,"Ġistwere":2333,"dey":2334,"203":2335,"183":2336,"ĠDis":2337,"173":2338,"143":2339,"253":2340,"273":2341,"gnon":2342,"Ġdisch":2343,"Ġriwalon":2344,"Ġramexh":2345,"Ġfoice":2346,"ĠVer":2347,"Ġprof":2348,"Ġprogra":2349,"poy":2350,"Â».":2351,"Ġdiferin":2352,"ĠHendschel":2353,"ĠBrussele":2354,"Ġcossou":2355,"Did":2356,"Ses":2357,"cs":2358,"Ġ13":2359,"Ġmat":2360,"ĠmÃ¥r":2361,"Ġespli":2362,"Ġsoeye":2363,"Ġtchim":2364,"193":2365,"atike":2366,"Ã§on":2367,"103":2368,"Ġocu":2369,"153":2370,"163":2371,"133":2372,"243":2373,"283":2374,"263":2375,"233":2376,"293":2377,"Ġtourner":2378,"ĠidÃªyes":2379,"ĠdÃ¨l":2380,"ĠriwalonijhÃ®":2381,"'-":2382,"oen":2383,"Ġcinse":2384,"Ġdiman":2385,"neu":2386,"neut":2387,"Ġbra":2388,"meas":2389,"Ã´me":2390,"keye":2391,"ĠtotÃ¨s":2392,"Ġnole":2393,"viete":2394,"Ġmagne":2395,"Ġbouter":2396,"lande":2397,"ĠdjÃ¥zer":2398,"Ġresc":2399,"ĠdijhÃªye":2400,"Ġsorlon":2401,"ĠÃ¥dzeu":2402,"Ġnovea":2403,"Ġdsu":2404,"nance":2405,"winne":2406,"Ġlo":2407,"ĠsÃ¨s":2408,"Ã¥ler":2409,"Ġmer":2410,"Ġmac":2411,"ĠbelÃ¨s":2412,"Ġlimer":2413,"Ġgrin":2414,"Ġpates":2415,"amp":2416,"169":2417,"pea":2418,"ĠSt":2419,"Ġnoer":2420,"prind":2421,"Ġanc":2422,"omeye":2423,"Ġbrou":2424,"Ġfemes":2425,"Ġsieve":2426,"Ġmoens":2427,"Ġblanke":2428,"djinÃ§":2429,"Ġmostrer":2430,"Ġlaecea":2431,"od":2432,"wi":2433,"Ġley":2434,"ĠlzÃ¨s":2435,"Ġsot":2436,"ĠbÃ¥sh":2437,"oÃ»le":2438,"189":2439,"ĠBe":2440,"179":2441,"269":2442,"Ġham":2443,"ĠAf":2444,"Ġtoplin":2445,"gneur":2446,"ĠTh":2447,"ĠcwÃ¨":2448,"ĠsayÃ®":2449,"Ġcomp":2450,"Ġdjun":2451,"Ġamon":2452,"Ġracont":2453,"Ãĩou":2454,"Ġseule":2455,"Ġbetchf":2456,"antchÃ®":2457,"olodjike":2458,"Ġsplitchant":2459,"nÃ©ve":2460,"ya":2461,"Ġus":2462,"ong":2463,"Ġcir":2464,"ĠmÃ©":2465,"dji":2466,"djÃ®s":2467,"Ġvind":2468,"roc":2469,"ĠÃ¥cint":2470,"Ġalfab":2471,"279":2472,"dimint":2473,"Ġmetans":2474,"yince":2475,"Ġdmeure":2476,"ĠgrossÃ¨s":2477,"Ġplake":2478,"Ġcrust":2479,"ĠwangnÃ®":2480,"Ġofic":2481,"landÃ¨s":2482,"ĠCoÃ»tchant":2483,"cÃ¥z":2484,"gl":2485,"grÃ©":2486,"rÃªyes":2487,"za":2488,"Ġsinne":2489,"Ã¥jhe":2490,"meye":2491,"Ġcori":2492,"ala":2493,"199":2494,"209":2495,"Ã¥res":2496,"109":2497,"159":2498,"149":2499,"139":2500,"249":2501,"259":2502,"289":2503,"239":2504,"299":2505,"Ġmod":2506,"Ġmach":2507,"Ġrlom":2508,"ĠvicÃ¥reye":2509,"ĠamagnÃ®":2510,"ĠcostÃ©s":2511,"Ġstroetmint":2512,"ĠSomme":2513,"cteur":2514,"vins":2515,"ĠoÃ»s":2516,"Ġdpus":2517,"Ġpond":2518,"cha":2519,"jhons":2520,"ĠDins":2521,"liard":2522,"Ġpoleur":2523,"ĠImp":2524,"ĠcÃ¥zant":2525,"Ġacle":2526,"ifs":2527,"Ġdroete":2528,"Ġromans":2529,"Ġprezid":2530,"Ġdjheut":2531,"Ġfroed":2532,"ĠsacwÃ¨s":2533,"Ġoujheas":2534,"ĠÃ©ndjol":2535,"ĠlinwincieusÃ¨s":2536,"Met":2537,"Qu":2538,"lÃ©s":2539,"Ġsourd":2540,"Ġpour":2541,"Ã¥ves":2542,"rexhe":2543,"ĠboÃ»":2544,"Ġbinde":2545,"Ġrire":2546,"ment":2547,"Ġcoin":2548,"Ġtchinne":2549,"imbor":2550,"Ġstr":2551,"ĠalÃ©nt":2552,"Ġdisp":2553,"Ġboir":2554,"ĠpÃ¥djes":2555,"Ġteres":2556,"ĠsicrÃ®t":2557,"Ġviebes":2558,"Ġmaladeyes":2559,"ĠGilliard":2560,"Asteure":2561,"lu":2562,"vin":2563,"anter":2564,"ĠvnÃ¨t":2565,"Ġnu":2566,"Ġrou":2567,"erma":2568,"ĠcobÃ©n":2569,"Ġpoli":2570,"alÃ©":2571,"roe":2572,"ros":2573,"Ġvijh":2574,"ĠÃ§k":2575,"vie":2576,"viers":2577,"ĠpÃ¥dje":2578,"kipe":2579,"Ġmwais":2580,"Ġariver":2581,"Ġcourt":2582,"Ġvoyale":2583,"ĠcurÃ©":2584,"Ġastok":2585,"Ã¥lerwÃ¨":2586,"tra":2587,"yons":2588,"Ġ30":2589,"Ġloum":2590,"Ġkm":2591,"cea":2592,"Ġwal":2593,"ĠLou":2594,"Ġstudi":2595,"Ġplou":2596,"Ġdisla":2597,"ĠRem":2598,"Ġmetous":2599,"Ġaccint":2600,"cole":2601,"Ġfront":2602,"ĠrascrÃ¥":2603,"ĠcandjÃ®":2604,"Ġpierd":2605,"atchÃ®":2606,"Ġdjouwer":2607,"Ġalfabet":2608,"Cisse":2609,"gan":2610,"iwe":2611,"zÃ´tes":2612,"Ġeure":2613,"Ã¥cions":2614,"Ġflamind":2615,"Ġrinde":2616,"ĠestÃ©":2617,"Ġdobe":2618,"ĠMont":2619,"ambe":2620,"Ġplouve":2621,"Ġraf":2622,"ĠMarok":2623,"Ġscrijha":2624,"ques":2625,"Ġatra":2626,"plae":2627,"Ġclass":2628,"ĠFrancard":2629,"aires":2630,"cw":2631,"dins":2632,"son":2633,"yant":2634,"ĠsÃ¥r":2635,"Ġpwin":2636,"ĠeviÃ¨":2637,"Ġcri":2638,"Ġmam":2639,"Ġbire":2640,"Ġvous":2641,"Ġvud":2642,"ĠpoÃ»":2643,"ĠÃ¥k":2644,"ĠpayÃ®":2645,"Ġhap":2646,"Ġcawe":2647,"Ġvoyes":2648,"Ġmier":2649,"avou":2650,"ĠTchÃ¥lerwÃ¨":2651,"ÃĪn":2652,"ĠprodÃ»t":2653,"Tos":2654,"bl":2655,"cc":2656,"cin":2657,"nis":2658,"Ġsinte":2659,"Ã¥m":2660,"Ġdif":2661,"teyes":2662,"Ġfon":2663,"Ġbri":2664,"Ġ(\"":2665,"aedj":2666,"itÃ©s":2667,"Ġcodjo":2668,"Ã»le":2669,"Ġtchoe":2670,"irter":2671,"rante":2672,"Ġnom":2673,"Ġtroejh":2674,"xhea":2675,"Ġsaye":2676,"magne":2677,"Ġpassaedje":2678,"Ġratind":2679,"Ġegzist":2680,"Ġciste":2681,"nsi":2682,"ĠmÃ¥lÃ¥jhey":2683,"Alez":2684,"Do":2685,"End":2686,"In":2687,"Ma":2688,"clo":2689,"dÃ©":2690,"sh":2691,"uni":2692,"wÃ©":2693,"ĠdicÃ¥":2694,"Ġrind":2695,"aedjÃ®":2696,"Ġcopete":2697,"intche":2698,"Ġgra":2699,"Ġsogne":2700,"Ġtchet":2701,"seph":2702,"ĠDen":2703,"acle":2704,"ĠBijhe":2705,"Ġvier":2706,"Ġcomene":2707,"Ġdiswal":2708,"Ġrad":2709,"Ġsap":2710,"ĠspÃ¥rd":2711,"Ġmouss":2712,"ĠlomÃ©ve":2713,"Ã¥ds":2714,"Ġcontin":2715,"Ġshuv":2716,"Ġoto":2717,"Ġrespond":2718,"ÃªyÃ¨s":2719,"Portant":2720,"Insi":2721,"din":2722,"dou":2723,"nu":2724,"ĠdÃ¥":2725,"Ġdra":2726,"Ġpires":2727,"Ã¥les":2728,"Ġmesse":2729,"Ġrond":2730,"eri":2731,"otlÃ®":2732,"Ġpoite":2733,"Ġdjond":2734,"Ġdos":2735,"ĠÃ¥ye":2736,"Ġgal":2737,"kete":2738,"Ġtchante":2739,"ĠBi":2740,"ĠCol":2741,"ĠAmer":2742,"Ġmorou":2743,"ĠEs":2744,"ĠDjez":2745,"ĠcÃ¥zer":2746,"ĠschoÃ»":2747,"ĠÃĶ":2748,"ĠevoyÃ®":2749,"ĠlomÃ©s":2750,"Ġcroey":2751,"ĠdjÃ¥ze":2752,"Ġgazetes":2753,"Ġrfondou":2754,"Ġfaleut":2755,"ĠRemacle":2756,"Omon":2757,"fÃ©":2758,"lÃ´":2759,"Ġ&":2760,"Ġy":2761,"Ġcenes":2762,"Ã¥dje":2763,"rea":2764,"reur":2765,"Ġbro":2766,"Ġbleu":2767,"ĠvÃ¥t":2768,"Ġrlidj":2769,"Ġdessin":2770,"ĠpacÃ´":2771,"ĠCon":2772,"vien":2773,"Ġrab":2774,"Ġrapoirt":2775,"Ġmetowes":2776,"ĠmalÃ¥de":2777,"Ġplaijh":2778,"erts":2779,"ĠfjhÃ¨t":2780,"stogne":2781,"ĠKi":2782,"oyÃ©":2783,"ĠmolÃ©n":2784,"Ġprezidint":2785,"'t":2786,"del":2787,"ografeye":2788,"rins":2789,"Ġsfwait":2790,"Ġcot":2791,"Ã¨ch":2792,"Ġral":2793,"aegne":2794,"Ġcole":2795,"vey":2796,"imon":2797,"Ġostant":2798,"ĠSara":2799,"Ġcomere":2800,"Ġscol":2801,"Ġscoles":2802,"Ġbijhe":2803,"Ã´rt":2804,"ĠII":2805,"Ġfrancesse":2806,"Ġdjulete":2807,"iynut":2808,"Ġabeye":2809,"Ġarive":2810,"ĠcafÃ¨":2811,"Pa":2812,"Pus":2813,"ls":2814,"Ãł":2815,"ĠadjinÃ§":2816,"Ġcnoxhe":2817,"Ġdistr":2818,"Ġmic":2819,"Ã¨sse":2820,"iti":2821,"ĠavÃ¥":2822,"Ġparey":2823,"Ġtchestea":2824,"iron":2825,"laire":2826,"dire":2827,"ĠSc":2828,"ĠprÃ©":2829,"ĠhÃ¥y":2830,"Ġmori":2831,"omb":2832,"ĠGrand":2833,"Ġenond":2834,"ĠdvÃ©nt":2835,"Ġpiede":2836,"Ġzeles":2837,"Ġratourne":2838,"ĠBastogne":2839,"Nosse":2840,"Ġorto":2841,"Ġtchampion":2842,"Ġcroejhete":2843,"ĠbetchfessÃ®":2844,"ĠDenis":2845,"Vic":2846,"aer":2847,"he":2848,"Ġ50":2849,"Ġdints":2850,"ones":2851,"Ġpel":2852,"anvÃ®":2853,"Ã®re":2854,"ĠtÃ©nt":2855,"Ã¨le":2856,"Ġfran":2857,"ĠvÃ´":2858,"Ġesc":2859,"Ġetimolodjeye":2860,"Ġcol":2861,"ĠÃ¥dje":2862,"waire":2863,"âĢ¦":2864,"cial":2865,"ĠhÃ¥":2866,"ĠPr":2867,"ĠÃ§ki":2868,"Ġriss":2869,"Ġrey":2870,"ĠaskepyÃ®":2871,"Ġbed":2872,"moen":2873,"Ġramass":2874,"ĠfrÃ¥ze":2875,"Le":2876,"Ti":2877,"ast":2878,"bÃ¥":2879,"foÃ»":2880,"mpe":2881,"vmint":2882,"zin":2883,"Ġdans":2884,"ĠlÃ®":2885,"Ġadj":2886,"Ġeri":2887,"oul":2888,"oute":2889,"ang":2890,"Ġmous":2891,"Ġcoxhes":2892,"antoele":2893,"Ġdjonn":2894,"use":2895,"Ġtchey":2896,"ĠtchÃ©ns":2897,"sene":2898,"ĠBo":2899,"ĠÃ´re":2900,"Ġradj":2901,"ĠWi":2902,"ĠNoyÃ©":2903,"gues":2904,"Ġfrut":2905,"Ġgayel":2906,"Ġmoenne":2907,"antches":2908,"conomeye":2909,"Ġgovien":2910,"ĠFrancÃ¨s":2911,"Ġsaveur":2912,"Ġcnoxhou":2913,"Ġcatol":2914,"Ġdimor":2915,"ĠMouze":2916,"lÃªyes":2917,"vrÃ®":2918,"Ġpur":2919,"Ġcons":2920,"Ġrot":2921,"mene":2922,"letes":2923,"Ġestoz":2924,"jhan":2925,"ates":2926,"ĠMat":2927,"cip":2928,"Ġsai":2929,"Ġbiy":2930,"rindj":2931,"aetche":2932,"Ġbresse":2933,"ĠOt":2934,"Ġrash":2935,"Ġdisconte":2936,"Ġpadvant":2937,"Ġsierv":2938,"Ġdiferins":2939,"prezint":2940,"ermain":2941,"fr":2942,"lÃ©ve":2943,"uw":2944,"waedje":2945,"wetes":2946,"Ġpot":2947,"rete":2948,"ches":2949,"Ġavi":2950,"Ġavri":2951,"risse":2952,"Ġgl":2953,"Ġgote":2954,"Onk":2955,"arin":2956,"ĠGermain":2957,"Ġant":2958,"Ġboute":2959,"Ġaskepi":2960,"Ġarimeas":2961,"onnrece":2962,"ĠAlmand":2963,"Ġmoirts":2964,"Ã´zef":2965,"ĠdmorÃ©":2966,"ĠtoÃ»ne":2967,"Ġsetimbe":2968,"Ġdecimbe":2969,"ĠdjournÃªye":2970,"Ġtroejhinme":2971,"bal":2972,"hy":2973,"lÃ¨t":2974,"nÃ©nt":2975,"nike":2976,"Ġind":2977,"Ġsem":2978,"Ġclo":2979,"andjÃ®":2980,"ĠdirÃ®":2981,"Ġmeur":2982,"ĠtÃ¥ve":2983,"nea":2984,"yeu":2985,"ĠnÃ´":2986,"role":2987,"ĠtchÃ®":2988,"Ġtchen":2989,"ama":2990,"Ġoy":2991,"pene":2992,"ĠPol":2993,"Ġdispa":2994,"ĠFel":2995,"Ġcarac":2996,"Ġscha":2997,"Ġscrijhas":2998,"Ġfrume":2999,"ĠfevrÃ®":3000,"Ġtchambe":3001,"ĠTchÃ¥r":3002,"fondowe":3003,"ĠdandjÃ®":3004,"Ġprovince":3005,"Ġtchapea":3006,"venir":3007,"ĠAfrike":3008,"Avenir":3009,"axhe":3010,"idje":3011,"lant":3012,"pol":3013,"vous":3014,"ĠdÃ©":3015,"ĠlÃ¨":3016,"net":3017,"Ġritch":3018,"ĠrwaitÃ®":3019,"Ġcod":3020,"Ġcoixh":3021,"Ã¨st":3022,"ĠdjanvÃ®":3023,"Ã»r":3024,"vea":3025,"stike":3026,"wez":3027,"imes":3028,"ĠBen":3029,"ĠCo":3030,"ĠCar":3031,"ĠprÃ´pe":3032,"Ġtoet":3033,"ĠdivÃ©nt":3034,"ĠHam":3035,"ĠNonne":3036,"uzance":3037,"ĠDjan":3038,"Ġschap":3039,"ĠpÃ¥p":3040,"ĠVers":3041,"Ġbedje":3042,"Ġsiconte":3043,"ĠÃ¥jheymint":3044,"Ġdmander":3045,"volucion":3046,"Ġfwaiynut":3047,"trait":3048,"ĠDjezus":3049,"Ã¨cheur":3050,"br":3051,"lom":3052,"oke":3053,"oxhe":3054,"rlandÃ¨s":3055,"uwe":3056,"yÃ©n":3057,"Ġcer":3058,"anc":3059,"Ġfla":3060,"Ġvinte":3061,"Ġnot":3062,"mea":3063,"djeye":3064,"irmint":3065,"wey":3066,"ĠBer":3067,"Ġplan":3068,"Ġho":3069,"Ġnoere":3070,"ĠPÃ¨cheur":3071,"indÃªye":3072,"ĠÃ´t":3073,"Ġ1940":3074,"Ġrav":3075,"ĠRen":3076,"Ġboke":3077,"Ġmeteut":3078,"Ġ2008":3079,"oird":3080,"Ġhoute":3081,"Ġtrib":3082,"Ġsouke":3083,"ĠpapÃ®s":3084,"ĠsocietÃ©":3085,"Ġnoveles":3086,"ĠWallons":3087,"ĠJoseph":3088,"Divant":3089,"Ġdmorer":3090,"Dinltins":3091,"mots":3092,"ova":3093,"uj":3094,"Ġour":3095,"Ġ40":3096,"Ġdeure":3097,"Ġdime":3098,"Ã¨ne":3099,"Ġver":3100,"Ġvete":3101,"Ġetur":3102,"Ġpowe":3103,"Ġlijh":3104,"Ġave":3105,"Ġgam":3106,"xhant":3107,"Ġsigneur":3108,"ontinne":3109,"ĠDu":3110,"ĠDes":3111,"Ġora":3112,"ĠChin":3113,"dia":3114,"ĠnozÃ´tes":3115,"Ġmostr":3116,"Ġrid":3117,"Ġ1960":3118,"Ġravi":3119,"Ġrapl":3120,"Ġfoir":3121,"Ġboere":3122,"aud":3123,"kets":3124,"winnes":3125,"Ġrote":3126,"Ġcomif":3127,"Ġdrole":3128,"Ġmoenner":3129,"ĠimÃ¥dje":3130,"Ġpolitike":3131,"ĠMÃ¥m":3132,"ĠÃ¨st":3133,"ĠwÃ¥rder":3134,"Ġboird":3135,"ĠpoÃ»ss":3136,"ĠAlmands":3137,"ĠcomifÃ¥t":3138,"ges":3139,"gzim":3140,"yÃ¨t":3141,"ĠlwÃ¨":3142,"Ġpene":3143,"Ã®z":3144,"Ġrwait":3145,"men":3146,"elle":3147,"rice":3148,"Ġtchere":3149,"ĠMe":3150,"rance":3151,"Ã§a":3152,"ĠLov":3153,"ĠCome":3154,"dic":3155,"Ġnor":3156,"ĠAnd":3157,"prinde":3158,"Ġdism":3159,"indrÃ®":3160,"Ġ190":3161,"Ġouve":3162,"Ġfok":3163,"ĠWar":3164,"Ġtroke":3165,"ĠtrovÃ©":3166,"ĠHu":3167,"icol":3168,"Ġspit":3169,"ĠDjer":3170,"ĠshÃ»t":3171,"ĠÃ¥rmÃªye":3172,"Ġwai":3173,"Ġvola":3174,"Ġ2003":3175,"Ġamour":3176,"Ġfjhant":3177,"Ġinf":3178,"ĠÂ»,":3179,"Ġneye":3180,"Ġveyes":3181,"ĠfÃ¥ves":3182,"ĠsÃ´dÃ¥rds":3183,"ĠScho":3184,"Ġpersounaedjes":3185,"Ġkinoxh":3186,"aveÃ»t":3187,"Ġnombe":3188,"Omonimeye":3189,"ĠMÃ¥mdey":3190,"fes":3191,"ici":3192,"sch":3193,"Ġsur":3194,"Ġmimbe":3195,"Ġtrin":3196,"chÃ®":3197,"Ġvinde":3198,"aeye":3199,"sson":3200,"Ġposse":3201,"Ġdjal":3202,"jhene":3203,"ĠtchÃ¥r":3204,"Ġtchmin":3205,"ĠMer":3206,"ĠALW":3207,"Ã¥ze":3208,"ĠmotlÃ®":3209,"ession":3210,"lote":3211,"Ġrecher":3212,"yets":3213,"Ġbatea":3214,"abÃ´rd":3215,"Ġminmes":3216,"Dispu":3217,"Tcher":3218,"Ġpeupe":3219,"ĠlÃ©t":3220,"ĠbÃ¥shele":3221,"Ġgovienmint":3222,"\")":3223,"Sol":3224,"ak":3225,"wesse":3226,"Ġ9":3227,"Ġner":3228,"Ġdaegn":3229,"Ġalez":3230,"Ġnonnrece":3231,"ĠrÃ§":3232,"Ġrmete":3233,"Ġestat":3234,"ola":3235,"Ã§ons":3236,"imb":3237,"pelez":3238,"Ġhe":3239,"indes":3240,"ĠramexhnÃ©":3241,"Ġdivint":3242,"Ġtele":3243,"ĠNo":3244,"Ġspot":3245,"Ġbagu":3246,"Ġelect":3247,"Ġwaibe":3248,"Ġpupont":3249,"Ġcomment":3250,"publi":3251,"Ġappelez":3252,"Ġ2006":3253,"Ġmonter":3254,"Ġfjha":3255,"ĠarivÃ©":3256,"ĠovrÃ®s":3257,"ĠratournÃ©":3258,"Ġfijheut":3259,"Ġdjambes":3260,"Ġcrap":3261,"Ġvizaedje":3262,"ĠAvis":3263,"ĠVervÃ®":3264,"Ġmachine":3265,"ĠtchÃ®f":3266,"ĠFeller":3267,"Ġrecherche":3268,"Ch":3269,"Ri":3270,"cro":3271,"lÃ®s":3272,"vimbe":3273,"ester":3274,"Ġpw":3275,"Ġpind":3276,"ĠtrevÃ©ns":3277,"Ġfwin":3278,"Ġru":3279,"Ġrest":3280,"Ġis":3281,"Ãªtre":3282,"veke":3283,"dele":3284,"olaedje":3285,"euses":3286,"ĠDjhan":3287,"Ġstud":3288,"ĠBar":3289,"dicion":3290,"ĠSm":3291,"Ġprins":3292,"waitaedje":3293,"Ġpleut":3294,"Ġplinne":3295,"Ġhintche":3296,"Ġdispoy":3297,"Ġmotoit":3298,"ĠmÃ¥jhons":3299,"tike":3300,"Ġuni":3301,"ĠGof":3302,"Ġanon":3303,"inner":3304,"rÃ¥ve":3305,"Ġcivi":3306,"ĠNive":3307,"enerÃ¥":3308,"ĠpÃ¥rler":3309,"Ġmil":3310,"Ġschav":3311,"Ġbeas":3312,"ĠfrÃ©":3313,"ĠdjivÃªye":3314,"Ġlomnut":3315,"Ġndaler":3316,"Ġseulmint":3317,"Ã¥ltÃ©":3318,"Ġeplaide":3319,"ĠBasse":3320,"Ġgrek":3321,"rexhou":3322,"ĠintrÃªye":3323,"Ġtoumer":3324,"Ġsamwinnes":3325,"Metans":3326,"Ġcoines":3327,"ĠnÃ´vimbe":3328,"ovaerts":3329,"ĠaveÃ»t":3330,"ĠNivele":3331,"Ni":3332,"ari":3333,"azi":3334,"bo":3335,"ck":3336,"cant":3337,"gr":3338,"nÃ®s":3339,"rat":3340,"ton":3341,"vÃ©s":3342,"wÃªye":3343,"Ġ11":3344,"Ġ21":3345,"esti":3346,"Ġapa":3347,"Ġce":3348,"ĠmatÃ©n":3349,"ĠtÃ¥v":3350,"djÃ¨s":3351,"djmint":3352,"Ġkeu":3353,"Ġfel":3354,"ĠflÃ¥":3355,"ĠavÃ¥r":3356,"cep":3357,"waisse":3358,"oland":3359,"acques":3360,"ĠtotavÃ¥":3361,"ĠCwand":3362,"Ġplat":3363,"Ġher":3364,"Ġcweri":3365,"ĠHin":3366,"illa":3367,"Ġcorti":3368,"ĠpÃ´ve":3369,"ĠsÃ¥jhon":3370,"Ġtrou":3371,"Ã¥lmint":3372,"ĠblankÃ¨s":3373,"ĠcalindrÃ®":3374,"Ġxhuf":3375,"Ġatake":3376,"Ġsamwinne":3377,"Ġdjaene":3378,"ĠLucy":3379,"Ġhamtea":3380,"Ġusteye":3381,"Ġloumire":3382,"Ġourit":3383,"ĠnerÃ©n":3384,".,":3385,"com":3386,"mÃ©":3387,"mans":3388,"oirt":3389,"tÃ©s":3390,"vÃ©ve":3391,"Ġdz":3392,"Ġpre":3393,"Ġmz":3394,"Ġtre":3395,"nete":3396,"djoÃ»":3397,"Ġvel":3398,"Ġritche":3399,"euz":3400,"jhaedje":3401,"ĠÃ¥b":3402,"Ġsoces":3403,"Ġtchve":3404,"Ġtchesse":3405,"Ġtchene":3406,"irÃ¨s":3407,"wele":3408,"ĠLu":3409,"Ġvite":3410,"ĠviÃ¨":3411,"Ġrilidj":3412,"Ġcab":3413,"ĠRantoele":3414,"Ġacse":3415,"Ġasch":3416,"Ġpez":3417,"Ġplakes":3418,"ĠfourÃ®t":3419,"ĠsitÃ®":3420,"Ġclap":3421,"Ġdiner":3422,"ĠcoÃ»tchÃ®":3423,"Discrijhaedje":3424,"Ġtouwer":3425,"ĠboutÃ©":3426,"Ġdiyale":3427,"ĠramexhnÃªye":3428,"Ġgrinnes":3429,"ĠLouis":3430,"ĠvudÃ®":3431,"112":3432,"212":3433,"MotlÃ®":3434,"deus":3435,"ij":3436,"pin":3437,"pou":3438,"ys":3439,"Ġlodj":3440,"Ġaro":3441,"Ġpan":3442,"ani":3443,"teÃ»t":3444,"ĠfÃ´me":3445,"Ġrf":3446,"Ġrn":3447,"rop":3448,"roes":3449,"rikes":3450,"Ġpaye":3451,"Ġtchanter":3452,"ati":3453,"Ġlaid":3454,"dier":3455,"Ġviol":3456,"ĠSinte":3457,"ĠprÃ´ze":3458,"omes":3459,"Ġrile":3460,"ĠFa":3461,"Ġels":3462,"Ġ1995":3463,"Ġfote":3464,"ĠNop":3465,"icÃ®":3466,"Ġadvie":3467,"Ġcroes":3468,"graf":3469,"ĠUni":3470,"Ġsudjet":3471,"ĠcoÃ»tchant":3472,"Ġespagn":3473,"ĠÃ¥rtike":3474,"Ġritro":3475,"Ġtolminme":3476,"Ġlimero":3477,"ĠImpire":3478,"ĠNopÃ¨re":3479,"'m":3480,"Cor":3481,"Eplo":3482,"cwÃ¨":3483,"lim":3484,"pot":3485,"zete":3486,"ĠQu":3487,"Ġarin":3488,"Ġsing":3489,"Ġsust":3490,"Ġchin":3491,"Ã©e":3492,"Ġfab":3493,"Ġbard":3494,"ĠvwÃ¨s":3495,"Ġcoine":3496,"Ġcoleurs":3497,"ĠsoÃ»":3498,"ceye":3499,"Ġtchess":3500,"Ġstindaedje":3501,"ĠBra":3502,"ĠBour":3503,"Ġhal":3504,"Ġmiyons":3505,"ouwÃ©":3506,"Ġboure":3507,"ozet":3508,"Ġlune":3509,"Ġpubli":3510,"Ġ2005":3511,"Ãħr":3512,"ĠAlmagne":3513,"Ġratournaedje":3514,"Ġbatreye":3515,"ikins":3516,"ĠespaitchÃ®":3517,"Ġpatt":3518,"Ġprograme":3519,"kipedia":3520,"Ġdimegne":3521,"Ki":3522,"Leu":3523,"eor":3524,"mins":3525,"nÃ¥cion":3526,"ost":3527,"Ġwait":3528,"Ġdrou":3529,"Ġlou":3530,"Ġapo":3531,"Ġpen":3532,"Ã©r":3533,"Ġmere":3534,"yeur":3535,"Ã©nxhe":3536,"Ġetroc":3537,"lemint":3538,"Ġcomin":3539,"Ġdjou":3540,"Ġdjowe":3541,"rote":3542,"Ġisto":3543,"Ã»sses":3544,"atif":3545,"amb":3546,"Ġom":3547,"ĠSal":3548,"ĠhÃ´te":3549,"prÃªtre":3550,"ĠPier":3551,"ĠPiron":3552,"urwÃ¨s":3553,"Ġfwaits":3554,"ĠmÃ¥ye":3555,"eyografeye":3556,"Ġfoye":3557,"Ġrev":3558,"Ġvoyaedje":3559,"Ġbole":3560,"Ġaprind":3561,"Ġpolnut":3562,"Ġspotch":3563,"ĠMareye":3564,"Ġrov":3565,"Ġrowes":3566,"Ġbresses":3567,"ifes":3568,"ĠsÃ¥v":3569,"Ġdinltins":3570,"Ġvea":3571,"Ġdoets":3572,"Ġdierinne":3573,"ĠprovÃ©nt":3574,"ĠprononÃ§aedje":3575,"Ġmartchand":3576,"Ġegzimpe":3577,"Ġresconte":3578,"imbordjwÃ¨s":3579,"Ġplaijhi":3580,"ĠHamteas":3581,"ĠSchoovaerts":3582,"):":3583,"Cri":3584,"Wa":3585,"ake":3586,"fart":3587,"igne":3588,"kÃ©s":3589,"lla":3590,"nances":3591,"ogne":3592,"pind":3593,"rd":3594,"rÃ©nt":3595,"ug":3596,"ĠdrÃ®":3597,"ina":3598,"inces":3599,"onke":3600,"ĠsÃ©":3601,"ĠcÃ»t":3602,"ouma":3603,"ana":3604,"Ġmim":3605,"Ġmess":3606,"Ġfri":3607,"Ġetim":3608,"Ġetrindj":3609,"ssÃ©":3610,"Ġposs":3611,"Ġavan":3612,"els":3613,"ĠÃ¥zÃ¨s":3614,"Ġtche":3615,"ols":3616,"Ġobli":3617,"Ġstrin":3618,"ĠBas":3619,"peye":3620,"dixh":3621,"eter":3622,"ĠPire":3623,"ĠcwÃ©n":3624,"Ġreplae":3625,"ĠEle":3626,"ĠNÃ´r":3627,"iccion":3628,"Ġpolou":3629,"ĠDjÃ´zef":3630,"ĠIs":3631,"Ġdeci":3632,"Ġlongue":3633,"Ġtermene":3634,"ĠmaryÃ®":3635,"metant":3636,"ĠParis":3637,"Â»,":3638,"Ġtcherpetaedje":3639,"ĠpÃ¥rtici":3640,"Ġlinwe":3641,"ĠÃ¥dvins":3642,"Ġprono":3643,"SacwantÃ¨s":3644,"rimÃªye":3645,"ĠrÃ®les":3646,"Ġcandjmint":3647,"Ouve":3648,"ĠnoÃ»mots":3649,"Ġlangue":3650,"ingue":3651,"ĠdicÃ¥ce":3652,"Ġbedots":3653,"Tcherpetaedje":3654,"euzmint":3655,"211":3656,"Tuzance":3657,"afwait":3658,"gon":3659,"glijhe":3660,"iaedje":3661,"je":3662,"leus":3663,"oenne":3664,"th":3665,"uv":3666,"Ġ25":3667,"Ġdmey":3668,"Ġdbout":3669,"inmes":3670,"Ġpriy":3671,"Ġedj":3672,"ĠcÃ´":3673,"teures":3674,"Ġtu":3675,"Ġtan":3676,"Ġfene":3677,"Ġbor":3678,"ĠbrÃ¥":3679,"Ġveu":3680,"Ġrint":3681,"mere":3682,"djets":3683,"ĠdjenerÃ¥":3684,"onta":3685,"ata":3686,"lai":3687,"ĠDel":3688,"ĠBr":3689,"ĠBor":3690,"ĠSimon":3691,"Ã¥zÃ¨s":3692,"Ġrist":3693,"ĠFr":3694,"Ġ1998":3695,"nisse":3696,"ancete":3697,"Ġbasse":3698,"ketes":3699,"Ġlongu":3700,"ĠfrÃ¨":3701,"Ġfem":3702,"Ġmarga":3703,"ofe":3704,"Ġparint":3705,"Ġcron":3706,"Ġbaston":3707,"Ġbotike":3708,"Ġbotaye":3709,"Ġtimps":3710,"ĠdjamÃ¥y":3711,"ĠcinsÃ®":3712,"ĠCalozet":3713,"ĠEstat":3714,"Ġpersounaedje":3715,"Ġsicrijheu":3716,"Ġcossoune":3717,"ĠaviÃ¨":3718,"ĠGoffart":3719,"Ġviolon":3720,"Ġsustant":3721,"DabÃ´rd":3722,"II":3723,"Pol":3724,"bis":3725,"cÃ´p":3726,"ec":3727,"hÃ¥":3728,"ule":3729,"Ġinme":3730,"onter":3731,"ĠsÃ»":3732,"ĠpÃ©":3733,"ĠpÃ¥zÃ¨s":3734,"Ġemey":3735,"aneye":3736,"Ã®sse":3737,"Ġtrans":3738,"Ã¨n":3739,"Ġrpa":3740,"Ġrujh":3741,"Ġespe":3742,"Ġdess":3743,"Ġdjeus":3744,"Ġdocteur":3745,"Ġava":3746,"Ġsicole":3747,"sen":3748,"rale":3749,"ĠCou":3750,"dio":3751,"ĠprÃ´p":3752,"Ġhar":3753,"ormint":3754,"lijhes":3755,"ĠWa":3756,"rijhe":3757,"rÃ®te":3758,"ĠbodjÃ®":3759,"Ġnive":3760,"ĠDjiv":3761,"Ġessegne":3762,"ĠpÃ¥ye":3763,"Ġacs":3764,"Ġaccep":3765,"Ġash":3766,"Ġluss":3767,"aul":3768,"Ġdvou":3769,"ĠlomÃªye":3770,"Ġpexhons":3771,"Ġamer":3772,"ĠpÃ´reut":3773,"Ġrashonn":3774,"ĠlÃ¥tchÃ®":3775,"Ġcontes":3776,"Ġricnoxhe":3777,"Ġpadzo":3778,"teurs":3779,"ĠfÃ¥reut":3780,"conom":3781,"ĠLag":3782,"ĠpicÃ¥rd":3783,"Ġimprim":3784,"Ġoujhea":3785,"ulture":3786,"Ġovrer":3787,"ĠRomins":3788,"Ġcossounes":3789,"Ġancyin":3790,"Ġcrustins":3791,"Ġtchoezi":3792,"Ġdrapea":3793,"ĠgamÃ©n":3794,"Ġtchveas":3795,"Eployaedje":3796,"ĠchinwÃ¨s":3797,"ĠpattavÃ¥":3798,"eorges":3799,"Ġrescontere":3800,"Ġmimbes":3801,"BrÃ¥mint":3802,"Egzim":3803,"Pr":3804,"Vo":3805,"car":3806,"kÃªyes":3807,"lodje":3808,"oss":3809,"por":3810,"tÃ®s":3811,"vÃ©nt":3812,"Ġos":3813,"Ġ100":3814,"Ġsouw":3815,"Ġpon":3816,"Ġevi":3817,"Ġcel":3818,"anmint":3819,"Ġmez":3820,"djon":3821,"yeye":3822,"Ġfra":3823,"Ġvou":3824,"Ġvneut":3825,"eux":3826,"rovaedje":3827,"Ã¥rÃ¨":3828,"ĠMon":3829,"Ġvicaedje":3830,"Ġplant":3831,"ĠAd":3832,"ĠAiwe":3833,"teres":3834,"lier":3835,"Ġ1950":3836,"Ġ1970":3837,"Ġ1994":3838,"ĠmÃ¥s":3839,"Ġouves":3840,"xheas":3841,"urer":3842,"ĠJu":3843,"Ġfilo":3844,"Ġbateas":3845,"ĠMari":3846,"Ġroed":3847,"Ġyebes":3848,"Ġamoen":3849,"Ġabat":3850,"ĠsÃ¥reut":3851,"Ġfarene":3852,"ĠsitindÃªye":3853,"Ã®trinne":3854,"Adonpwis":3855,"Ġnouri":3856,"Ġinst":3857,"unÃ¥":3858,"ĠtoumÃ©":3859,"Ġtchapele":3860,"Ġwaerant":3861,"ĠEstats":3862,"Ġpowezeye":3863,"ĠstudyÃ®":3864,"Ġmilit":3865,"ĠlussimbordjwÃ¨s":3866,"LLW":3867,"cÃ®s":3868,"taedje":3869,"val":3870,"wo":3871,"wifs":3872,"esp":3873,"Ġapi":3874,"ĠcatchÃ®":3875,"Ã¥tes":3876,"teri":3877,"Ã®ye":3878,"Ġtni":3879,"yeus":3880,"Ġfleur":3881,"Ġfrexh":3882,"Ġbol":3883,"Ġnol":3884,"Ġraece":3885,"Ã´s":3886,"Ġestant":3887,"Ġpoes":3888,"Ġpoye":3889,"Ġpopu":3890,"aloux":3891,"ĠÃ¥roz":3892,"deye":3893,"oÃ»les":3894,"imont":3895,"Ġ::":3896,"ĠCom":3897,"ĠAb":3898,"gnÃ®s":3899,"ĠPÃ¥":3900,"Ġ1990":3901,"ĠmÃ¥grÃ©":3902,"Ġmayeur":3903,"ĠRa":3904,"ĠRome":3905,"ĠGo":3906,"Ġdate":3907,"Ġvoeye":3908,"Ġboe":3909,"Ġboer":3910,"Ġbiz":3911,"Ġmiz":3912,"ĠVir":3913,"680":3914,"poiz":3915,"yinÃ¥dje":3916,"Ġ2002":3917,"Ġplastike":3918,"Ġrashonne":3919,"weres":3920,"baye":3921,"Ġseront":3922,"Ġtrava":3923,"Ġarest":3924,"adas":3925,"revÃ©n":3926,"Ġrfondaedje":3927,"Ġtchampions":3928,"Ġkimince":3929,"ĠvirÃ»sse":3930,"Ġpourcea":3931,"Ġfrumele":3932,"ĠneyerlandÃ¨s":3933,"publike":3934,"illaume":3935,"ĠcoÃ»tchantrece":3936,"Ca":3937,"Sint":3938,"bois":3939,"cr":3940,"dbon":3941,"hou":3942,"ign":3943,"lumint":3944,"mar":3945,"nmint":3946,"oice":3947,"Ġdr":3948,"Ġlam":3949,"Ġdimand":3950,"neye":3951,"Ġfoum":3952,"Ġess":3953,"Ġcok":3954,"Ġcoinrece":3955,"Ġcoviete":3956,"Ġcorante":3957,"Ġpodbon":3958,"Ġavni":3959,"Ġavance":3960,"roles":3961,"Ġsimpe":3962,"ĠtchÃ´de":3963,"Ġtchoi":3964,"sti":3965,"lame":3966,"ĠLaloux":3967,"Ġori":3968,"Ġoper":3969,"acr":3970,"cixh":3971,"ĠCrimÃªye":3972,"Ġplu":3973,"ĠPÃ¥ke":3974,"ombe":3975,"ĠFlamind":3976,"Ġcay":3977,"Ġraw":3978,"ĠmotÃ®s":3979,"Ġun":3980,"ĠGran":3981,"ĠGazi":3982,"Ġfoite":3983,"ĠWis":3984,"Ġdivna":3985,"Ġref":3986,"nikes":3987,"ĠcÃ¥zaedje":3988,"Ġaccion":3989,"Ġacolaedje":3990,"ĠVi":3991,"quet":3992,"780":3993,"380":3994,"Ġcomprind":3995,"Ġlomer":3996,"ĠatÃ´":3997,"ĠatÃ¥v":3998,"Ġatuze":3999,"ĠapicÃ®":4000,"ĠOr":4001,"Ġ2009":4002,"donbÃ©n":4003,"Ġraconte":4004,"ĠscrÃ®ts":4005,"Ġconse":4006,"Ġnouv":4007,"Ġrivni":4008,"ĠFranÃ§":4009,"ĠfijhÃ¨t":4010,"Ġrimpli":4011,"Ġtaper":4012,"Ġvaleur":4013,"Ġmariaedje":4014,"Ġegzimpla":4015,"ĠThom":4016,"Ġtcherete":4017,"ĠpÃ¥rticipe":4018,"Ġfilozo":4019,"ĠGaziaux":4020,"bar":4021,"col":4022,"ea":4023,"fre":4024,"iles":4025,"par":4026,"uro":4027,"vri":4028,"voye":4029,"Â²":4030,"ĠÃ»t":4031,"Ġdujh":4032,"esbaye":4033,"ĠlwÃ¨s":4034,"Ġloy":4035,"Ġeconom":4036,"Ġdiss":4037,"Ġmeurs":4038,"djeu":4039,"Ġfer":4040,"ĠbÃ®":4041,"Ġbet":4042,"med":4043,"its":4044,"Ġpoirter":4045,"ĠdjÃ¥":4046,"Ġdjer":4047,"ĠdjÃ¥rd":4048,"ĠÃ¥jh":4049,"Ġgris":4050,"rayel":4051,"ĠLin":4052,"Ġtotafwait":4053,"ourti":4054,"irer":4055,"ĠÃ¨le":4056,"umÃ®":4057,"Ġdivancete":4058,"Ġrec":4059,"anses":4060,"Ġvalet":4061,"Ġaprinde":4062,"Ġenute":4063,"ĠschÃ¥le":4064,"Ġadmin":4065,"Ġadrovaedje":4066,"980":4067,"ĠdeÃ»s":4068,"480":4069,"ill":4070,"ilÃ©":4071,"Ġcomeres":4072,"apon":4073,"Ġ2004":4074,"ĠcminÃ§mint":4075,"Ġcanadas":4076,"Ġgueres":4077,"Ġpordjet":4078,"Ġnoveas":4079,"Ġmuzul":4080,"ĠrsaetchÃ®":4081,"Ġnateure":4082,"Ġtimpe":4083,"Ġvraiye":4084,"Ġdjambe":4085,"ĠcurÃ©s":4086,"Tchaeke":4087,"ĠtouwÃ©":4088,"Ġfiniesse":4089,"Ġsovnances":4090,"Ġdischind":4091,"Ġpierdou":4092,"Inte":4093,"Ġislam":4094,"ĠrovyÃ®":4095,"'d":4096,"Economeye":4097,"Rat":4098,"SÃ´res":4099,"adje":4100,"bin":4101,"for":4102,"gri":4103,"iyÃ®":4104,"mile":4105,"nÃ¥":4106,"nÃ©n":4107,"Ġol":4108,"ĠdnÃªyes":4109,"Ġlat":4110,"inter":4111,"Ġsenes":4112,"Ġpixh":4113,"Ġdiccion":4114,"Ġmint":4115,"Ġtone":4116,"Ġtape":4117,"ĠfÃ¥s":4118,"Ġvers":4119,"Ġvormint":4120,"ĠnÃ¥cion":4121,"Ġesp":4122,"sser":4123,"Ġlibe":4124,"Ġkilo":4125,"Ġdjo":4126,"wate":4127,"ĠtchessÃ®":4128,"ature":4129,"ĠMins":4130,"ĠMÃ¥r":4131,"yesse":4132,"ĠDaegn":4133,"Ġoyi":4134,"232":4135,"ĠSLLW":4136,"Ġmoxhes":4137,"ennes":4138,"ĠPrin":4139,"urs":4140,"ĠÃ´le":4141,"ĠFlande":4142,"Ġcast":4143,"Ġcayets":4144,"Ġrastr":4145,"ĠÃ¨ne":4146,"ĠRwÃ¨":4147,"ĠGeorges":4148,"Ġanti":4149,"Ġvoe":4150,"ĠHou":4151,"ĠpÃ¥rotche":4152,"Ã¥rdaedje":4153,"ĠpÃ¥jh":4154,"ĠprumirÃ¨s":4155,"auche":4156,"Ġratinde":4157,"Ġpexh":4158,"ijhes":4159,"Ġmanaedje":4160,"Ġmanke":4161,"Ġinter":4162,"ĠlÃ¥me":4163,"Ã¥litÃ©":4164,"ayons":4165,"Ġnouk":4166,"Ġdierins":4167,"roÃ»le":4168,"Ġshuve":4169,"Ġshuvou":4170,"ĠeplaidÃ®s":4171,"Ġtimper":4172,"ĠDeprÃªtre":4173,"Ġcamaer":4174,"Ġdimeure":4175,"ĠnovelÃ¨s":4176,"Ġcoplemint":4177,"ĠGuillaume":4178,"ÃĶtÃ¨s":4179,"Ġrescont":4180,"ĠcompÃ´z":4181,"ĠCongo":4182,"Ġmousmints":4183,"Ġindust":4184,"Ġorayes":4185,"olandÃ¨s":4186,"ĠLagauche":4187,"Ġegzimplaires":4188,"Es":4189,"Tins":4190,"bla":4191,"biy":4192,"cÃ©n":4193,"fant":4194,"gre":4195,"iter":4196,"ixhe":4197,"ka":4198,"mwin":4199,"paedje":4200,"pinte":4201,"Ġdvi":4202,"ĠdÃ«":4203,"inÃªye":4204,"Ġsal":4205,"Ġsene":4206,"Ġpotch":4207,"Ġere":4208,"Ġcul":4209,"Ġbons":4210,"Ġbatch":4211,"Ġbuze":4212,"Ġrco":4213,"Ġrmetou":4214,"Ġetind":4215,"Ã´d":4216,"Ġestans":4217,"Ġcolon":4218,"ĠlidjwÃ¨s":4219,"ĠeneviÃ¨":4220,"Ġdoir":4221,"roejh":4222,"Ġsof":4223,"vere":4224,"cene":4225,"waires":4226,"las":4227,"ĠDaegne":4228,"Ġod":4229,"aca":4230,"ĠCop":4231,"241":4232,"ĠploÃ»t":4233,"ĠAra":4234,"Ġmodele":4235,"Ġmape":4236,"tice":4237,"Djeyografeye":4238,"Ġboesse":4239,"Ġbale":4240,"ĠMass":4241,"Ġasco":4242,"Ġshonne":4243,"Ġroter":4244,"Ġmousse":4245,"Ġeglijhes":4246,"ijhaedje":4247,"Ġmanoye":4248,"ĠfjhÃ©nt":4249,"rumint":4250,"metans":4251,"ĠmÃ¥jhones":4252,"Ġnez":4253,"Ġclair":4254,"Ġtcherbon":4255,"ĠclÃ¥":4256,"Ġchifes":4257,"ĠkÃ©kes":4258,"bork":4259,"ĠLevant":4260,"Ġrprin":4261,"ĠrÃ¥jhon":4262,"Ã´zes":4263,"prezinte":4264,"Ġvleut":4265,"ĠMichel":4266,"ĠmodÃªye":4267,"Ġmambor":4268,"ĠegzistÃªye":4269,"Ġratourneure":4270,"Ġortografeye":4271,"Ġcatolike":4272,"Ġdiyalect":4273,"Ġpossibe":4274,"ontaine":4275,"Cont":4276,"bat":4277,"cÃ¨s":4278,"ger":4279,"gen":4280,"io":4281,"ise":4282,"mou":4283,"nire":4284,"une":4285,"veus":4286,"wess":4287,"ĠoÃ»":4288,"Ġ60":4289,"Ġdeur":4290,"espr":4291,"inant":4292,"Ġskepi":4293,"Ġcmon":4294,"Ġculture":4295,"Ġfyis":4296,"Ġvit":4297,"Ġvere":4298,"Ġnam":4299,"ĠrÃ©":4300,"Ġronde":4301,"Ġesteu":4302,"rod":4303,"rov":4304,"rib":4305,"Ġgur":4306,"Ãªr":4307,"Ġtchir":4308,"atikes":4309,"201":4310,"weye":4311,"ĠMor":4312,"ĠLÃ©":4313,"acÃ´p":4314,"252":4315,"271":4316,"262":4317,"ours":4318,"ĠSambe":4319,"yÃ®z":4320,"arles":4321,"Ġploum":4322,"Ġmovmint":4323,"gna":4324,"Ġdisco":4325,"Ġdisfondowe":4326,"Ġrif":4327,"Ġrilom":4328,"Ġrast":4329,"Ġcist":4330,"anson":4331,"ĠHesbaye":4332,"minmes":4333,"Ġfiesses":4334,"ĠspÃ¥de":4335,"ouwis":4336,"Ã¥tÃ©":4337,"ĠbouxhÃ®":4338,"Ġacoird":4339,"Ġasp":4340,"ĠÃ¥rÃ©nt":4341,"Ġcromp":4342,"Ġparfond":4343,"Ġcrouw":4344,"Ġsinti":4345,"Ġsudjets":4346,"ĠcontrÃ¥ve":4347,"Ġorgan":4348,"olodjikes":4349,"ission":4350,"Ġtuze":4351,"Ġtuzance":4352,"Ġberbis":4353,"ĠtÃ©lmint":4354,"Ġwangne":4355,"Ġcampagne":4356,"Ġprononce":4357,"Sovint":4358,"ĠlÃ©re":4359,"Ġrprins":4360,"Ġdisfind":4361,"ĠcinsÃ®s":4362,"Ġrtrover":4363,"ĠXh":4364,"Ġsourdant":4365,"ĠrascrÃ¥w":4366,"ĠprodÃ»ts":4367,"ĠAmerike":4368,"ĠWikipedia":4369,"Ġfruts":4370,"ĠChine":4371,"Ġwaibes":4372,"ĠcrapÃ¥de":4373,"Ġadviebe":4374,"Ġrujhes":4375,"\";":4376,"Lu":4377,"MÃ¥":4378,"Re":4379,"air":4380,"caedjes":4381,"los":4382,"mons":4383,"oere":4384,"pike":4385,"ub":4386,"vnut":4387,"ĠÃ©":4388,"ĠwaitÃ®":4389,"Ġadier":4390,"Ġsyince":4391,"ĠpÃ´r":4392,"Ġcure":4393,"Ġcatch":4394,"Ġcints":4395,"oume":4396,"andi":4397,"Ġmas":4398,"djint":4399,"ĠkÃ®":4400,"Ġfen":4401,"ĠfÃ¥rÃ¨":4402,"ĠbÃ´":4403,"Ġrwaite":4404,"Ġcoide":4405,"alisse":4406,"Ġlibert":4407,"Ġim":4408,"Ġpaxh":4409,"den":4410,"191":4411,"181":4412,"ĠDa":4413,"Ġlatene":4414,"152":4415,"161":4416,"162":4417,"272":4418,"261":4419,"Ġpresse":4420,"gnons":4421,"tchaedje":4422,"Ġtoele":4423,"ĠelzÃ¨s":4424,"Ġ1900":4425,"Ġrai":4426,"Ġmaw":4427,"ĠTot":4428,"rÃ¥le":4429,"nixh":4430,"Ġbisto":4431,"uzion":4432,"Ġfime":4433,"Ġfizi":4434,"Ġspots":4435,"ĠspotchÃ®":4436,"121":4437,"122":4438,"Ġbouxhons":4439,"ĠViy":4440,"Ġwaide":4441,"Ġcomie":4442,"Ġcomuni":4443,"Ġvoleur":4444,"Ġpec":4445,"Ġpexhon":4446,"Ġlivea":4447,"Ġplate":4448,"ĠpÃ´ves":4449,"Ġdroets":4450,"Ġponts":4451,"Ġgueu":4452,"Ġpormoen":4453,"Ġcrever":4454,"Ġconter":4455,"Ġovraedjes":4456,"Ġrtour":4457,"Ġahiv":4458,"issÃ¨s":4459,"Ġfoto":4460,"ĠeternÃ¥cion":4461,"fagne":4462,"riyal":4463,"Ġmeyeu":4464,"Ġbastimint":4465,"Ġcinses":4466,"ĠfrÃ¥zes":4467,"ĠcÃ¥ba":4468,"Ġuzaedje":4469,"ĠDjihan":4470,"ĠLucyin":4471,"ĠcodÃ¥":4472,"Ġcervea":4473,"ĠFlaminds":4474,"Ġcrompires":4475,"Ġcomiece":4476,"-.":4477,"cter":4478,"cti":4479,"cul":4480,"cints":4481,"dan":4482,"glÃ¨s":4483,"ies":4484,"ili":4485,"mÃ©s":4486,"minne":4487,"nute":4488,"Ġdou":4489,"ĠdÃ®":4490,"Ġdam":4491,"Ġloye":4492,"Ġmed":4493,"Ġton":4494,"chal":4495,"Ġbel":4496,"ĠbÃ´re":4497,"ĠvÃ¥":4498,"ĠvÃ´t":4499,"Ġvlou":4500,"Ġcope":4501,"Ġpoenne":4502,"Ġlite":4503,"elan":4504,"roets":4505,"rokin":4506,"ĠgÃ¥re":4507,"Ġsope":4508,"xheye":4509,"ceas":4510,"Ġ\"-":4511,"192":4512,"202":4513,"Ġwae":4514,"ĠwÃ¥r":4515,"182":4516,"101":4517,"102":4518,"ĠstÃ¥ve":4519,"151":4520,"171":4521,"172":4522,"141":4523,"142":4524,"131":4525,"132":4526,"242":4527,"251":4528,"281":4529,"282":4530,"231":4531,"291":4532,"292":4533,"dile":4534,"Ġdisd":4535,"like":4536,"ĠelzÃ®":4537,"ĠTi":4538,"Ġboye":4539,"ondes":4540,"ĠcÃ´per":4541,"mince":4542,"minces":4543,"Ġgrandiv":4544,"Ġfive":4545,"ĠspÃ¨s":4546,"Ġbouye":4547,"ĠbounÃ¨s":4548,"ĠÃī":4549,"ĠpÃ¥sse":4550,"111":4551,"Ġaiyes":4552,"ĠfrÃ©s":4553,"Ġrosse":4554,"Ġratch":4555,"Ġyebe":4556,"Ġfeyes":4557,"Ġega":4558,"ĠmalÃ¥des":4559,"ĠdjÃ¥zÃ©":4560,"Ġportrait":4561,"utere":4562,"Ġmoennes":4563,"Ġtecnikes":4564,"ayon":4565,"Ġsinon":4566,"ĠdinrÃªyes":4567,"Ġpougn":4568,"Ġminisse":4569,"ĠkÃ©kÃ¨s":4570,"ĠâĢĵ":4571,"Ġdiferince":4572,"Ġramoen":4573,"ĠIngl":4574,"Ġpiceures":4575,"Ġfotbal":4576,"Ġataker":4577,"Ġmeyeus":4578,"Ġredjon":4579,"Ġredjime":4580,"ĠovrÃ®":4581,"ĠDiscrijhaedje":4582,"Ġprogrames":4583,"Ġdimande":4584,"ĠHinri":4585,"Ġacsegn":4586,"Ġbardou":4587,"ĠDjivet":4588,"De":4589,"Jean":4590,"Sch":4591,"Sins":4592,"To":4593,"gor":4594,"kÃ©nt":4595,"lae":4596,"mÃ®":4597,"sÃ¥":4598,"vÃ¨s":4599,"wÃ¨t":4600,"yÃ¨s":4601,"Äĥ":4602,"ĠloukÃ®z":4603,"inet":4604,"onk":4605,"onse":4606,"Ġaw":4607,"ĠazÃ¨s":4608,"ĠsÃ´r":4609,"Ġeba":4610,"Ġcmand":4611,"Ġmir":4612,"Ġmonte":4613,"Ġfyi":4614,"Ġbos":4615,"Ġvude":4616,"Ġrdj":4617,"Ġroye":4618,"Ġcomint":4619,"ĠpocwÃ¨":4620,"Ãªs":4621,"ĠMan":4622,"ĠLuss":4623,"ĠCa":4624,"pens":4625,"did":4626,"ĠvikÃ¨t":4627,"Ġwaloneus":4628,"ĠSer":4629,"Ġhav":4630,"ĠdisbÃ¥":4631,"Ġ1999":4632,"Ġrapo":4633,"ĠstÃ®le":4634,"Ġfosse":4635,"rÃ¥cion":4636,"ĠsolÃ©s":4637,"ĠNi":4638,"ĠNicol":4639,"Djan":4640,"Ġaprest":4641,"Ġsaiss":4642,"yiz":4643,"ĠIt":4644,"ĠIstwere":4645,"303":4646,"rinnes":4647,"221":4648,"Ġshab":4649,"658":4650,"kide":4651,"Ġeva":4652,"ĠÃ¥rmon":4653,"ĠpassÃ¨t":4654,"esta":4655,"Ġlomaedje":4656,"Ġfeder":4657,"vrins":4658,"Ġrashi":4659,"Ġpaskeye":4660,"ĠfaÃ®t":4661,"ĠlÃ¥vÃ¥":4662,"Ġcrou":4663,"ĠAlbert":4664,"Ġlinw":4665,"Ġdjusk":4666,"conk":4667,"Ġdidins":4668,"Ġgosse":4669,"Ġgoidje":4670,"Ġemantch":4671,"Ġvoyales":4672,"Ġtoume":4673,"Ġblancs":4674,"ĠÃ¥rtikes":4675,"ĠcrÃ¥s":4676,"ĠrÃ®le":4677,"ĠBouyon":4678,"ĠrtrovÃ©":4679,"ĠdoÃ»Ã§mint":4680,"Ġraecin":4681,"plaid":4682,"Ġatchter":4683,"ĠRobert":4684,"ĠaidÃ®":4685,"Ġfinixh":4686,"Ġocup":4687,"ĠboÃ»sse":4688,"imbork":4689,"Ġfranci":4690,"Ġerirece":4691,"cipÃ¥tÃ©":4692,"Ġoyou":4693,"ĠtribunÃ¥":4694,"ĠLovire":4695,"Ġnorm":4696,"ĠBarry":4697,"ĠsÃ¥vlon":4698,"ĠIsrayel":4699,"ĠGrande":4700,"esprÃªye":4701,"CÃ¥z":4702,"FÃ¥t":4703,"Minme":4704,"NÃ©n":4705,"agne":4706,"bot":4707,"blan":4708,"gou":4709,"her":4710,"haye":4711,"ich":4712,"istÃ©":4713,"ique":4714,"loukÃ®z":4715,"nous":4716,"oes":4717,"rÃ´":4718,"rÃ¨s":4719,"rons":4720,"zon":4721,"Â«":4722,"Ġdal":4723,"Ġlond":4724,"Ġadire":4725,"Ġeb":4726,"Ã¥tche":4727,"Ġmantche":4728,"ĠtrevÃ©n":4729,"reÃ»t":4730,"ĠnÃ»t":4731,"Ġrmet":4732,"Ġrindou":4733,"Ġrprezint":4734,"itike":4735,"itif":4736,"Ġcoides":4737,"Ġlikide":4738,"rowe":4739,"Ġiye":4740,"Ġist":4741,"ĠÃ¥me":4742,"Ġpade":4743,"Ġsign":4744,"lake":4745,"ĠLo":4746,"Ġstok":4747,"Ġaloum":4748,"ĠBwÃ¨s":4749,"Ġprince":4750,"Ġhan":4751,"ĠAc":4752,"end":4753,"ort":4754,"ĠriÃ§":4755,"ĠFontaine":4756,"Ġ1996":4757,"ĠRÃ»sse":4758,"Ġfoclo":4759,"ĠcwÃ¥tes":4760,"Ġrevint":4761,"ĠHÃ´te":4762,"ureus":4763,"ĠEglijhe":4764,"nier":4765,"ouwÃªye":4766,"ĠcÃ¥zes":4767,"Ġschi":4768,"Ġschoir":4769,"353":4770,"355":4771,"222":4772,"457":4773,"Ġshonn":4774,"kion":4775,"941":4776,"Ġdveut":4777,"Ġrodjes":4778,"ĠrodjÃ¨s":4779,"362":4780,"ĠlezÃ®":4781,"plaece":4782,"ĠmartchÃ®":4783,"Ġfagne":4784,"Ġsud":4785,"Ġtecnike":4786,"ĠcoÃ»sse":4787,"ĠcoÃ»tche":4788,"ĠcwÃ¥rtÃ®":4789,"ĠÃ¥dfoÃ»":4790,"Ġvicant":4791,"ĠemantchÃ®":4792,"Ġfalou":4793,"ĠÃ¥rtisse":4794,"Ġmunut":4795,"ĠMoyinÃ¥dje":4796,"Ġpoyt":4797,"Ġricnoxhou":4798,"ĠvijhÃ©ns":4799,"Ġclassike":4800,"Ġraddimint":4801,"ĠBiet":4802,"VicÃ¥reye":4803,"Ġdjonnesse":4804,"Ġantolodjeye":4805,"Ġcaracteres":4806,"ĠBern":4807,"ĠavancÃ®":4808,"iccionaire":4809,"'s":4810,"BÃ©n":4811,"KÃ©":4812,"Ro":4813,"Vosse":4814,"aw":4815,"can":4816,"eve":4817,"istr":4818,"lat":4819,"mÃ¨s":4820,"pÃ¥rt":4821,"pÃ¥rdaedje":4822,"wet":4823,"Ġdur":4824,"Ġlinne":4825,"ĠlÃł":4826,"Ġate":4827,"Ġadje":4828,"Ġsaedje":4829,"Ġsouwer":4830,"Ġswele":4831,"Ġpotche":4832,"ĠcÃ¥ve":4833,"Ġdiz":4834,"ĠtwÃ¨":4835,"djus":4836,"djinne":4837,"Ġbac":4838,"Ġverd":4839,"ĠvesprÃªye":4840,"ĠrÃ¥le":4841,"ĠesprÃ¨s":4842,"itÃ®":4843,"Ġcoxhe":4844,"Ã¨steÃ»t":4845,"Ġpoennes":4846,"Ġlisse":4847,"ĠliÃ¥rds":4848,"rion":4849,"rich":4850,"ĠsoÃ§ons":4851,"Ġsilla":4852,"Ġtchiv":4853,"ĠMol":4854,"imin":4855,"ĠDiv":4856,"Ġoteur":4857,"Ġoiz":4858,"Ġoxheas":4859,"acÃ´":4860,"ĠvikÃ©":4861,"ĠSa":4862,"Ġprot":4863,"Ġprus":4864,"Ġplantches":4865,"ĠAvou":4866,"ĠPirs":4867,"tches":4868,"vid":4869,"vion":4870,"Ġradio":4871,"ĠmÃ¥l":4872,"gneye":4873,"ĠRwey":4874,"ĠGaud":4875,"ĠLidjwÃ¨s":4876,"ĠbÃ©nrade":4877,"Ġrevolucion":4878,"Ġvole":4879,"ĠEv":4880,"ĠNa":4881,"ĠNoÃ»":4882,"Ġbovrins":4883,"ica":4884,"inteus":4885,"Ġ2010":4886,"Ġfil":4887,"ĠDjib":4888,"504":4889,"505":4890,"308":4891,"Ġaccints":4892,"402":4893,"408":4894,"ĠVan":4895,"606":4896,"607":4897,"988":4898,"952":4899,"956":4900,"701":4901,"702":4902,"707":4903,"481":4904,"482":4905,"483":4906,"485":4907,"486":4908,"789":4909,"902":4910,"681":4911,"688":4912,"354":4913,"385":4914,"656":4915,"659":4916,"ĠbeacÃ´p":4917,"aubois":4918,"ĠÃ¥rdjint":4919,"ĠpassÃ©ve":4920,"962":4921,"966":4922,"969":4923,"936":4924,"974":4925,"976":4926,"341":4927,"367":4928,"lÃ©re":4929,"Ġvolou":4930,"Ġledj":4931,"Ġlevant":4932,"373":4933,"Ġdirek":4934,"Ġgay":4935,"Ġ2001":4936,"nai":4937,"Ġterit":4938,"ixhaedje":4939,"Ġmononke":4940,"inez":4941,"ĠsÃ¥me":4942,"Ġcwar":4943,"ĠUnis":4944,"Ġclaw":4945,"mande":4946,"Ġtcherpinte":4947,"Ġrivnou":4948,"Ġafwaires":4949,"Ġxhil":4950,"ĠtriviÃ¨":4951,"Ġtuzer":4952,"ĠtÃ©vÃ©":4953,"Ġpolitikes":4954,"Ġmuch":4955,"ĠcÃ¥kÃªye":4956,"Ġtaeye":4957,"Ġrexhou":4958,"Ġstoeles":4959,"ĠprijhnÃ®s":4960,"Ġdimanants":4961,"Ġcodjowaedje":4962,"ĠdistrÃ»t":4963,"itiaubois":4964,"Ġratourneures":4965,"ĠraploÃ»":4966,"Ġrestant":4967,"ĠflÃ¥we":4968,"Corwaitaedje":4969,"ĠThomsin":4970,"ĠCoppens":4971,"ĠLÃ©on":4972,"Ġfizik":4973,"ĠpeclÃªye":4974,"ĠInglutere":4975,"Ġlinwist":4976,"Ġmunutes":4977,"ĠGauditiaubois":4978,".).":4979,"Gu":4980,"PÃ¥r":4981,"Uz":4982,"bwÃ¨s":4983,"cot":4984,"cor":4985,"crÃ®t":4986,"cession":4987,"fontinne":4988,"iet":4989,"iver":4990,"lonne":4991,"mit":4992,"ore":4993,"pÃ®":4994,"ucions":4995,"yÃ©nt":4996,"zÃ©":4997,"Ð°":4998,"ĠØ":4999,"Ġit":5000,"Ġ26":5001,"Ġder":5002,"indje":5003,"indjes":5004,"onna":5005,"Ġeki":5006,"Ġewal":5007,"Ġeveke":5008,"Ã©t":5009,"Ġmel":5010,"neas":5011,"djons":5012,"ĠvÃ¨":5013,"Ġran":5014,"Ã©nrÃ¨":5015,"aeconk":5016,"Ã´le":5017,"Ã´mes":5018,"Ġpopa":5019,"Ġliv":5020,"antÃ©":5021,"ĠdjÃ®sse":5022,"Ġdob":5023,"roye":5024,"risses":5025,"Ġpate":5026,"Ġpaze":5027,"Ġparoles":5028,"Ġpayiz":5029,"Ġtchi":5030,"rak":5031,"ras":5032,"rame":5033,"amÃ©":5034,"Ġlap":5035,"disse":5036,"ĠAzeye":5037,"prins":5038,"gnaedje":5039,"ĠPaul":5040,"Ġrime":5041,"Ġcasse":5042,"Ġcawetes":5043,"Ġrawete":5044,"ĠmÃ¥le":5045,"ĠRoum":5046,"ĠGra":5047,"ĠdivÃ¨t":5048,"001":5049,"004":5050,"007":5051,"rijheus":5052,"ĠElle":5053,"Ġbijh":5054,"Ġnier":5055,"Ġfiesti":5056,"ouwaedje":5057,"ĠDjwifs":5058,"ĠcÃ¥zÃ©":5059,"501":5060,"502":5061,"503":5062,"506":5063,"507":5064,"508":5065,"509":5066,"301":5067,"302":5068,"304":5069,"305":5070,"306":5071,"307":5072,"309":5073,"pagn":5074,"401":5075,"403":5076,"404":5077,"405":5078,"406":5079,"407":5080,"409":5081,"ĠVÃ¥":5082,"601":5083,"602":5084,"603":5085,"604":5086,"605":5087,"608":5088,"609":5089,"981":5090,"982":5091,"983":5092,"984":5093,"985":5094,"986":5095,"987":5096,"989":5097,"951":5098,"953":5099,"954":5100,"955":5101,"957":5102,"958":5103,"959":5104,"703":5105,"704":5106,"705":5107,"706":5108,"708":5109,"709":5110,"484":5111,"487":5112,"488":5113,"489":5114,"781":5115,"782":5116,"783":5117,"784":5118,"785":5119,"786":5120,"787":5121,"788":5122,"901":5123,"903":5124,"904":5125,"905":5126,"906":5127,"907":5128,"908":5129,"909":5130,"682":5131,"683":5132,"684":5133,"685":5134,"686":5135,"687":5136,"689":5137,"351":5138,"352":5139,"356":5140,"357":5141,"358":5142,"359":5143,"381":5144,"382":5145,"383":5146,"384":5147,"386":5148,"387":5149,"388":5150,"389":5151,"451":5152,"452":5153,"453":5154,"454":5155,"455":5156,"456":5157,"458":5158,"459":5159,"651":5160,"652":5161,"653":5162,"654":5163,"655":5164,"657":5165,"751":5166,"752":5167,"753":5168,"754":5169,"755":5170,"756":5171,"757":5172,"758":5173,"759":5174,"961":5175,"963":5176,"964":5177,"967":5178,"942":5179,"943":5180,"944":5181,"946":5182,"947":5183,"949":5184,"ille":5185,"931":5186,"932":5187,"933":5188,"934":5189,"937":5190,"939":5191,"971":5192,"972":5193,"973":5194,"977":5195,"979":5196,"Ġmwaijhe":5197,"343":5198,"346":5199,"347":5200,"361":5201,"363":5202,"364":5203,"374":5204,"333":5205,"Ġeployaedje":5206,"Ġcanon":5207,"Ġportant":5208,"Ġinfin":5209,"Ġrespe":5210,"Ġvegne":5211,"ĠminmÃ¨s":5212,"Ġdjouweu":5213,"Ġsiervou":5214,"Ġdjustice":5215,"moenne":5216,"Ġmuzic":5217,"Ġotos":5218,"Ġafwaire":5219,"issions":5220,"ĠtchÃ´kÃ®":5221,"ikÃ®s":5222,"Ã¥vleu":5223,"Ġassaetch":5224,"Ġmwints":5225,"Ġespaitch":5226,"berg":5227,"Ġimpreur":5228,"Ġshofele":5229,"Ġdisfinde":5230,"ĠmostrÃ©":5231,"Ġprodujh":5232,"ĠtrÃ´s":5233,"Ġrtrove":5234,"pitit":5235,"ĠAvÃ©ns":5236,"ĠStÃ¥vleu":5237,"ĠbÃ¥sheles":5238,"Ãĩoula":5239,"Ġoficir":5240,"chaga":5241,"Ġwallon":5242,"ĠdislaxhÃ®":5243,"ĠSarachaga":5244,"ĠenondÃ©":5245,"ĠSalme":5246,"poizer":5247,"Ġpluriyal":5248,"Ġgueuye":5249,"ĠpadecÃ´":5250,"\"),":5251,"Fran":5252,"LÃ¨s":5253,"Pas":5254,"Senes":5255,"axh":5256,"cÃ¨t":5257,"hÃ´t":5258,"trop":5259,"vÃªyes":5260,"Ġ28":5261,"Ġ80":5262,"ĠlÃ¥rd":5263,"inÃ©":5264,"Ġake":5265,"Ã¥jh":5266,"Ã¥li":5267,"andj":5268,"teke":5269,"Ġmatch":5270,"Ġtes":5271,"ren":5272,"djant":5273,"djourd":5274,"Ġfis":5275,"Ġben":5276,"Ġbans":5277,"Ġbuz":5278,"Ġbontins":5279,"Ġbindes":5280,"Ġveur":5281,"Ġnature":5282,"Ġresse":5283,"Ġrotche":5284,"leye":5285,"itÃ¨s":5286,"ĠestÃ´":5287,"alade":5288,"Ġlim":5289,"ĠÃ¥reu":5290,"xha":5291,"ĠtchÃ¥s":5292,"Ġtchinnes":5293,"oler":5294,"oleur":5295,"raire":5296,"Ã¥rÃ©":5297,"ĠMÃ®trinne":5298,"randj":5299,"Ã§ou":5300,"amps":5301,"ĠLouwis":5302,"Ġomb":5303,"Ġstind":5304,"diaedje":5305,"Ġpratike":5306,"Ġhour":5307,"ĠhÃ¥ye":5308,"Ġmora":5309,"ĠÃ§anses":5310,"Ġrifond":5311,"Ġrimete":5312,"Ġfwaites":5313,"Ġ1914":5314,"Ġ1980":5315,"ĠÃ¨m":5316,"ĠÃ¨lle":5317,"Ġmarokin":5318,"ĠRou":5319,"ĠLib":5320,"Ġtrope":5321,"ĠdivnÃ¨t":5322,"002":5323,"003":5324,"005":5325,"006":5326,"008":5327,"009":5328,"rÃ®z":5329,"ĠEmile":5330,"ĠNe":5331,"ĠNy":5332,"ĠsawÃ¨":5333,"Ġsinses":5334,"ĠDju":5335,"ĠVos":5336,"Ġshijhe":5337,"ĠÃ¥rm":5338,"Ġcomprinde":5339,"772":5340,"776":5341,"342":5342,"344":5343,"349":5344,"366":5345,"369":5346,"Ġdmande":5347,"442":5348,"abri":5349,"371":5350,"372":5351,"376":5352,"379":5353,"991":5354,"992":5355,"999":5356,"331":5357,"332":5358,"339":5359,"581":5360,"ĠarimÃ©s":5361,"ĠsÃ¥va":5362,"weri":5363,"ĠfaÃ§on":5364,"ĠlÃ¥tche":5365,"Ã¥lwÃ¨s":5366,"Ġsub":5367,"Ġcalcaedjes":5368,"Ġtrait":5369,"Ġrcwere":5370,"Ġnourixh":5371,"Ġhouy":5372,"ĠcwÃ¥rt":5373,"ĠsiervÃ¨t":5374,"ĠâĢĶ":5375,"Ġrshonne":5376,"Ġrshonn":5377,"ĠNamurwÃ¨s":5378,"ĠLahaye":5379,"ĠInglÃ¨s":5380,"ĠvinÃ¨t":5381,"Ġpeupes":5382,"Ġtinre":5383,"ĠpatwÃ¨s":5384,"Ġpatron":5385,"Ġshofler":5386,"Ġagran":5387,"ĠrÃ®lÃªye":5388,"Ġuzance":5389,"Ġaidance":5390,"Ġprijhon":5391,"Ġprezintrece":5392,"Ġfrontire":5393,"Ġhaper":5394,"ĠdifÃ©n":5395,"ĠspÃ¥rdou":5396,"ĠAmerikins":5397,"Ġcroeyances":5398,"Ġsierveut":5399,"ĠpÃ¥pÃ¥d":5400,"Ġtelef":5401,"Ġkeuve":5402,"ĠavÃ¥rla":5403,"ĠBourdon":5404,"ĠreplaecÃ®":5405,"Ġfemrin":5406,"Ġwaeranti":5407,"Ġvoeyeut":5408,"ĠViroux":5409,"Ġtimpera":5410,"roejhete":5411,"Ġodeur":5412,"ĠLussimbork":5413,"Ġlondmwin":5414,"ĠRÃ»sseye":5415,"djourdu":5416,"AlÃ©re":5417,"Deus":5418,"Mots":5419,"Totes":5420,"Vola":5421,"af":5422,"cla":5423,"hu":5424,"lire":5425,"lum":5426,"maedje":5427,"nÃ¨":5428,"owÃ¨s":5429,"resses":5430,"tÃ¨t":5431,"und":5432,"umints":5433,"wan":5434,"wÃªre":5435,"ynut":5436,"zÃªye":5437,"Ġ'":5438,"Ġdinner":5439,"ĠloyÃ®":5440,"ĠlÃ»te":5441,"Ġaxh":5442,"Ġaga":5443,"Ġpetch":5444,"Ġpiy":5445,"Ġeru":5446,"Ġcinte":5447,"tem":5448,"Ã®le":5449,"reme":5450,"ĠfÃ´r":5451,"Ġfetch":5452,"ĠbÃ´r":5453,"Ġvla":5454,"Ġvac":5455,"Ġnonne":5456,"Ġrle":5457,"otaedje":5458,"Ġcote":5459,"ĠcoÃ»t":5460,"Ġcopi":5461,"Ġcognes":5462,"Ġkilos":5463,"Ġdoze":5464,"elÃ®s":5465,"rof":5466,"Ġsoye":5467,"Ġsimp":5468,"kene":5469,"stit":5470,"oli":5471,"ĠMin":5472,"Ã§aedjes":5473,"oÃ»te":5474,"oÃ»ne":5475,"ĠwÃ¥de":5476,"ĠDam":5477,"Ġlait":5478,"ĠLor":5479,"Ġost":5480,"ĠBive":5481,"ĠBay":5482,"ĠSou":5483,"ĠSacw":5484,"ĠAt":5485,"ĠPat":5486,"tcheye":5487,"Ġdispi":5488,"urt":5489,"ĠriwaitÃ®":5490,"ĠmaxhÃ®":5491,"esser":5492,"ĠTran":5493,"loz":5494,"rÃ¥les":5495,"Ġdiveut":5496,"Ġtene":5497,"Ġtena":5498,"ĠEr":5499,"ĠNot":5500,"Ġpoleut":5501,"uzer":5502,"Ġ2012":5503,"ĠpÃ¥rteyes":5504,"ĠpÃ¥rlumint":5505,"Ġmiy":5506,"ĠspÃ¥":5507,"Ġschoy":5508,"Ġbouxhe":5509,"Ġaco":5510,"Ġepwez":5511,"Ġasbla":5512,"ĠshÃ»te":5513,"cote":5514,"Ġtienes":5515,"Ġroyes":5516,"itches":5517,"771":5518,"773":5519,"774":5520,"777":5521,"779":5522,"aetches":5523,"663":5524,"664":5525,"667":5526,"Ġcromb":5527,"Ġgades":5528,"vrou":5529,"ĠmalÃ©n":5530,"471":5531,"473":5532,"476":5533,"479":5534,"Ġraconter":5535,"ĠarivÃªye":5536,"ĠsÃ¥vaedje":5537,"Ġcandje":5538,"391":5539,"392":5540,"ĠtournÃ©":5541,"ĠtcherdjÃ®":5542,"Ġratourner":5543,"Ġrivowe":5544,"ĠfÃ¥tch":5545,"Ġshuvant":5546,"Ġbotikes":5547,"ĠLecom":5548,"ĠMarc":5549,"Ġtertotes":5550,"ĠcÃ©ncw":5551,"Ġofici":5552,"Ġetermint":5553,"ĠÃ¥rtisses":5554,"ĠRevolucion":5555,"ĠecrÃ¥":5556,"ĠrÃ¥yÃ®":5557,"Ã¥rtÃ©n":5558,"Ġcandjmints":5559,"rack":5560,"Ġflote":5561,"Ġrmou":5562,"ĠvlÃ¨t":5563,"ĠRoman":5564,"ĠprijhnÃ®":5565,"ĠdiferinnÃ¨s":5566,"Ġmacs":5567,"ĠÃ©ndjolisse":5568,"Ġpourceas":5569,"Ġrafoir":5570,"Ġdjondant":5571,"Ġtchanteu":5572,"ĠEspagne":5573,"Ġsfwaits":5574,"Ġcoleccion":5575,"Ġcatolikes":5576,"Ġschaper":5577,"Ġplanete":5578,"ĠmostrÃ¨t":5579,"dicatif":5580,"ĠAndrÃ©":5581,"Ġbaguete":5582,"crosse":5583,"Ġuniviers":5584,"Ġeplaideye":5585,"ĠrnÃ¥d":5586,"ĠUnion":5587,"Ġetroclaedje":5588,"oumak":5589,"Ġospit":5590,"ĠJules":5591,"Ġnolu":5592,"Ratour":5593,"ĠlibertÃ©":5594,"ĠcÃ¥baret":5595,"Ġdisdut":5596,"goryin":5597,"ĠDjiblou":5598,"Ġteritwere":5599,"ĠLecomte":5600,"Fr":5601,"FoÃ»":5602,"Mar":5603,"PacÃ´":5604,"TA":5605,"Tant":5606,"Vin":5607,"bour":5608,"bale":5609,"cse":5610,"eyes":5611,"fwaite":5612,"ize":5613,"keu":5614,"kÃ©ve":5615,"lesse":5616,"nowe":5617,"rÃ¨t":5618,"rind":5619,"tis":5620,"uch":5621,"vwer":5622,"Ġâ":5623,"Ġinse":5624,"Ġddins":5625,"esmint":5626,"ĠloukÃ®":5627,"oncÃ®":5628,"Ġala":5629,"Ġagne":5630,"Ġaisse":5631,"Ġseus":5632,"Ġpir":5633,"ĠpwÃ¨s":5634,"Ġdivi":5635,"Ġdimo":5636,"Ġmeu":5637,"Ġtt":5638,"Ġtir":5639,"rets":5640,"djins":5641,"ĠfÃ¥ve":5642,"Ġfimes":5643,"Ġbla":5644,"Ġbar":5645,"Ġvna":5646,"ĠvÃ´re":5647,"Ġvindou":5648,"Ġoneur":5649,"ita":5650,"Ã´l":5651,"Ġpowin":5652,"alisses":5653,"ĠdoÃ»s":5654,"Ġdominne":5655,"Ġgrou":5656,"xhÃ¨t":5657,"dea":5658,"Ġsipe":5659,"Ġtchaire":5660,"Ġtchaeconk":5661,"Ã¨tes":5662,"ĠDo":5663,"Ġlaide":5664,"ĠLen":5665,"Ġstof":5666,"divant":5667,"ĠhoÃ»":5668,"ĠAm":5669,"ĠAnt":5670,"ĠPÃ¥r":5671,"tchanson":5672,"urÃªye":5673,"lip":5674,"Ġriprezint":5675,"Ġ1930":5676,"Ġ1975":5677,"Ġansene":5678,"Ġcwite":5679,"ĠWiccionaire":5680,"Ġreban":5681,"Ġtete":5682,"ĠHer":5683,"ĠNouve":5684,"Ġmeta":5685,"Ġmetch":5686,"Ġspite":5687,"Ġscrijheut":5688,"antea":5689,"lers":5690,"Ġfrumint":5691,"alem":5692,"Ġrole":5693,"441":5694,"443":5695,"444":5696,"446":5697,"447":5698,"449":5699,"Ġbrun":5700,"Ġpeket":5701,"661":5702,"662":5703,"666":5704,"669":5705,"Ġapou":5706,"Ġaband":5707,"Ġabond":5708,"472":5709,"474":5710,"671":5711,"672":5712,"673":5713,"674":5714,"676":5715,"679":5716,"461":5717,"462":5718,"463":5719,"464":5720,"469":5721,"Ġquand":5722,"Ġdjinre":5723,"Ġcoutea":5724,"Ġcoujhene":5725,"Ġinla":5726,"642":5727,"monde":5728,"Ġromin":5729,"Ġsucc":5730,"431":5731,"Ġdijhnut":5732,"Ġhouyeu":5733,"ĠdjouwÃ©":5734,"Ġbates":5735,"ĠâĢ¦":5736,"Ġdjonneas":5737,"Ġairs":5738,"ĠahessÃ®":5739,"ÃĪt":5740,"Ġdanse":5741,"Ġsaveut":5742,"Ġnaiv":5743,"Ġtimp":5744,"Ġberdel":5745,"ĠDefagne":5746,"ĠmontÃ©":5747,"Ġmontinnes":5748,"andele":5749,"ĠamagnÃ®s":5750,"Ġtaess":5751,"ĠsÃ´dÃ¥rd":5752,"ĠsÃ´dÃ¥rs":5753,"ĠCalcaedje":5754,"Ġcopin":5755,"Ġeployeye":5756,"Ġgrigoryin":5757,"ĠÃ©ndjole":5758,"ĠdoÃ»ce":5759,"Ġedvint":5760,"Ġflorixh":5761,"Ġrcweraedjes":5762,"Ġbasteye":5763,"Ġtchaptr":5764,"Ġusteyes":5765,"ĠmÃ©d":5766,"ĠrlomÃ©":5767,"Ġplouves":5768,"Ġtchoez":5769,"ĠschoÃ»ter":5770,"Ġreyusse":5771,"Ġramasser":5772,"grafike":5773,"Ġapice":5774,"Ġbizetes":5775,"blanc":5776,"ĠPirsoul":5777,"ĠitÃ¥l":5778,"Ġbijhrece":5779,"Ġtimperateure":5780,"Ġtenawete":5781,"Ġoficire":5782,"rackman":5783,"Ġpowinmes":5784,"Del":5785,"Lou":5786,"MotÃ®":5787,"Mwaisse":5788,"Oyi":5789,"beye":5790,"cle":5791,"cra":5792,"dri":5793,"dlÃ©":5794,"ham":5795,"har":5796,"ices":5797,"ja":5798,"lÃ¥cion":5799,"not":5800,"tu":5801,"ux":5802,"yan":5803,"ymint":5804,"zinne":5805,"zult":5806,"Ġ23":5807,"Ġdint":5808,"ĠdlÃ©":5809,"Ġdram":5810,"ines":5811,"Ġaus":5812,"Ġanea":5813,"Ġpinse":5814,"Ġekipe":5815,"Ã©ye":5816,"ouye":5817,"tel":5818,"ĠmÃ´":5819,"Ã®ne":5820,"reas":5821,"neus":5822,"djer":5823,"yeut":5824,"Ġboles":5825,"Ġvini":5826,"Ġns":5827,"Ġnon":5828,"Ġrlo":5829,"Ġrfwait":5830,"Ġetir":5831,"alÃªye":5832,"Ġdjel":5833,"Ġdjoye":5834,"Ġdocu":5835,"Ġavoenne":5836,"royÃ®":5837,"rist":5838,"ĠÃ¥djourdu":5839,"ĠsognÃ®":5840,"Ãªres":5841,"key":5842,"keyes":5843,"Ġtchin":5844,"utch":5845,"ontes":5846,"atÃ©":5847,"ation":5848,"ĠMot":5849,"yesses":5850,"Ġwi":5851,"imus":5852,"ĠDinant":5853,"Ġoise":5854,"ĠstitchÃ®":5855,"Ġalinne":5856,"ĠBrackman":5857,"cid":5858,"cide":5859,"cien":5860,"ĠCla":5861,"ĠCor":5862,"ĠSÃ¥m":5863,"ĠprÃ©s":5864,"Ġplo":5865,"Ġnote":5866,"Ġnoers":5867,"Ġmoite":5868,"ĠmoyÃ©n":5869,"ombes":5870,"tchÃ¥":5871,"tchamp":5872,"urd":5873,"bele":5874,"liz":5875,"Ġ1977":5876,"Ġcate":5877,"Ġcara":5878,"Ġoujhene":5879,"tique":5880,"ĠTere":5881,"Ġfoy":5882,"lori":5883,"olodjeyes":5884,"ĠHong":5885,"ĠmetÃ©nt":5886,"Ġbier":5887,"Ġbiest":5888,"uzÃªye":5889,"Ġ2015":5890,"Ġfiz":5891,"Ã´rm":5892,"ĠÂ°":5893,"ĠschÃ¥":5894,"ĠÃ¢":5895,"pagnes":5896,"onner":5897,"Ġdefin":5898,"Ġbegu":5899,"ĠÃ¥rtch":5900,"ĠtiÃ¨sse":5901,"yinces":5902,"ĠleÃ»":5903,"806":5904,"iya":5905,"Ġpemes":5906,"Ġcroet":5907,"Ġgade":5908,"Ġsiekes":5909,"888":5910,"ixha":5911,"Ġdrovi":5912,"Ġtrinte":5913,"641":5914,"643":5915,"649":5916,"long":5917,"Ġseul":5918,"Ġtours":5919,"Ġrominne":5920,"Ġconc":5921,"Ġconf":5922,"432":5923,"631":5924,"632":5925,"691":5926,"692":5927,"491":5928,"492":5929,"ĠclÃ¥s":5930,"ĠclotchÃ®":5931,"ĠsondjÃ®":5932,"Ġnouz":5933,"Ġsorvi":5934,"ĠhoukÃ®":5935,"Ġcours":5936,"ĠBaij":5937,"ĠBelÃ¨s":5938,"Ġbatou":5939,"ĠâĢĿ":5940,"Ġfamiles":5941,"Ġahess":5942,"Ġrsint":5943,"Ġforvey":5944,"Ġoton":5945,"ÃĪle":5946,"ĠdmorÃ¨t":5947,"Ġcamp":5948,"Ġdjhant":5949,"ĠintrÃªyes":5950,"Ġerit":5951,"ĠpolitikÃ®s":5952,"ĠatakÃ©":5953,"ĠMÃ¥ss":5954,"Ġrprinde":5955,"Ġagr":5956,"ĠdmandÃ©":5957,"ĠrvÃ©nt":5958,"Ġpoyons":5959,"trinme":5960,"ĠvlÃ©nt":5961,"Ġrcwerances":5962,"Ġprofess":5963,"Ġmatante":5964,"Ġlimeros":5965,"Ġstudiants":5966,"Ġatraper":5967,"Ġdiswalper":5968,"Ġrlidjon":5969,"Ġdistrure":5970,"aston":5971,"ĠlÃ¨ye":5972,"ĠBenoit":5973,"ĠDjeruz":5974,"ĠSmal":5975,"ĠSmwÃ¨s":5976,"Ãħrdene":5977,"Ġrevinteus":5978,"Waite":5979,"ĠtravayÃ®":5980,"ĠatÃ¥vlÃ©":5981,"Ġeconomike":5982,"ĠdjÃ¥bes":5983,"ĠdjÃ¥rdÃ©n":5984,"aponÃ¨s":5985,"ĠTransene":5986,"ĠBaijot":5987,"-,":5988,"As":5989,"Croejhete":5990,"En":5991,"Nicol":5992,"Par":5993,"Pier":5994,"VÃ®s":5995,"ag":5996,"bÃ®":5997,"bri":5998,"dvins":5999,"ef":6000,"ig":6001,"linne":6002,"rÃ©s":6003,"vu":6004,"wÃ¥r":6005,"yu":6006,"Ã¶":6007,"ĠdÃ¥r":6008,"ĠlÃ»t":6009,"Ġloi":6010,"ĠpÃ»":6011,"Ġeconomeye":6012,"Ġcin":6013,"Ġcine":6014,"Ġdizeu":6015,"Ġdibout":6016,"Ġmey":6017,"Ã¨f":6018,"dju":6019,"djote":6020,"ĠfwÃ¨":6021,"ĠfÃ©ns":6022,"Ġron":6023,"Ġrla":6024,"Ġrvier":6025,"metes":6026,"djeyes":6027,"ssi":6028,"ali":6029,"Ġkimere":6030,"intch":6031,"Ġdobl":6032,"eli":6033,"elÃ®":6034,"ĠirÃ¨":6035,"jheye":6036,"Ã»tes":6037,"Ġgar":6038,"Ġgoz":6039,"Ġpara":6040,"ĠsoÃ§on":6041,"xhance":6042,"wais":6043,"stÃ®":6044,"atisse":6045,"rake":6046,"ĠMim":6047,"ĠLetes":6048,"Ġoxhea":6049,"Ġstat":6050,"Ġstoumak":6051,"Ġalaedje":6052,"ciale":6053,"ĠCam":6054,"dicions":6055,"ourt":6056,"ĠSol":6057,"ĠplantchÃ®":6058,"ĠhÃ´":6059,"Ġmodi":6060,"Ġmoxhe":6061,"gnant":6062,"gnole":6063,"ĠPal":6064,"Ġdismetant":6065,"onsi":6066,"Ġtome":6067,"Ġcadje":6068,"tixh":6069,"ĠcwÃ¥te":6070,"umi":6071,"Ġret":6072,"Ġvoenne":6073,"Ġtexh":6074,"ĠJacques":6075,"ingaedje":6076,"Ġgrang":6077,"Ġmia":6078,"ĠDjÃ¥ke":6079,"ĠschoÃ»t":6080,"Ġfrancs":6081,"ĠVic":6082,"ĠadlÃ©":6083,"ĠÃ¥res":6084,"Ġwach":6085,"Ġtiesses":6086,"ilom":6087,"pikes":6088,"Ġroy":6089,"801":6090,"802":6091,"803":6092,"804":6093,"805":6094,"807":6095,"808":6096,"809":6097,"Ġatuz":6098,"Ġapus":6099,"noe":6100,"551":6101,"556":6102,"886":6103,"vrÃ¨":6104,"ĠsÃ´s":6105,"ulg":6106,"ullon":6107,"rernete":6108,"ertin":6109,"ixhant":6110,"ixhance":6111,"583":6112,"584":6113,"586":6114,"Ġdrov":6115,"Ġmonumint":6116,"Ġfjheu":6117,"Ġ1830":6118,"Ġporcession":6119,"ademeye":6120,"571":6121,"Ġfaw":6122,"ĠlÃ¥tch":6123,"Ġsitouve":6124,"Ġsitoele":6125,"Ã¢le":6126,"Ġcresse":6127,"Ġromant":6128,"fondowes":6129,"Ġconoxhe":6130,"Ġvexh":6131,"Ġsaetchots":6132,"Ġlongs":6133,"ĠchÃ®":6134,"Ġdjouweus":6135,"Ġarester":6136,"Ġprezinte":6137,"ĠLej":6138,"biet":6139,"Ġdmorants":6140,"ĠeployÃ®s":6141,"Ġsistinmes":6142,"Ġfotou":6143,"Ġfotos":6144,"ĠprononcÃ®":6145,"Ġpeumon":6146,"ĠAnti":6147,"ĠEtrernete":6148,"Ġsetche":6149,"ĠlÃ©jh":6150,"Ġpermete":6151,"ĠtapÃ©":6152,"Ġvizite":6153,"Ġflotche":6154,"Ġmeyes":6155,"udeye":6156,"Ġkinoxhe":6157,"ĠrÃ´ler":6158,"Ġstoca":6159,"ĠSohy":6160,"Ġtchimike":6161,"ĠnoerÃ¨s":6162,"ĠImpreur":6163,"Ġcoinreces":6164,"Ġclassikes":6165,"ĠdifoÃ»t":6166,"Ġbrikes":6167,"ĠsapÃ©ns":6168,"ĠschoÃ»te":6169,"Ġrlidjons":6170,"Ġcolni":6171,"ĠhÃ¥sse":6172,"ĠhÃ¥yes":6173,"Ġdanser":6174,"Ġtcheyire":6175,"Ġdimorants":6176,"ĠCarlier":6177,"ĠRenson":6178,"ĠfoirdjÃ®":6179,"Ġelectrike":6180,"Ġrilidjon":6181,"Ġfabrike":6182,"Ġdjouwe":6183,"Ġistorike":6184,"ĠPierre":6185,"Ġveule":6186,"ĠlonguÃ¨s":6187,"Ġmargaye":6188,"ĠacsÃ»t":6189,"Egzimpes":6190,"Ġraecenes":6191,"Ġadministr":6192,"Ġmuzulmans":6193,"Ġtonea":6194,"ĠcamaerÃ¥de":6195,"Ġculteure":6196,"ĠMassaux":6197,"Ġskepiaedje":6198,"ĠadiercÃ®":6199,"denne":6200,"Ġsignor":6201,"ĠBietris":6202,"ĠBernard":6203,"Ġbacte":6204,"ĠmacsÃ¥d":6205,"Ġabondroets":6206,"ĠDjeruzalem":6207,"An":6208,"Dame":6209,"Ey":6210,"Hou":6211,"Rac":6212,"aprÃ¨s":6213,"bÃ©":6214,"cm":6215,"cÃ©":6216,"ila":6217,"lins":6218,"nwÃ¨s":6219,"oter":6220,"vo":6221,"van":6222,"waedjes":6223,"Ð¾":6224,"ÙĦ":6225,"Ġ27":6226,"Ġ150":6227,"Ġapoirt":6228,"Ġsk":6229,"Ġsaeye":6230,"Ġpesse":6231,"ĠpotchÃ®":6232,"ĠpilÃ©":6233,"ĠeurÃªye":6234,"Ġct":6235,"Ġcu":6236,"ĠcÃ´r":6237,"Ġcujh":6238,"ĠcÃ´pe":6239,"Ã¥rer":6240,"Ġdiele":6241,"teme":6242,"ĠmÃ¨te":6243,"rem":6244,"Ã¨ye":6245,"Ã¨sses":6246,"Ġke":6247,"Ġfre":6248,"chi":6249,"champs":6250,"Ġvert":6251,"Ġvints":6252,"ĠvnÃ©nt":6253,"Ġrd":6254,"mel":6255,"Ġetire":6256,"itae":6257,"itude":6258,"otikes":6259,"Ġcoxh":6260,"Ġpos":6261,"Ġdjind":6262,"intes":6263,"intin":6264,"Ġdomin":6265,"ela":6266,"roete":6267,"Ġiyes":6268,"rik":6269,"riche":6270,"eth":6271,"vegn":6272,"Ġsifwaite":6273,"Ġtchic":6274,"Ġtcholeur":6275,"ira":6276,"osimont":6277,"iste":6278,"laert":6279,"Ã§ant":6280,"amwais":6281,"ĠDosimont":6282,"Ġstitch":6283,"Ġalans":6284,"cive":6285,"ĠCat":6286,"ĠConte":6287,"pere":6288,"diviÃ¨":6289,"Ġviers":6290,"Ġwalones":6291,"Ġplantche":6292,"ĠAs":6293,"ĠAle":6294,"ĠAuj":6295,"ters":6296,"Ġmoxh":6297,"Ġmoxhons":6298,"oman":6299,"ors":6300,"orants":6301,"viet":6302,"ĠFau":6303,"Ġ1997":6304,"Ġcaw":6305,"Ġcari":6306,"Ġraba":6307,"ĠmÃ¥ke":6308,"ĠmÃ¥yes":6309,"ĠmÃ¥leur":6310,"Ġmauj":6311,"ĠRÃ©":6312,"ĠRwand":6313,"ĠTre":6314,"ĠcwÃ¥litÃ©":6315,"ĠbÃ©ns":6316,"ĠtrovÃ©ve":6317,"Ġreplaid":6318,"ĠHol":6319,"ĠHout":6320,"Ġaprin":6321,"ĠcÃ´pÃ©":6322,"Ġ2014":6323,"ĠspoÃ»le":6324,"ĠMau":6325,"ĠMaquet":6326,"yisses":6327,"ĠDje":6328,"ĠcÃ¥zÃ¨t":6329,"Ġschoice":6330,"Ġbouxhon":6331,"oze":6332,"Ġveyanmint":6333,"Ġbedjes":6334,"guer":6335,"ĠÃ¥ront":6336,"Ġdveur":6337,"Ġrob":6338,"ĠzÃ»":6339,"Ġmouvmint":6340,"yinnes":6341,"Ġbress":6342,"Ġcrosse":6343,"552":6344,"553":6345,"554":6346,"555":6347,"557":6348,"558":6349,"559":6350,"881":6351,"882":6352,"883":6353,"884":6354,"885":6355,"887":6356,"889":6357,"oumer":6358,"582":6359,"585":6360,"587":6361,"589":6362,"iveus":6363,"ĠTchÃ¥le":6364,"ĠsÃ¥le":6365,"Ġcoulot":6366,"572":6367,"573":6368,"574":6369,"576":6370,"579":6371,"monter":6372,"Ġcrinme":6373,"853":6374,"Ãħs":6375,"Ġveas":6376,"Ġdijhinne":6377,"Ġsaetche":6378,"Ġpougneye":6379,"Ġclin":6380,"emwere":6381,"tografeye":6382,"762":6383,"742":6384,"Ġdiferinne":6385,"Ġpronos":6386,"Ġvicants":6387,"olodjince":6388,"olodjisses":6389,"ĠfijhÃ©nt":6390,"ÃĪlle":6391,"Ġgregne":6392,"Ġsavoz":6393,"Ġnawe":6394,"Ġasso":6395,"Ġassaz":6396,"ĠmestÃ®s":6397,"Ġmontant":6398,"Ġrishonne":6399,"Ġvineut":6400,"Ġeraler":6401,"Ġperlin":6402,"Ġvraiys":6403,"Ġarabes":6404,"ĠwÃ¥rdÃ©":6405,"ĠrapoÃ»":6406,"ĠCallaert":6407,"ĠvalÃªye":6408,"disk":6409,"sovint":6410,"Ã¢rt":6411,"ĠbroÃ»s":6412,"âĢĿ.":6413,"Ġmartchandi":6414,"Divins":6415,"Ġaddjectifs":6416,"Ġrcweri":6417,"Ġtoltins":6418,"Ġpetrole":6419,"Ġocupe":6420,"Ġocuper":6421,"Ġmacr":6422,"Ġancyinne":6423,"ĠBeau":6424,"Ġracontrece":6425,"Ġoficirmint":6426,"ĠrlomÃ©s":6427,"Metoz":6428,"Ġpolice":6429,"Ġsapinse":6430,"ĠspÃ¥rdaedje":6431,"lÃ´s":6432,"Ġmicro":6433,"ĠprÃ©tins":6434,"Ġmousmint":6435,"ĠMatÃ®":6436,"Ġdisparexhe":6437,"uwede":6438,"ĠDuy":6439,"ĠWarnant":6440,"Ġdivintrinne":6441,"ĠanoncÃ®":6442,"Ġtrouf":6443,"Ġespagnols":6444,"ĠarindjÃ®":6445,"Ġmartchands":6446,"Ġetimolodjike":6447,"Ġetrindjir":6448,"ĠBork":6449,"Ġdessins":6450,"Ġcelures":6451,"ĠWisimus":6452,"Ġolim":6453,"ĠpÃ´rÃ¨":6454,"ĠmedcÃ©n":6455,"ĠvÃ´taedjes":6456,"sÃ¥jhon":6457,"Ġprotest":6458,"Vinoz":6459,"ĠvÃ´reu":6460,"ĠmÃ©dyÃ®":6461,"ĠAujau":6462,"ĠFaucon":6463,"Ar":6464,"Bo":6465,"Est":6466,"Luc":6467,"MÃ©":6468,"Mou":6469,"Sic":6470,"cer":6471,"coÃ»":6472,"cons":6473,"dons":6474,"foirt":6475,"gh":6476,"hÃ©":6477,"igue":6478,"iang":6479,"jÃ®":6480,"jacques":6481,"kÃ®s":6482,"ly":6483,"leuse":6484,"lÃ´re":6485,"nos":6486,"nÃ¥de":6487,"pÃ¥r":6488,"pas":6489,"rfwait":6490,"sins":6491,"sic":6492,"vÃ®s":6493,"wisse":6494,"Ġ0":6495,"ĠdnÃ©ve":6496,"Ġdtrop":6497,"Ġarey":6498,"Ġamed":6499,"Ġsour":6500,"Ġsket":6501,"ĠsantÃ©":6502,"Ġpin":6503,"Ġeci":6504,"Ġeco":6505,"Ġect":6506,"Ã©re":6507,"ĠdirÃ¨":6508,"Ġdipind":6509,"Ġmand":6510,"ĠtrÃ®":6511,"Ġtab":6512,"Ġtones":6513,"Ġtaetches":6514,"Ã¨l":6515,"Ġfur":6516,"Ġbwe":6517,"Ġrinne":6518,"ĠrÃ»sse":6519,"Ġrotches":6520,"Ġrmonter":6521,"erv":6522,"ssa":6523,"lene":6524,"leas":6525,"itikes":6526,"otÃ©":6527,"ĠestÃ©ns":6528,"Ġcoisses":6529,"Ġdjw":6530,"Ġdjey":6531,"Ġdjote":6532,"intÃªye":6533,"ĠgrÃ¥":6534,"Ġgotes":6535,"ĠgÃ¥m":6536,"Ġparexhou":6537,"Ġsoe":6538,"Ġsidje":6539,"Ġtchitch":6540,"sey":6541,"lard":6542,"Ã§nut":6543,"ĠLÃ®":6544,"ĠLey":6545,"Ġocc":6546,"accion":6547,"ĠBot":6548,"ĠBlan":6549,"peas":6550,"disses":6551,"dilÃ©":6552,"ournÃ©":6553,"ĠSe":6554,"ĠSp":6555,"ĠSins":6556,"ĠSud":6557,"ĠSuwede":6558,"Ġplomes":6559,"Ġhin":6560,"Ġhape":6561,"Ġcomenes":6562,"Ġmoteur":6563,"prume":6564,"ĠPÃ¥ye":6565,"orb":6566,"urÃ©":6567,"bedeus":6568,"vite":6569,"Ġscwere":6570,"indoz":6571,"Ġriprind":6572,"Ġtoitche":6573,"Ġ1993":6574,"ĠcachÃ®":6575,"Ġmaxh":6576,"Ġmasse":6577,"ĠRelÃ®s":6578,"Ġuros":6579,"ĠThi":6580,"lome":6581,"ĠHan":6582,"ĠEss":6583,"Ġmetnut":6584,"Ġsayes":6585,"Ġsawou":6586,"Ġbiesmint":6587,"Ġspir":6588,"ĠspiyÃ®":6589,"ĠcÃ¥zÃ©ve":6590,"Ġschin":6591,"ĠÃĩ":6592,"ĠacoÃ»":6593,"Ġaccid":6594,"ĠVeye":6595,"ĠViye":6596,"ĠaddÃ©":6597,"rinÃ®":6598,"Ġgrandes":6599,"ĠdvÃ¨t":6600,"onteus":6601,"piter":6602,"Ġcomand":6603,"Ġvolnut":6604,"ĠlomÃªyes":6605,"ĠleÃ»s":6606,"Ġbrouw":6607,"Ġcroere":6608,"Ġapont":6609,"ijhoz":6610,"vraedje":6611,"Ġmanaedjes":6612,"Ġabate":6613,"ĠterÃ©n":6614,"ivem":6615,"ndust":6616,"Ġmarinde":6617,"Ġtrae":6618,"Ġsicrijhaedje":6619,"ĠsicrÃ®te":6620,"Ġcouyon":6621,"olete":6622,"Ġfait":6623,"Ġtourn":6624,"851":6625,"852":6626,"854":6627,"856":6628,"859":6629,"871":6630,"872":6631,"873":6632,"874":6633,"876":6634,"879":6635,"Ġclaire":6636,"ĠdinrÃªye":6637,"Ġrcla":6638,"Ġrclam":6639,"Ġ);":6640,"Ġsondje":6641,"Ġnouve":6642,"Ġcham":6643,"ĠBast":6644,"Ġaraedje":6645,"Ġarkey":6646,"Ġbati":6647,"861":6648,"862":6649,"761":6650,"ĠfÃ¥sse":6651,"561":6652,"562":6653,"831":6654,"832":6655,"741":6656,"Ġdiferinnes":6657,"541":6658,"542":6659,"731":6660,"732":6661,"ujhance":6662,"ĠCharles":6663,"841":6664,"842":6665,"531":6666,"532":6667,"roÃ»les":6668,"Ġordin":6669,"ĠtchÃ¥f":6670,"olodjisse":6671,"olodjicmint":6672,"ĠpÃ¥rtis":6673,"Ġ1000":6674,"Ġpiceure":6675,"Ġcnoxhowe":6676,"Ġrespons":6677,"Ġrprind":6678,"ibant":6679,"ĠcrÃ¥xhe":6680,"Ġmusses":6681,"Ġraptit":6682,"ĠfrÃ¥zlete":6683,"Ġjama":6684,"Ġgrins":6685,"ĠvÃ©nrÃ¨":6686,"Ġrvowe":6687,"ĠcrexhÃ¨t":6688,"Ġrexhowe":6689,"ĠnoÃ»mot":6690,"Ġrascodou":6691,"ĠpriyÃ®":6692,"Ġdiferinces":6693,"Ġancyins":6694,"cwÃ¥r":6695,"Ġmoussa":6696,"Ġdjondants":6697,"Ġgalant":6698,"ĠscolÃ®s":6699,"ĠadjinÃ§nÃ©":6700,"ĠramassÃ©":6701,"Ġradjout":6702,"ĠOtjacques":6703,"andjÃ®le":6704,"Ġritches":6705,"Ġsigneurs":6706,"ĠLovÃ©n":6707,"ĠpÃ¥rlers":6708,"ĠÃ¥buss":6709,"Ġaschate":6710,"ĠsinglÃ©":6711,"Ġistorikes":6712,"Ġmessaedjes":6713,"ĠoblidjÃ®":6714,"ĠcwÃ©nze":6715,"Ġdecid":6716,"thur":6717,"Ġlongueur":6718,"Ġamerik":6719,"Egzimpe":6720,"Ġinstrumint":6721,"espond":6722,"Ġdujhances":6723,"Ġpotchas":6724,"Ġboyeas":6725,"ĠegadjÃ®":6726,"Ġacsegnmint":6727,"Ġfrancike":6728,"Ġpoytreye":6729,"Ġlevantrece":6730,"ĠLÃ©onard":6731,"Ġpazea":6732,"Ġinfinitif":6733,"ĠNyns":6734,"Ġcopiut":6735,"ĠsuccÃ¨s":6736,"Ġcinema":6737,"Ġdobleure":6738,"ĠRwanda":6739,"ĠMaurice":6740,"Ġoccitan":6741,"'.":6742,".)":6743,"Mes":6744,"Mape":6745,"VÃ®":6746,"Vla":6747,"ayes":6748,"bro":6749,"bac":6750,"bite":6751,"betch":6752,"dÃ®":6753,"fyÃ®":6754,"gran":6755,"kyÃ®":6756,"lante":6757,"lotes":6758,"mas":6759,"oyaedje":6760,"pt":6761,"raedje":6762,"rdi":6763,"rum":6764,"vance":6765,"yÃ©":6766,"zÃ¨":6767,"zir":6768,"Ã¡":6769,"Ã¯":6770,"Ġ35":6771,"Ġdf":6772,"Ġdna":6773,"ĠdÃ®re":6774,"indjÃ®":6775,"Ġaut":6776,"Ġsg":6777,"Ġpp":6778,"ĠcÃ¥r":6779,"Ġcriy":6780,"ano":6781,"anstÃ©":6782,"andjreus":6783,"Ġdimeye":6784,"Ġmit":6785,"Ġtta":6786,"Ġtombe":6787,"Ġfir":6788,"chind":6789,"Ġbu":6790,"Ġbis":6791,"ĠbÃ¥re":6792,"ĠbotchÃ®":6793,"Ġburo":6794,"ĠvÃ©":6795,"Ġrli":6796,"ĠrÃ¥lmint":6797,"Ġrprezinte":6798,"Ġong":6799,"ero":6800,"eune":6801,"djereye":6802,"Ġcov":6803,"Ġcolons":6804,"Ġdjate":6805,"Ġdjoke":6806,"rom":6807,"jhÃ®s":6808,"jhenes":6809,"ette":6810,"Ġgla":6811,"ĠgÃ¥tche":6812,"Ġsori":6813,"Ġsoha":6814,"xhs":6815,"cedile":6816,"ĠsiÃ¨":6817,"Ġtches":6818,"Ġtchance":6819,"osÃ©":6820,"lain":6821,"laxhe":6822,"ĠMotlÃ®":6823,"ames":6824,"ĠDou":6825,"ĠDed":6826,"Ġlame":6827,"Ġob":6828,"acaedje":6829,"ĠaloyÃ®":6830,"ĠBert":6831,"cile":6832,"ĠCay":6833,"ĠSim":6834,"ĠSÃ¥rt":6835,"ĠSullon":6836,"Ġplins":6837,"ĠholandÃ¨s":6838,"Ġnoejh":6839,"gnÃ¨t":6840,"gnesse":6841,"ĠPe":6842,"ĠPer":6843,"ĠPont":6844,"ĠPrÃ©":6845,"ĠProv":6846,"liyaedje":6847,"via":6848,"ville":6849,"ĠscrÃ®te":6850,"Ġtoir":6851,"Ġ1945":6852,"Ġ1979":6853,"Ġcah":6854,"Ġcav":6855,"Ġoujhenes":6856,"Ġmau":6857,"gneus":6858,"ĠGri":6859,"ĠTra":6860,"ĠTour":6861,"Ġfoete":6862,"ĠWiy":6863,"Ġtrokes":6864,"Ġdame":6865,"Ġdivreut":6866,"Ġtetes":6867,"ĠNÃ¥":6868,"ĠNor":6869,"Ġboet":6870,"ĠbokÃ¨t":6871,"ondaedje":6872,"Ġaprester":6873,"uzmint":6874,"Ġmidjote":6875,"Ġptites":6876,"yixh":6877,"ĠDjo":6878,"Ã¥toÃ»":6879,"ĠIrak":6880,"ĠcÃ¥zaedjes":6881,"Ã¥rdÃªyes":6882,"ĠÃĪ":6883,"Ġadop":6884,"Ġshure":6885,"Ġ--":6886,"ĠpassÃ©nt":6887,"Ġwaides":6888,"Ġwaxhea":6889,"Ġefet":6890,"aper":6891,"ablo":6892,"Ġegz":6893,"Ġegol":6894,"Ġambedeus":6895,"Ġcoraedje":6896,"ctaedje":6897,"ixheut":6898,"Ġmoncea":6899,"Ġmargou":6900,"ardin":6901,"Ġporsh":6902,"adele":6903,"Ġindj":6904,"Ġfaf":6905,"oteke":6906,"Ġcwatrinme":6907,"Ġcondicion":6908,"opliyaedje":6909,"ĠdiscrÃ®t":6910,"daye":6911,"Ġclotches":6912,"ĠcoÃ»te":6913,"toele":6914,"ĠChwÃ¨s":6915,"Ġrsaetch":6916,"Ġboton":6917,"Ġvicante":6918,"Dispoy":6919,"ĠhÃ´ts":6920,"ĠhÃ´tÃ¨s":6921,"Ġgrevi":6922,"ĠsavÃ¨t":6923,"Ġberwete":6924,"ĠtoÃ»r":6925,"ĠprononÃ§aedjes":6926,"Ġtinmes":6927,"hilip":6928,"berteke":6929,"ĠmolÃ©ns":6930,"ĠRepublike":6931,"ĠHenri":6932,"Ãªyolodjince":6933,"ĠZel":6934,"Ġfouy":6935,"Ġfougn":6936,"Ġjamwais":6937,"Ġtchame":6938,"ĠmagnÃ¨t":6939,"ĠbroÃ»ler":6940,"Ġdistru":6941,"reuse":6942,"pagneye":6943,"Ġmartchande":6944,"ĠkiminÃ¥ltÃ©":6945,"Ġsiervice":6946,"Ġspeci":6947,"Ġlangues":6948,"ĠdjournÃ¥":6949,"ĠArthur":6950,"ĠDispu":6951,"Ġhamteas":6952,"cÃ¥zante":6953,"zak":6954,"ĠÃ©ndjolike":6955,"Ġsourdants":6956,"Ġnuk":6957,"viedje":6958,"clope":6959,"ĠsapÃ©n":6960,"Ġgalo":6961,"Ġraloye":6962,"Payis":6963,"Vicaedje":6964,"ĠvÃ´reut":6965,"Ġreyuss":6966,"ĠdjonnÃ¨s":6967,"Ġmoenneus":6968,"ĠOtriche":6969,"Ġcaractere":6970,"Ġfrumeles":6971,"ĠcoixhÃ®":6972,"ĠschapÃ©":6973,"ĠpÃ¥pÃ¥ds":6974,"Ġoraye":6975,"Ġaparey":6976,"ĠtrevÃ¥":6977,"Ġclapant":6978,"hÃ¥yaedje":6979,"ĠMarie":6980,"ĠFranÃ§wÃ¨s":6981,"ĠFranÃ§ois":6982,"Ġrastrinde":6983,"Ġindustreye":6984,"Ġrprinjhe":6985,"ĠnamurwÃ¨s":6986,"ĠDavid":6987,"Ġcomunisse":6988,"Ġgrandiveus":6989,"estamint":6990,"ĠraecinÃªyes":6991,"Ġistweres":6992,"ĠDivant":6993,"Ġlinwistike":6994,"Paski":6995,"Ġfetchires":6996,"ĠSacwants":6997,"zultat":6998,"ĠMimile":6999,"Ġmacrales":7000,"ĠFauconnier":7001,"Ġeciclope":7002,"ĠgÃ¥mÃ¨s":7003,"Ġttafwait":7004,"-\"":7005,"Au":7006,"Bou":7007,"Jo":7008,"Ras":7009,"Ric":7010,"Rilom":7011,"Tol":7012,"Tec":7013,"ait":7014,"agn":7015,"bu":7016,"cis":7017,"dit":7018,"dim":7019,"fro":7020,"gus":7021,"gane":7022,"lis":7023,"lÃ©nt":7024,"mat":7025,"mÃ®s":7026,"mite":7027,"oyes":7028,"oreye":7029,"pÃ´":7030,"pÃªye":7031,"sol":7032,"wers":7033,"à¦":7034,"ĠÐ":7035,"Ġ22":7036,"esteye":7037,"onimeye":7038,"Ġafeye":7039,"Ġagnon":7040,"Ġcreye":7041,"Ġcuz":7042,"Ġcindes":7043,"ousse":7044,"ten":7045,"Ġmun":7046,"neures":7047,"djÃ¨t":7048,"djwesse":7049,"ĠkÃ©n":7050,"Ġfar":7051,"Ġbl":7052,"ĠbÃ¥r":7053,"Ġbour":7054,"Ġbur":7055,"Ġbrey":7056,"ĠbÃ¥ke":7057,"ĠbouwÃªye":7058,"Ġnai":7059,"Ġraler":7060,"Ġrweri":7061,"era":7062,"Ġespl":7063,"menes":7064,"Ġetinde":7065,"ssart":7066,"Ġestats":7067,"Ġposteure":7068,"Ġpolets":7069,"alÃ©ve":7070,"alitÃ©":7071,"Ġlike":7072,"Ġkimint":7073,"antal":7074,"Ġdja":7075,"Ġdjint":7076,"Ġdjonte":7077,"ĠdjaponÃ¨s":7078,"intaedje":7079,"Ġdol":7080,"Ġavant":7081,"ĠgÃ¥lwÃ¨s":7082,"Ġpaile":7083,"Ġparexh":7084,"ĠpavÃªye":7085,"vele":7086,"cete":7087,"ĠsiÃ¨r":7088,"war":7089,"was":7090,"waissÃ¨s":7091,"kea":7092,"Ġtchest":7093,"Ġtchab":7094,"olo":7095,"uti":7096,"seye":7097,"wene":7098,"alons":7099,"amile":7100,"ĠDon":7101,"ĠocÃ¥z":7102,"Ġstron":7103,"Ġaloy":7104,"ĠBos":7105,"cisses":7106,"ĠCu":7107,"ĠCeles":7108,"ĠCoir":7109,"Ġvidey":7110,"ĠSel":7111,"ĠSic":7112,"ĠSta":7113,"aryÃ®":7114,"Ġhale":7115,"ĠAviedje":7116,"Ġmole":7117,"Ġmoxhon":7118,"ent":7119,"prÃ©":7120,"prou":7121,"ĠPi":7122,"ĠPet":7123,"ĠPas":7124,"ĠPor":7125,"ĠPris":7126,"omike":7127,"Ġdisv":7128,"orm":7129,"orin":7130,"Ġscri":7131,"ĠÃ´res":7132,"Ġridj":7133,"ĠFi":7134,"Ġtoirt":7135,"Ġ1935":7136,"Ġ1944":7137,"ĠcapÃ¥":7138,"Ġcasser":7139,"ĠmÃ¥jh":7140,"ĠoudonbÃ©n":7141,"Ġmaxhe":7142,"Ġmarixh":7143,"ĠubÃ©n":7144,"ĠGabri":7145,"ĠGaston":7146,"ĠTa":7147,"Ġfosses":7148,"ĠrelÃ®":7149,"Ġrepublike":7150,"Ġreplaece":7151,"Ġvoer":7152,"Ġtemoen":7153,"ĠHav":7154,"ĠEdji":7155,"Ġbodjes":7156,"uzÃ©":7157,"Ġspani":7158,"ouwaedjes":7159,"Ġbagn":7160,"Ã´rts":7161,"ĠMasson":7162,"Ã¥rdÃªye":7163,"Ġscheut":7164,"Ġschite":7165,"rinn":7166,"zeyes":7167,"auve":7168,"ĠÃ¥rmen":7169,"Ġwaite":7170,"Ġrock":7171,"Ġzou":7172,"ĠbrotchÃ®":7173,"Ġpexhe":7174,"Ġapli":7175,"Ġcorou":7176,"Ġcorants":7177,"Ġcorone":7178,"Ġmanires":7179,"Ġabro":7180,"Ġplace":7181,"ife":7182,"ĠterÃ©ns":7183,"ĠcminÃ§a":7184,"iveye":7185,"Ġfjheus":7186,"ruc":7187,"Ġpasnut":7188,"ĠtrÃ»":7189,"Ġcougn":7190,"ĠÃ¨to":7191,"Ġcwareme":7192,"ĠKimin":7193,"ĠmoennÃ©":7194,"ĠmoennÃ©ve":7195,"Ã¥leye":7196,"Ġtourni":7197,"Ġtournant":7198,"vaye":7199,"Ġconoxh":7200,"ĠAldjereye":7201,"Ġtropes":7202,"vierba":7203,"Ġtracteur":7204,"apea":7205,"ĠgaztÃ®":7206,"ĠmindjÃ®":7207,"Ġricmin":7208,"ĠÃ¥dzo":7209,"Ġramon":7210,"Ġahesse":7211,"ĠahÃ¥y":7212,"ĠChim":7213,"Ġbotons":7214,"Ġotom":7215,"Ġvicnut":7216,"unker":7217,"Disk":7218,"lÃ¥ves":7219,"biyÃ®":7220,"Ġdsus":7221,"ĠdmorÃ©nt":7222,"ĠdmorÃ©ve":7223,"ĠDefre":7224,"Ġemacr":7225,"Ġemissions":7226,"Ġ500":7227,"Ġvoyaedjes":7228,"Ġtouba":7229,"Ġsipesse":7230,"Ġouxhs":7231,"ĠtouwÃ©s":7232,"Ġ400":7233,"Ġespaitche":7234,"lidjon":7235,"Ġresponde":7236,"ĠÃ¨steÃ»t":7237,"ĠtoumÃ¨t":7238,"ĠrÃ¥les":7239,"Ġbastimints":7240,"Ġfouxhe":7241,"ĠBouda":7242,"ĠBoulard":7243,"ĠbinÃ¥jhe":7244,"ĠredjÃ¥r":7245,"ĠXV":7246,"ĠWallon":7247,"Ġpinser":7248,"Ġpinsion":7249,"Ġmedi":7250,"Ġmagnant":7251,"Ã¢rd":7252,"ĠSchmit":7253,"Ġflori":7254,"ĠatchtÃ©":7255,"Ġshijhes":7256,"ÃĶtes":7257,"ĠSoce":7258,"Ġmatons":7259,"ĠmÃ¥rtea":7260,"Ġbrouh":7261,"Ġsotni":7262,"ĠBedjes":7263,"Ġcrustin":7264,"ĠrlomÃªye":7265,"ĠpolicÃ®s":7266,"ĠvijhÃ©n":7267,"Ġwallonne":7268,"Ġatrape":7269,"Ġfonccion":7270,"Ġgrames":7271,"ĠdiswalpÃ©":7272,"ĠColas":7273,"ĠhÃ¥ynÃªye":7274,"Ġrashir":7275,"Ġsemdi":7276,"Ġdisparexhou":7277,"Ġlijheus":7278,"ĠpoÃ»ssire":7279,"Ġdaegnrece":7280,"Ġclapante":7281,"Ġespagnol":7282,"ĠQuinet":7283,"ĠBraibant":7284,"Ġpenit":7285,"Wait":7286,"dixhmint":7287,"ĠcwÃ©nzinne":7288,"Ġpriyire":7289,"Ġrintrer":7290,"cÃ´paedje":7291,"senx":7292,"ĠrashonnÃ©s":7293,"carne":7294,"ĠpopulÃ¥cion":7295,"ĠloyÃ©ns":7296,"ĠbetrÃ¥les":7297,"Contnou":7298,"ĠrilomÃªye":7299,"Ġorganes":7300,"ĠcodÃ¥nÃ©":7301,"ĠwaeyÃ©n":7302,"ĠNicolas":7303,"ĠItÃ¥leye":7304,"Ġshabots":7305,"Ġebreu":7306,"ĠnÃ»tons":7307,"ĠschoircÃ®":7308,"Ġverdeures":7309,"rionet":7310,"Ġgayole":7311,"Ġcwarmea":7312,"Uzaedjes":7313,"ĠRoumaneye":7314,"Ġassaetchance":7315,"ĠcÃ©ncwante":7316,"Ġrafoircixh":7317,"ĠospitÃ¥":7318,"Ġagneas":7319,"Ġdramatike":7320,"utcheye":7321,"Nicolai":7322,"Ġsignorreye":7323,"ĠBeaucarne":7324,"ĠThirionet":7325,"ĠBastin":7326,"ĠjamaÃ®s":7327,"ĠDedoy":7328,"ĠSchmitz":7329,"',":7330,"1250":7331,"And":7332,"BN":7333,"Bi":7334,"Eyet":7335,"Indust":7336,"Mo":7337,"Min":7338,"Mot":7339,"MwaissÃ¨s":7340,"Pire":7341,"Plae":7342,"Sor":7343,"Unis":7344,"aÃ®":7345,"bant":7346,"cri":7347,"cus":7348,"cwa":7349,"cÃªye":7350,"cince":7351,"doÃ»":7352,"ddÃ©":7353,"fon":7354,"franc":7355,"hon":7356,"idi":7357,"laedjes":7358,"mos":7359,"nale":7360,"oet":7361,"pÃ©s":7362,"rÃª":7363,"ress":7364,"rwÃ¨s":7365,"sel":7366,"set":7367,"vre":7368,"vire":7369,"yo":7370,"yants":7371,"zes":7372,"zins":7373,"zÃ¥r":7374,"ÃŃ":7375,"Ø§":7376,"Ġ29":7377,"Ġinde":7378,"Ġdresse":7379,"Ġlit":7380,"ĠlÃ«":7381,"inaedje":7382,"inblanc":7383,"onant":7384,"Ġamin":7385,"ĠsÃ¨":7386,"ĠsÃ¥rt":7387,"Ġpike":7388,"ĠpÃ¥t":7389,"Ġpeter":7390,"Ġprandj":7391,"Ġewou":7392,"Ġcli":7393,"ĠcÃ¥v":7394,"Ã¥jhes":7395,"ouy":7396,"ĠdiÃ¨":7397,"Ġdireut":7398,"ĠmÃ¨s":7399,"Ġtran":7400,"Ġtind":7401,"ĠtÃ¥te":7402,"renes":7403,"neyes":7404,"yete":7405,"Ġfw":7406,"Ġfac":7407,"ĠfÃ´re":7408,"cht":7409,"chas":7410,"cheux":7411,"ĠbÃ¥z":7412,"Ġbey":7413,"Ġblo":7414,"ĠboÃ»s":7415,"ĠbÃ¥ze":7416,"ĠrÃ´ze":7417,"ĠrfÃ©":7418,"Ġ(-":7419,"erna":7420,"ĠetrevÃ©ns":7421,"itÃ¨t":7422,"oto":7423,"Ġcos":7424,"Ġcode":7425,"Ġcoli":7426,"Ġpost":7427,"Ġpompe":7428,"Ġlik":7429,"Ġdjno":7430,"Ġdjnos":7431,"intÃ¨s":7432,"Ġdobes":7433,"ĠdorÃªye":7434,"ĠavÃ©ns":7435,"Ġirans":7436,"Ã»les":7437,"Ġparole":7438,"Ġsolo":7439,"xheur":7440,"xhÃ®s":7441,"vegne":7442,"Ġsim":7443,"Ġsir":7444,"Ġtchandele":7445,"sta":7446,"1945":7447,"ontÃ©":7448,"atrea":7449,"rap":7450,"rate":7451,"ĠMal":7452,"ĠMitan":7453,"ranmint":7454,"ĠwÃªre":7455,"amÃªye":7456,"Ġoyeut":7457,"Ġaloye":7458,"ĠBibe":7459,"cietÃ©":7460,"ĠCab":7461,"ĠCana":7462,"pen":7463,"ĠSh":7464,"Ġhoye":7465,"Ġhatrea":7466,"Ġnoter":7467,"ĠAberteke":7468,"terne":7469,"Ġmoy":7470,"pron":7471,"prit":7472,"ĠPtit":7473,"ĠPales":7474,"ĠPablo":7475,"lia":7476,"lipe":7477,"viaedje":7478,"Ġrisse":7479,"ĠFer":7480,"ĠFond":7481,"Ġtowe":7482,"EtrevÃ©ns":7483,"Ġ1910":7484,"Ġ1956":7485,"Ġ1932":7486,"Ġoum":7487,"Ġmapes":7488,"essÃ®s":7489,"ĠRi":7490,"Ġurope":7491,"ĠGen":7492,"ĠGÃ¥me":7493,"Ġanuti":7494,"ĠTÃ®":7495,"ĠTat":7496,"ĠTim":7497,"ĠTur":7498,"ĠcwÃ¥re":7499,"Ġcwiter":7500,"ĠWe":7501,"ĠWil":7502,"rÃ¥mont":7503,"Ġdavance":7504,"ĠHit":7505,"urea":7506,"Dju":7507,"DjÃ´zef":7508,"icyin":7509,"ĠmetÃ¨t":7510,"Ġvalets":7511,"ĠJac":7512,"niesses":7513,"Ġ2013":7514,"Ġmiss":7515,"ĠspÃ´rt":7516,"ĠbaxhÃ®":7517,"ĠbassÃ¨s":7518,"ĠcÃ¥zeus":7519,"jheyes":7520,"Ġboulome":7521,"ĠpÃ¥l":7522,"ĠVÃ®":7523,"Ġadv":7524,"kions":7525,"Ġveyoz":7526,"Ġbeyes":7527,"guÃ©":7528,"guÃ¨s":7529,"cori":7530,"coir":7531,"Ġevoy":7532,"ĠÃ¥rt":7533,"ĠÃ¥rvier":7534,"Ġpassa":7535,"Ġpassant":7536,"Ġlondjin":7537,"Ġtiene":7538,"Ġtipike":7539,"Ġpuvite":7540,"pion":7541,"pieus":7542,"ĠmwaissÃ¨s":7543,"itchote":7544,"Ġmoumints":7545,"Ġdjudjmint":7546,"ĠvolÃ©nt":7547,"Ġdman":7548,"Ġgaye":7549,"Ġapinse":7550,"ĠOur":7551,"Ġamid":7552,"Ġtchambes":7553,"ixhÃ¨t":7554,"Ġdrovou":7555,"Ġarimea":7556,"Ġpips":7557,"Ġcoujh":7558,"Ġinm":7559,"Ġinn":7560,"Ġindicatif":7561,"Ġcrev":7562,"vais":7563,"ĠPainblanc":7564,"ĠDiale":7565,"Cist":7566,"Ġseroz":7567,"ĠpÃ¥rtixh":7568,"Ġpouss":7569,"Ġchal":7570,"ĠcoirnÃªye":7571,"Ġrivire":7572,"ĠkÃ©ne":7573,"tois":7574,"tossu":7575,"Ġdjonnea":7576,"Ġrsaetche":7577,"Ġprezinter":7578,"ĠtchÃ¥fer":7579,"ĠprindÃ¨t":7580,"aiwe":7581,"DiviÃ¨":7582,"Ġgovier":7583,"Coviete":7584,"Ġgrev":7585,"cule":7586,"rexhaedje":7587,"Ġ1600":7588,"ĠInstit":7589,"Ġtourisses":7590,"ĠmontÃªyes":7591,"Ġrisch":7592,"Ġcampagnes":7593,"Ġseke":7594,"ĠAnto":7595,"Ġcnoxhous":7596,"ĠMÃ¥tche":7597,"ĠUropeyinne":7598,"ĠboutÃ¨t":7599,"oices":7600,"Ġsetchs":7601,"ĠvraiyÃ¨s":7602,"asser":7603,"ĠdierinnÃ¨s":7604,"djoes":7605,"ĠcÃ¥rire":7606,"Ġflotches":7607,"Ġflates":7608,"Ġeployeyes":7609,"Ġgriper":7610,"Ġtchait":7611,"ĠvÃ©nreut":7612,"ĠÃ´rlodje":7613,"Ġtaeyes":7614,"venmints":7615,"Ġbalter":7616,"Ġspenes":7617,"ĠBalle":7618,"Ġprezintaedje":7619,"Ġpriyesse":7620,"ĠbÃ¥be":7621,"Ġespliker":7622,"Ġloke":7623,"Ġleyive":7624,"ĠBedje":7625,"cÃ¥zants":7626,"Ġroumin":7627,"ĠatrapÃ©":7628,"ĠegzistÃ¨t":7629,"Ġdiswalpaedje":7630,"Ġresponda":7631,"Ġbleuwe":7632,"Ġrlidjeus":7633,"Ġrabat":7634,"ĠIII":7635,"Ġrissaetch":7636,"ĠrissaetchÃ®":7637,"LeyÃ®z":7638,"ĠpapÃ®scrÃ®t":7639,"ĠÃ¨stÃ©ve":7640,"Ġspitrons":7641,"Ġsurmint":7642,"ĠtÃ¥vlea":7643,"Ġhertch":7644,"ĠHinnot":7645,"Ġmzeure":7646,"Ġvelo":7647,"Ġrilever":7648,"Ġhalcrosse":7649,"Ġdroukes":7650,"Ġfrica":7651,"Ġamerikins":7652,"portrait":7653,"Ġmizeres":7654,"Ġrashonner":7655,"ĠarestÃªye":7656,"Ġlampe":7657,"ĠatÃ´tch":7658,"Ġdujhance":7659,"ĠLinux":7660,"Ġadminist":7661,"Ġdiccionair":7662,"Ġkilometes":7663,"ĠPrincipÃ¥tÃ©":7664,"Ġantibiy":7665,"Ġdoirm":7666,"Ġdoirmi":7667,"ĠArabes":7668,"MÃ¥grÃ©":7669,"Ġmash":7670,"Ġrtourner":7671,"Ġfoclore":7672,"Ġrevintreye":7673,"Ġrespect":7674,"ĠLorint":7675,"ĠLenfant":7676,"Ġbiestreyes":7677,"Ġmeynute":7678,"ĠLejeune":7679,"ĠDjedene":7680,"Ġrobetes":7681,"Ġperlinaedje":7682,"ĠDuysenx":7683,"Ġareyop":7684,"hilippe":7685,"ĠDefrecheux":7686,"ĠPalestene":7687,".\"":7688,"Av":7689,"Ba":7690,"CO":7691,"Dim":7692,"EW":7693,"Malade":7694,"Mopliyaedje":7695,"PÃ¥dje":7696,"Ra":7697,"Se":7698,"Sit":7699,"Sourd":7700,"SBN":7701,"Wal":7702,"adi":7703,"bÃ´":7704,"boÃ»":7705,"bur":7706,"cet":7707,"cont":7708,"courti":7709,"eÃ»ve":7710,"hÃ¥ye":7711,"ikÃ®":7712,"lÃ¨":7713,"mof":7714,"mÃ¥le":7715,"ng":7716,"oeres":7717,"pp":7718,"rot":7719,"tos":7720,"ube":7721,"usses":7722,"vel":7723,"wÃ¥":7724,"wter":7725,"zou":7726,"Äģ":7727,"ÅŁ":7728,"Ð½":7729,"ĠQ":7730,"ĠEtimolodjeye":7731,"Ġ45":7732,"Ġloc":7733,"Ġlites":7734,"inreye":7735,"Ġaire":7736,"Ġawaite":7737,"Ġsyinces":7738,"ĠpÃ©s":7739,"Ġpitchote":7740,"Ġela":7741,"Ġcit":7742,"Ġcous":7743,"Ġcmer":7744,"Ã¥sse":7745,"Ã¥rire":7746,"outer":7747,"Ġmn":7748,"Ġmen":7749,"Ġminne":7750,"Ġmene":7751,"Ġmemwere":7752,"Ġtire":7753,"Ġtirer":7754,"rele":7755,"retes":7756,"reau":7757,"Ã¨d":7758,"djreye":7759,"djive":7760,"Ġkesses":7761,"Ġfrexhe":7762,"ĠbÃ©":7763,"Ġbeur":7764,"Ġbotch":7765,"ĠvÃ´r":7766,"ĠnÃ¨":7767,"Ġrplo":7768,"Ġrnet":7769,"Ġresser":7770,"Ġesper":7771,"Ã©nk":7772,"aezi":7773,"ssaedje":7774,"ssÃªye":7775,"leyon":7776,"otike":7777,"Ã´han":7778,"Ġcosch":7779,"Ġcoixhe":7780,"Ġpoyon":7781,"Ġpovwer":7782,"alan":7783,"alÃ®":7784,"Ġliber":7785,"anto":7786,"Ġdjonde":7787,"Ġavnou":7788,"Ġavion":7789,"Ġavions":7790,"rie":7791,"rires":7792,"eton":7793,"Ġpac":7794,"Ġparet":7795,"Ġsorire":7796,"Ãªt":7797,"cele":7798,"Ġsivierba":7799,"waer":7800,"ĠtchÃ¥rs":7801,"irÃ®":7802,"irÃ»sses":7803,"1996":7804,"olÃ¨s":7805,"ative":7806,"Ã¥rdjÃ®":7807,"ister":7808,"lasse":7809,"ĠMir":7810,"ĠMic":7811,"ĠLoukÃ®z":7812,"Ġoc":7813,"Ġop":7814,"Ġovere":7815,"Ġstrou":7816,"Ġstouve":7817,"Ġstudeye":7818,"ĠBan":7819,"ĠBrÃ¥mint":7820,"ĠBier":7821,"ĠCi":7822,"ĠCit":7823,"ĠSÃ¥":7824,"ĠSwisse":7825,"ĠplÃ¨t":7826,"ĠplÃ©nt":7827,"Ġplantch":7828,"Ġplinnes":7829,"Ġhi":7830,"ĠhÃ¥r":7831,"ĠhÃ¥re":7832,"termin":7833,"Ġmoye":7834,"ena":7835,"prin":7836,"ĠPus":7837,"ĠPar":7838,"ĠPere":7839,"omaedje":7840,"tchete":7841,"Ġdisdj":7842,"Ġdispl":7843,"urwesse":7844,"bene":7845,"vions":7846,"Ġscre":7847,"Ġriwait":7848,"Ġriprezinte":7849,"ĠFala":7850,"Ġ1947":7851,"Ġ1939":7852,"Ġcapit":7853,"Ġrahou":7854,"ĠoubÃ©n":7855,"Ġmasto":7856,"Ġmayon":7857,"Ġmaigue":7858,"ĠRab":7859,"ĠGro":7860,"ĠTrou":7861,"ĠTintin":7862,"Ġfoices":7863,"loe":7864,"ĠciddÃ©":7865,"iteure":7866,"ĠHe":7867,"ĠHar":7868,"ĠNos":7869,"Ġbokion":7870,"ico":7871,"Ġmetant":7872,"Ġmetaedje":7873,"Ġvaici":7874,"ĠpolÃ©nt":7875,"Ġnivaye":7876,"Ġspesse":7877,"ĠDjÃ¥":7878,"ĠDjÃ´r":7879,"ĠDjud":7880,"ĠIr":7881,"ĠcÃ¥zÃ©nt":7882,"Ġbouteus":7883,"Ġvoste":7884,"paitch":7885,"ĠpÃ¥w":7886,"ĠVol":7887,"ĠVrind":7888,"ĠscrijhÃ¨t":7889,"magnÃ®":7890,"kive":7891,"Ġveyous":7892,"wince":7893,"Ġfroum":7894,"Ġpupe":7895,"Ġefance":7896,"Ġzing":7897,"Ġcompete":7898,"estin":7899,"langen":7900,"ĠvolÃ©":7901,"Ġvolant":7902,"ĠvolÃªye":7903,"Ġlever":7904,"ĠyeÃ»":7905,"DjivÃªye":7906,"Ġbrune":7907,"Ġcorwaitaedje":7908,"Ġcortis":7909,"avance":7910,"ĠabÃ©":7911,"Ġabwess":7912,"Ġaboere":7913,"Ġtchamoss":7914,"ĠterÃªye":7915,"ixhante":7916,"Ġdrola":7917,"ĠeployÃ¨t":7918,"Ġpaskeyes":7919,"Ġindje":7920,"Ġfaut":7921,"Ġsitr":7922,"Ġsitind":7923,"Ġtourpene":7924,"ĠUC":7925,"ĠDiÃ¨":7926,"ĠdinÃ©":7927,"ĠdinÃ©ve":7928,"ĠcalkÃ©":7929,"opÃ´l":7930,"Ġtradicion":7931,"dame":7932,"ĠgaztÃ®s":7933,"Ġlongou":7934,"Ġhoup":7935,"ĠratournÃ©s":7936,"ĠlinÃ§":7937,"2004":7938,"ĠcwÃ¥rÃ©":7939,"ĠcwÃ¥rÃªye":7940,"Ġbataye":7941,"Ġfameus":7942,"ĠtÃ®xh":7943,"Ġahesses":7944,"Ġahiver":7945,"Ġmuzikes":7946,"ĠChantal":7947,"ĠshuvÃ¨t":7948,"Ġ170":7949,"Ġotrich":7950,"ĠafroyÃ®":7951,"Ġfijha":7952,"Ġfijhaedje":7953,"Disfondowes":7954,"linwe":7955,"bioteke":7956,"Ġbouneur":7957,"Ġvintinne":7958,"ĠMartin":7959,"ĠMarchal":7960,"ĠDechamps":7961,"Ġrishonn":7962,"Ġfotbale":7963,"Ġsemer":7964,"Ġcrahe":7965,"ĠAnc":7966,"ĠEtrevÃ©ns":7967,"Ġromane":7968,"face":7969,"Ġpitits":7970,"ĠimpÃ´rt":7971,"ĠHenin":7972,"Ġamazir":7973,"Ġecor":7974,"oise":7975,"Ġnovelan":7976,"Ġvalixhance":7977,"Ġcintime":7978,"Ġgruz":7979,"ĠdoÃ»cÃ¨s":7980,"ĠGuere":7981,"Ġedvin":7982,"Ġraeces":7983,"Ġraeze":7984,"Ġraezete":7985,"Ġcrexhou":7986,"Ġsicrijheus":7987,"ĠtchÃ´dron":7988,"trÃ´":7989,"ĠSigneur":7990,"Ġaidant":7991,"ĠpoirtÃªye":7992,"ĠramexhnÃ©s":7993,"Ġesplicant":7994,"Ġbrouxh":7995,"ĠleyÃ¨t":7996,"glat":7997,"ĠmodÃªyes":7998,"Ġpondants":7999,"Ġaclevaedje":8000,"Ġdislaxhaedje":8001,"Ġrafroe":8002,"plaeÃ§mint":8003,"aedjeus":8004,"Mareye":8005,"ĠdicÃ¥Ã§":8006,"ĠÃĶre":8007,"ĠScrijheus":8008,"ĠGrandmont":8009,"ĠPrÃ»sse":8010,"Ġtcheyou":8011,"Ġradjoute":8012,"Ġglaece":8013,"Ġschaesses":8014,"Ġraveur":8015,"ĠrwaitÃ®s":8016,"Ġtcheretes":8017,"ĠnormÃ¥":8018,"ĠinfÃ´rm":8019,"Ġkinoxhou":8020,"ĠdjalÃªye":8021,"Ġdivintrin":8022,"Charles":8023,"Ġanonce":8024,"ĠLucien":8025,"Ġaroke":8026,"potaedje":8027,"Ġfabri":8028,"Ġapoirter":8029,"Ġetrindjirs":8030,"Ġtchedje":8031,"Ġtanks":8032,"Ġsustantiv":8033,"ĠrpassÃ©":8034,"Ġashid":8035,"ĠmezÃ¥jhe":8036,"djonctif":8037,"Ġamoenner":8038,"Ġmilitaire":8039,"Ġmizere":8040,"ĠunitÃ©":8041,"ĠatÃ´tchÃ®":8042,"parints":8043,"ĠÃ¥jhmince":8044,"Ġdiccionaire":8045,"ĠDaegntoele":8046,"Ġsofrixh":8047,"Ġsintimints":8048,"Ġrossea":8049,"Ġramoenner":8050,"ĠLovegn":8051,"Ġhanete":8052,"Ġsuddjonctif":8053,"ĠGraide":8054,"Ġrifondaedje":8055,"Ġtelefone":8056,"bourg":8057,"Ġgroupe":8058,"Ġtimpesse":8059,"Ġfizike":8060,"Ġprofesseur":8061,"Pierre":8062,"ĠhÃ´teur":8063,"onsieu":8064,"Houbert":8065,"itaeyaedje":8066,"ĠAlex":8067,"Ġmaujone":8068,"ĠassoÃ§":8069,"Ġbwejh":8070,"ĠDjodo":8071,"ĠZelande":8072,"Tolminme":8073,"Ġdjonteure":8074,"ĠCoirneu":8075,"ĠStasse":8076,"ĠEdjipe":8077,"ĠKiminÃ¥ltÃ©":8078,"Ġtoubak":8079,"Ġpenitince":8080,"MinÃªyolodjince":8081,"francÃ¨s":8082,"Ġcmeres":8083,"ĠVrindts":8084,"ĠLovegnÃ©e":8085,"\":":8086,"1180":8087,"Af":8088,"Aiwe":8089,"Biy":8090,"Dinez":8091,"Dandjreus":8092,"FÃ©":8093,"Nam":8094,"Sa":8095,"Sinte":8096,"Tote":8097,"Vi":8098,"are":8099,"aut":8100,"bok":8101,"cins":8102,"cance":8103,"ccions":8104,"du":8105,"eveke":8106,"evoye":8107,"fas":8108,"lyin":8109,"mol":8110,"meus":8111,"ossÃ®":8112,"pon":8113,"pri":8114,"piner":8115,"rit":8116,"sp":8117,"sint":8118,"sis":8119,"tt":8120,"tan":8121,"tÃ©nt":8122,"tor":8123,"ura":8124,"uva":8125,"veu":8126,"vÃ©n":8127,"vmints":8128,"vuzion":8129,"ws":8130,"yot":8131,"Å£":8132,"âµ":8133,"Ġ%":8134,"Ġreye":8135,"Ĥ¬":8136,"ĠdÃ¥s":8137,"Ġdmeye":8138,"inete":8139,"Ġakes":8140,"Ġsons":8141,"Ġswer":8142,"Ġpreye":8143,"Ġpinte":8144,"Ġpinde":8145,"ĠptchÃ®":8146,"Ġeu":8147,"ĠedjÃ®":8148,"Ġelai":8149,"ĠcÃ©":8150,"Ġcant":8151,"Ġcac":8152,"Ġcand":8153,"Ã¥yes":8154,"Ã¥be":8155,"Ã¥vÃ¥":8156,"oujhÃ®":8157,"Ġdiales":8158,"Ġdilong":8159,"tenes":8160,"Ã®nÃ¨":8161,"Ġtini":8162,"ĠtÃªre":8163,"Ġtneut":8164,"Ġtayon":8165,"Ġtestamint":8166,"Ġkit":8167,"ĠfÃ¨":8168,"Ġfuz":8169,"Ġfontinne":8170,"ĠfÃ´mes":8171,"chon":8172,"chen":8173,"ĠvÃ´te":8174,"Ġrins":8175,"ĠrÃ¨s":8176,"Ġroum":8177,"Ġrwey":8178,"Ġrpoizer":8179,"Ġesch":8180,"sset":8181,"Ġcopl":8182,"Ġlidjwesse":8183,"Ġlicince":8184,"ĠdocÃ´":8185,"ĠavÃ©ve":8186,"elaer":8187,"rol":8188,"Ġir":8189,"Ġiys":8190,"Ã»re":8191,"ĠÃ¥m":8192,"ĠÃ¥gne":8193,"ĠÃ¥ma":8194,"ĠgÃ¥z":8195,"Ġpaket":8196,"Ġsopoirt":8197,"Ġsoviet":8198,"xhete":8199,"uste":8200,"Ġsig":8201,"Ġsipa":8202,"Ġsida":8203,"Ġtchand":8204,"irÃ¨":8205,"irons":8206,"atic":8207,"2000":8208,"late":8209,"ĠMÃ©":8210,"ĠMel":8211,"ĠMwaisse":8212,"ĠwÃ¥":8213,"imer":8214,"ĠLum":8215,"Ġoyon":8216,"acion":8217,"Ġstrim":8218,"ĠstindÃªye":8219,"Ġalant":8220,"Ġalmande":8221,"ĠBau":8222,"cia":8223,"ĠCout":8224,"ĠCara":8225,"ĠCrisse":8226,"ĠCroes":8227,"ĠCÃ®nÃ¨":8228,"ĠSid":8229,"ĠSpa":8230,"ĠSlangen":8231,"Ġploz":8232,"Ġhae":8233,"Ġhatche":8234,"Ġmode":8235,"Ġmopli":8236,"prindaedje":8237,"gnnut":8238,"ĠPÃ©t":8239,"tchÃ®s":8240,"viker":8241,"ĠscrÃ®":8242,"Ġristo":8243,"Ġrimet":8244,"Ġridiv":8245,"ĠFre":8246,"Ġtoco":8247,"Ġ1920":8248,"Ġ1918":8249,"Ġ1934":8250,"Ġ1957":8251,"Ġ1992":8252,"Ġ1991":8253,"Ġ1989":8254,"Ġcayet":8255,"Ġrah":8256,"ĠrabiyÃ®":8257,"ĠmÃ¥leurs":8258,"Ġmaxhaedje":8259,"ĠRoz":8260,"ĠRotch":8261,"Ġuman":8262,"ĠGre":8263,"Ġanich":8264,"ĠTou":8265,"ĠTan":8266,"ĠTae":8267,"ĠTout":8268,"lore":8269,"Ġcwer":8270,"umba":8271,"Ġdivnant":8272,"Ġcimint":8273,"Ġcias":8274,"ĠvozÃ´tes":8275,"Ġtero":8276,"ĠHal":8277,"ĠHab":8278,"ĠEd":8279,"ingaedjes":8280,"Ġ2016":8281,"Ġfist":8282,"Ġmili":8283,"Ġspor":8284,"Ġspale":8285,"Ġspales":8286,"ĠspÃ©r":8287,"ĠspoÃ»les":8288,"Ġbaxhe":8289,"ĠbagnÃ®":8290,"ĠMax":8291,"ĠDjambe":8292,"jhea":8293,"Ġschay":8294,"Ġschape":8295,"Ġelemints":8296,"Ġbouteu":8297,"ĠpÃ¥pe":8298,"ĠpÃ¥tes":8299,"Ġnoste":8300,"ĠVÃ®s":8301,"ĠVoye":8302,"Ġadvier":8303,"ozÃ´tes":8304,"Ġdemo":8305,"Ġaide":8306,"mame":8307,"coran":8308,"coviete":8309,"ĠpassÃªye":8310,"piaedje":8311,"ĠzÃ¨":8312,"Ġzig":8313,"itchete":8314,"Ġvoleut":8315,"Ġdmwin":8316,"Ġyer":8317,"Djihan":8318,"Ġbrotch":8319,"Ġcroyon":8320,"ĠapÃ¥rt":8321,"ĠOu":8322,"ĠOst":8323,"ĠOlandÃ¨s":8324,"wandelaer":8325,"ijhÃ®s":8326,"plou":8327,"Ġmaneu":8328,"ĠmancÃ®":8329,"Ġaba":8330,"ferinces":8331,"Ġplast":8332,"ĠdjÃ¥zÃ©ve":8333,"ĠpÃ´ce":8334,"nouv":8335,"ĠTcher":8336,"ĠTchant":8337,"ĠTchestea":8338,"oft":8339,"Ġ1850":8340,"Ġcoul":8341,"bate":8342,"Ġparvin":8343,"Ġcwarante":8344,"ĠlÃ¥mes":8345,"Ġmoenneu":8346,"Ġsitroete":8347,"Ġbondi":8348,"Ã¢ye":8349,"grafe":8350,"Ġblankes":8351,"Ã®trin":8352,"Ġrescou":8353,"ĠcontÃ©ve":8354,"ĠsinÃ©":8355,"ĠDipus":8356,"Ġseri":8357,"Ġtcherowe":8358,"Ġpoure":8359,"Ġcourts":8360,"ĠminÃªye":8361,"antchÃ¨s":8362,"ĠBai":8363,"ĠdjouwÃªye":8364,"ĠdjouwÃ©nt":8365,"mÃ¥dje":8366,"eder":8367,"Ġidint":8368,"ĠpalÃ¥":8369,"ĠtÃ®xhons":8370,"Ġinstit":8371,"Ġoraedje":8372,"ĠtchÃ¥sse":8373,"Ġshuvion":8374,"Ġprindeut":8375,"Ġgorea":8376,"ĠsavÃ©nt":8377,"Ġdmorant":8378,"addj":8379,"ezÃ¥r":8380,"Ġprovnance":8381,"Ġ1500":8382,"ĠvoyaedjÃ®":8383,"ĠriscÃ´paedje":8384,"ocol":8385,"ĠsipÃ¥rd":8386,"Ġsipotch":8387,"Ġintrer":8388,"Ġeterp":8389,"Ġvinoz":8390,"Ġtinki":8391,"Ġfroede":8392,"ĠRedjons":8393,"Ġagric":8394,"Ġdialect":8395,"ĠrindjÃ®":8396,"ĠbanÃ¥ve":8397,"ĠtchantÃ©":8398,"ĠtchantÃ©ve":8399,"Ġtchapeas":8400,"ĠBruss":8401,"sip":8402,"Ġmexh":8403,"Ġdjaeyes":8404,"ĠstroetÃ¨s":8405,"fiter":8406,"ĠbroÃ»le":8407,"Ġdecla":8408,"aza":8409,"Ġfloric":8410,"Ġsiervices":8411,"ĠRodjÃ®":8412,"Ã¥mene":8413,"ingues":8414,"ÃĶt":8415,"Ġtolmonde":8416,"Ġalmands":8417,"Ġprinces":8418,"ĠprincipÃ¥tÃ©":8419,"amene":8420,"Ġrascod":8421,"Ġdischinde":8422,"ĠramexhnÃªyes":8423,"ĠesplikÃªyes":8424,"Ġtchimin":8425,"Ġbraire":8426,"Ġracontaedje":8427,"Ġboirds":8428,"ĠsicrÃ®ts":8429,"lukin":8430,"Ġploure":8431,"Ġmamite":8432,"ccala":8433,"ĠmÃ¥lÃ¥jheys":8434,"ĠmoussÃ®s":8435,"Ġtchanteus":8436,"ĠÃĶtÃ¨s":8437,"ĠadjinÃ§ner":8438,"Ġpurd":8439,"Ġpurnea":8440,"ĠconsyÃ®":8441,"ĠMatterne":8442,"Ġglumi":8443,"Ġaskepieus":8444,"Ġaskepieye":8445,"Ġtchena":8446,"ĠlÃ¨yÃ®":8447,"brut":8448,"ĠnotÃ»le":8449,"Ġpowezeyes":8450,"Ġravicaedje":8451,"ĠraploÃ»s":8452,"Ġdismantch":8453,"ĠdismantchÃ®":8454,"ĠWartique":8455,"ĠrÃ§ure":8456,"Ġpwels":8457,"Ġciviliz":8458,"Ġpezant":8459,"Ġpanse":8460,"Ġadviebes":8461,"Ġritrove":8462,"ĠwaitroÃ»le":8463,"ĠPierret":8464,"Ġmessaedje":8465,"ĠBraezi":8466,"Ġmargayes":8467,"Ġsustantif":8468,"Ġsustantifs":8469,"III":8470,"Ġespeces":8471,"ĠprÃ´pes":8472,"Vocial":8473,"ĠAdam":8474,"Ġabatou":8475,"woris":8476,"Ġdress":8477,"Ġessince":8478,"ĠrawÃ¥rd":8479,"ĠloyÃ©n":8480,"ĠdjÃ¥be":8481,"grite":8482,"ĠlatÃ©ns":8483,"ĠPrince":8484,"Ġdvize":8485,"Ġmambornance":8486,"ĠMoritan":8487,"Ġbistoke":8488,"ĠdÃ®j":8489,"elange":8490,"Ġrossete":8491,"Ġportraits":8492,"ĠbardouxhÃ®":8493,"ĠsÃ´rti":8494,"ĠdisbÃ¥tchÃ®":8495,"ĠtchivÃ¥":8496,"Franwal":8497,"ĠLibrÃ¥mont":8498,"lumagne":8499,"undsen":8500,"Ġagaesse":8501,"Ġeruni":8502,"Ġdispiert":8503,"Ratourneures":8504,"Ġinsekes":8505,"ĠttÃ¥toÃ»":8506,"Ġtaessons":8507,"ĠtchaptrÃª":8508,"Ġdocumint":8509,"ĠHongreye":8510,"ĠbierdjÃ®":8511,"Ġforveyou":8512,"Ġotonome":8513,"Ġstatut":8514,"Ġmodiene":8515,"ĠdjindÃ¥res":8516,"ethier":8517,"ĠHolande":8518,"Ġaccidint":8519,"ĠProvince":8520,"Ġreyussi":8521,"ĠocÃ¥zion":8522,"ĠÃ¥rmenyin":8523,"ĠahÃ¥yant":8524,"ĠChimai":8525,"WaitÃ®z":8526,"ĠHitler":8527,"ĠInstitut":8528,"Maladeyes":8529,"Ġmnujh":8530,"ĠrnetyÃ®":8531,"Ġcraheas":8532,"ĠDjodogne":8533,"ĠPÃ©trez":8534,"1280":8535,":/":8536,"Ac":8537,"Ad":8538,"Amon":8539,"Aprume":8540,"Be":8541,"BwÃ¨s":8542,"Col":8543,"Cla":8544,"Car":8545,"Ciste":8546,"CÃ¥rire":8547,"EzÃ¨s":8548,"EplaeÃ§mint":8549,"Fal":8550,"Hen":8551,"Kitaeyaedje":8552,"Lin":8553,"Mon":8554,"MÃ¥rtÃ©n":8555,"Ossu":8556,"Plake":8557,"Sh":8558,"Tou":8559,"Vey":8560,"Walon":8561,"akes":8562,"awaire":8563,"beu":8564,"bit":8565,"bru":8566,"cal":8567,"cante":8568,"dran":8569,"dÃ®s":8570,"drÃ®":8571,"dure":8572,"fs":8573,"fal":8574,"fel":8575,"fla":8576,"fic":8577,"gro":8578,"gard":8579,"glÃ®":8580,"gique":8581,"hn":8582,"hel":8583,"ji":8584,"jes":8585,"ky":8586,"lus":8587,"mac":8588,"non":8589,"nic":8590,"nrece":8591,"nÃ¥d":8592,"nberg":8593,"ografike":8594,"rdjeye":8595,"su":8596,"sit":8597,"tini":8598,"uel":8599,"vÃ´":8600,"winme":8601,"yÃ¥ve":8602,"Ð²":8603,"Ðµ":8604,"Ð¸":8605,"Ġ55":8606,"Ġdnant":8607,"Ġdaegne":8608,"Ġlene":8609,"onÃ©":8610,"ĠsÃ©s":8611,"Ġsuz":8612,"Ġsbar":8613,"Ġpes":8614,"Ġpwez":8615,"ĠeÃ»":8616,"Ġevier":8617,"Ġcond":8618,"Ġcotes":8619,"ĠcÃ´de":8620,"Ġcviers":8621,"Ã©de":8622,"andje":8623,"Ġdilou":8624,"tete":8625,"Ã®te":8626,"Ġtat":8627,"Ġtinme":8628,"Ġtor":8629,"Ġtnou":8630,"ĠtoÃ»s":8631,"Ġtombes":8632,"Ġttossu":8633,"reÃ»":8634,"djaedje":8635,"djeus":8636,"djist":8637,"yea":8638,"Ġfle":8639,"Ġfreut":8640,"Ġfotche":8641,"Ġbyin":8642,"Ġbeles":8643,"Ġblame":8644,"ĠvÃ»":8645,"Ġvwele":8646,"Ġvloz":8647,"Ġnapea":8648,"ĠrwÃ¨s":8649,"Ġrmont":8650,"Ġrarin":8651,"Ġrzultat":8652,"ael":8653,"mele":8654,"Ġetour":8655,"ssin":8656,"len":8657,"ito":8658,"itit":8659,"Ġcoisse":8660,"Ġcoks":8661,"Ġcosh":8662,"Ġcoign":8663,"Ġpoere":8664,"Ġpowete":8665,"Ġpoeres":8666,"alaedje":8667,"alis":8668,"Ġlibes":8669,"antinne":8670,"Ġdjen":8671,"Ġdjave":8672,"Ġenerdjeye":8673,"Ġavinte":8674,"rovin":8675,"ria":8676,"riz":8677,"jha":8678,"Ã»li":8679,"Ã»ler":8680,"etÃ©s":8681,"ĠgÃ¥y":8682,"ĠgÃ¥res":8683,"ĠsoÃ§":8684,"Ġsopo":8685,"ush":8686,"cen":8687,"Ġtchants":8688,"Ġtchike":8689,"Ġtchuze":8690,"Ġtchmins":8691,"stindaedje":8692,"olin":8693,"ataedje":8694,"atifs":8695,"rasse":8696,"wea":8697,"weyes":8698,"laires":8699,"ĠMac":8700,"rane":8701,"randje":8702,"rances":8703,"ĠwÃ¥s":8704,"ampÃ©":8705,"ĠDic":8706,"Ġlazer":8707,"Ġoteurs":8708,"Ġstou":8709,"Ġstofe":8710,"ĠstÃ¥rÃ©":8711,"Ġalom":8712,"Ġalcol":8713,"ĠBin":8714,"ĠBur":8715,"ĠBaud":8716,"ĠBulg":8717,"cisse":8718,"ĠCre":8719,"ĠCro":8720,"ĠClu":8721,"ĠContes":8722,"ĠCezÃ¥r":8723,"asteure":8724,"pereur":8725,"ĠSes":8726,"ĠSte":8727,"ĠSfas":8728,"Ġpratikes":8729,"ireye":8730,"Ġhote":8731,"Ġhay":8732,"ĠApol":8733,"ĠAug":8734,"andÃ¥rd":8735,"prumÃ®":8736,"gnive":8737,"ord":8738,"lisse":8739,"Ġrilo":8740,"ĠFEW":8741,"ĠFÃ¥mene":8742,"Ġtoets":8743,"Ġ1925":8744,"Ġ1927":8745,"Ġ1937":8746,"Ġ1946":8747,"Ġ1986":8748,"Ġ1962":8749,"Ġ1982":8750,"Ġrasson":8751,"ĠmÃ¥v":8752,"Ġmatem":8753,"essin":8754,"tiene":8755,"Ġunike":8756,"Ġanal":8757,"ĠTuzance":8758,"Ġfoit":8759,"ĠfoitÃ¨s":8760,"Ġcwin":8761,"Ġcwire":8762,"ĠWÃ®ne":8763,"Ġtroye":8764,"Ġdivoir":8765,"Ġdivinltins":8766,"Ġcier":8767,"Ġciga":8768,"Ġrediv":8769,"uret":8770,"urent":8771,"ĠETA":8772,"ĠNÃ®":8773,"ener":8774,"ĠJosÃ©":8775,"ĠsayÃ¨t":8776,"Ġsadju":8777,"uzes":8778,"uzions":8779,"Ġfiv":8780,"ĠfiyÃ®":8781,"Ġfiers":8782,"ĠspÃ¥r":8783,"Ġspotche":8784,"ouwÃªyes":8785,"Ġbag":8786,"ĠMape":8787,"ĠMaworis":8788,"yixhaedje":8789,"ĠIV":8790,"ĠIye":8791,"ĠInd":8792,"ĠcÃ¥zÃªye":8793,"jhele":8794,"Ġschit":8795,"Ġscheure":8796,"Ġschoume":8797,"Ġbouxh":8798,"Ġacma":8799,"ĠVal":8800,"ĠVie":8801,"Ġaduz":8802,"ĠWalone":8803,"ĠÃ¥rzeye":8804,"Ġwap":8805,"Ġprofiter":8806,"Ġlondi":8807,"ĠÃ®t":8808,"poleyon":8809,"illon":8810,"Ġfrouma":8811,"Ġfritches":8812,"Ġdveres":8813,"Ġmwaist":8814,"Ġmwaiye":8815,"ĠdjibÃ®":8816,"Ġcomuf":8817,"ĠmoustÃ®":8818,"estÃ©":8819,"Ġdjudje":8820,"Ġdjudi":8821,"zogne":8822,"ĠlomÃ¨t":8823,"Ġleccion":8824,"Ġatomike":8825,"iyon":8826,"iyan":8827,"Ġpeme":8828,"Ġpeze":8829,"ĠpexhÃ®":8830,"Ġcroye":8831,"Ġgad":8832,"PocwÃ¨":8833,"Ġcorespond":8834,"ferince":8835,"ulÃ®":8836,"Ġplaye":8837,"ĠpÃ´z":8838,"ixhÃ©nt":8839,"Ġmarone":8840,"ĠmaryÃ®s":8841,"Ġ180":8842,"ĠquÃ¨":8843,"ĠquÃ«":8844,"ĠsÃ¥f":8845,"ĠsÃ¥ce":8846,"ĠsÃ¥reu":8847,"ustin":8848,"Ġguer":8849,"Ġfagnes":8850,"Ġcwatre":8851,"Ġcrexhaedje":8852,"Ġsito":8853,"Ã¢yes":8854,"Ġcriti":8855,"ĠPaquet":8856,"Ãħd":8857,"Ġsina":8858,"Ġsiner":8859,"ĠAlcoran":8860,"ĠdinÃ¨t":8861,"ĠtcheryÃ®":8862,"ĠdiscÃ´p":8863,"Ġhoub":8864,"Ġhouke":8865,"empereur":8866,"ĠBass":8867,"2003":8868,"ĠrivnÃ¨t":8869,"Ġsiermint":8870,"Ġ300":8871,"Ġpaltot":8872,"ĠfÃ¥tchÃ®":8873,"Ġfameuse":8874,"Ġramons":8875,"roÃ»s":8876,"Ġork":8877,"Ġxhame":8878,"Ġtriy":8879,"Ġtripe":8880,"bordjwÃ¨s":8881,"ĠLaurent":8882,"Ġdso":8883,"ĠassaetchÃ®":8884,"ĠDewandelaer":8885,"Ġprovinces":8886,"ĠmwintÃ¨s":8887,"Ġsouc":8888,"ĠInde":8889,"Ġinglesse":8890,"Ġtouwe":8891,"ĠvinÃ©nt":8892,"Ġcrawi":8893,"ĠAng":8894,"ĠAnver":8895,"Ġpoliticmint":8896,"ĠpolitikÃ®":8897,"ĠpititÃ¨s":8898,"Ġtaxh":8899,"ĠsetchÃ¨s":8900,"ĠcrÃ¥ne":8901,"Ġdisfinse":8902,"ĠZivem":8903,"ĠsÃ´dÃ¥r":8904,"ĠcÃ©nkinme":8905,"Ġbanke":8906,"pitite":8907,"ĠpinsÃªyes":8908,"Ġmedaye":8909,"ĠvÃ©nrdi":8910,"Ġdjaenes":8911,"Ġmagnaedje":8912,"Ġdiyacr":8913,"Ġpoys":8914,"Ġuzances":8915,"Ġcrexhnut":8916,"ĠtchÃ´dÃ¨s":8917,"ĠpoirtÃ©":8918,"ĠpoirtÃ©ve":8919,"Ġrascode":8920,"Ġrascovri":8921,"Ġpriyesses":8922,"Ġesplike":8923,"Ġtchimikes":8924,"Ġdimane":8925,"Ġlokes":8926,"ĠÃ©ndjolikes":8927,"Ġrouf":8928,"rosoft":8929,"Ġwallons":8930,"Ġstudias":8931,"ĠcriyÃ®":8932,"shijh":8933,"Ġshuveus":8934,"Ġcroeyance":8935,"ĠyÃ¨sse":8936,"ĠcotoÃ»":8937,"ĠScrinÃ®":8938,"ĠhÃ¥yner":8939,"ĠvÃ´ye":8940,"Ġescour":8941,"zindj":8942,"Ġbiyo":8943,"Ġbiyolodjike":8944,"Ġrashon":8945,"ĠsiervÃ©nt":8946,"frwÃ¨":8947,"Ġglae":8948,"Ġantolodjeyes":8949,"Ġaskepiaedje":8950,"Ġcloke":8951,"ĠPologne":8952,"ĠTchÃ¥rlukin":8953,"ĠTchÃ¥rlumagne":8954,"Ġhopea":8955,"ĠRenard":8956,"Ġveterin":8957,"Ġrwaitants":8958,"Ġsurface":8959,"ĠtchminÃªye":8960,"imblÃªye":8961,"Ġheyes":8962,"Ġdivintrinnes":8963,"Ġtelevuzion":8964,"Ġelectron":8965,"Ġpwet":8966,"Ġcivils":8967,"Ġceke":8968,"Ġcekes":8969,"ĠhertchÃ®":8970,"ĠLuk":8971,"ĠsoÃ»mint":8972,"Ġpublike":8973,"Ãħrvier":8974,"Ġdrouke":8975,"Ġpriyires":8976,"Ġcronzo":8977,"ĠsÃ»ne":8978,"ĠsÃ»ti":8979,"Ġtransli":8980,"ĠWater":8981,"Prindoz":8982,"ignies":8983,"Ġdimander":8984,"Ġoperance":8985,"Ġrefoir":8986,"ĠLinÃ¥d":8987,"Ġmuzulman":8988,"Ġcastiyan":8989,"ĠcamaerÃ¥des":8990,"Ġdiyalectolodjisses":8991,"Ġsintimint":8992,"ĠrascrÃ¥wÃ©s":8993,"ĠViyÃ©":8994,"ĠViyance":8995,"Ġpormoenner":8996,"ĠeternÃ¥cionÃ¥le":8997,"Ġboyea":8998,"Ġsinonimes":8999,"ĠmirÃ¥ke":9000,"ĠNicolai":9001,"ĠaprestÃªye":9002,"ĠraecinÃªye":9003,"ĠnormÃ¥le":9004,"ĠriÃ§Ã»t":9005,"ĠmÃ¥lureus":9006,"ĠRweyÃ¥me":9007,"ĠEvandjÃ®le":9008,"Ġekipes":9009,"Ġlivret":9010,"Ġombrire":9011,"Ġrcwereus":9012,"Ġhouyires":9013,"ĠpetchÃ®s":9014,"Ġsimpes":9015,"ĠspÃ¥ce":9016,"ĠâĤ¬":9017,"ĠstofÃ©":9018,"ĠitÃ¥lyin":9019,"Louke":9020,"ĠmÃ´nÃ®":9021,"Ġnouzome":9022,"gnolet":9023,"ĠvexhÃ¥d":9024,"ĠCatrene":9025,"Ġmartchandijhes":9026,"Ġprotestants":9027,"Lucyin":9028,"MÃ©diaedje":9029,"Mouze":9030,"ĠLeyon":9031,"ĠacoÃ»tchÃ®":9032,"ĠapontyÃ®":9033,"ĠÃ¥bussons":9034,"ĠDouccala":9035,"ĠaloyÃ®s":9036,"ĠSimwÃ¨s":9037,"ĠNÃ¥winne":9038,"ĠindjÃ©n":9039,"Joseph":9040,"Ġmunute":9041,"Ġburton":9042,"Ġlikens":9043,"Ġtchestur":9044,"ĠGabriyel":9045,"ĠricmincÃ®":9046,"Ġrafoircixhante":9047,"Industreyes":9048,"Ġindepind":9049,"ĠCanada":9050,"ĠpÃ¥lmÃ®":9051,"ĠatÃ´tchance":9052,"Ġareyoplan":9053,"Ġpacyince":9054,"ĠMicrosoft":9055,"ĠFalachas":9056,"paitchance":9057,"ĠUCW":9058,"Ġcintimetes":9059,"ĠinfÃ´rmatike":9060,"ttp":9061,"ĠLumumba":9062,"ÃĶtmint":9063,"ĠClub":9064,"ĠSfasie":9065,"ĠcomufÃ¥t":9066,"1100":9067,"1150":9068,"1190":9069,"1160":9070,"1140":9071,"1240":9072,"1170":9073,"1130":9074,"1270":9075,"1230":9076,"1290":9077,"1260":9078,"2100":9079,"2150":9080,"2250":9081,"2190":9082,"2180":9083,"2160":9084,"2140":9085,"2240":9086,"2170":9087,"2130":9088,"2270":9089,"2280":9090,"2230":9091,"2290":9092,"2260":9093,"Bon":9094,"Bru":9095,"Cat":9096,"CÃ¥ze":9097,"Evenmints":9098,"FÃ¥":9099,"Grand":9100,"Han":9101,"Ham":9102,"LÃ¥vÃ¥":9103,"NR":9104,"Ner":9105,"Or":9106,"St":9107,"TB":9108,"Troes":9109,"Va":9110,"ach":9111,"ayi":9112,"bole":9113,"blin":9114,"blou":9115,"ehÃ¥yaedje":9116,"fier":9117,"gÃ©":9118,"got":9119,"hal":9120,"hai":9121,"honteus":9122,"ix":9123,"loÃ»":9124,"lÃ¥d":9125,"lÃ¥te":9126,"nonne":9127,"pÃ¨t":9128,"peure":9129,"rant":9130,"sou":9131,"swÃ¨s":9132,"ski":9133,"taedjes":9134,"tance":9135,"uci":9136,"ules":9137,"veut":9138,"woe":9139,"xi":9140,"yote":9141,"Ê¾":9142,"ÙĬ":9143,"Ġ70":9144,"Ġ48":9145,"Ġ90":9146,"Ġ41":9147,"Ġ''":9148,"ĠdrÃ¥":9149,"Ġdama":9150,"ĠlÃ»":9151,"onveye":9152,"Ġamet":9153,"ĠassÃ®":9154,"Ġarindj":9155,"Ġste":9156,"Ġske":9157,"Ġsul":9158,"Ġsints":9159,"ĠsÃ»te":9160,"Ġsminces":9161,"Ġpete":9162,"Ġpans":9163,"Ġponte":9164,"Ġero":9165,"Ġcf":9166,"Ġctch":9167,"Ã¥bes":9168,"ouwe":9169,"tele":9170,"Ġmis":9171,"Ġmantches":9172,"ĠmÃ®trinne":9173,"Ġtac":9174,"ĠtÃ»t":9175,"Ġtaye":9176,"Ġtomb":9177,"Ġtaetche":9178,"Ġtort":9179,"Ã¨lle":9180,"Ã¨ge":9181,"djÃ¥z":9182,"Ġkg":9183,"Ġku":9184,"ĠfÃ´res":9185,"Ġbir":9186,"Ġbene":9187,"ĠbÃ¥d":9188,"ĠvÃ¥r":9189,"Ġrp":9190,"Ġrand":9191,"Ġrmer":9192,"Ġrprez":9193,"ĠrÃ»sses":9194,"ĠespÃ¥":9195,"Ã©nreut":9196,"meteut":9197,"Ġetot":9198,"Ġetrin":9199,"ssetes":9200,"Ġcovr":9201,"Ġpowinme":9202,"als":9203,"alÃ©s":9204,"alta":9205,"Ġdoct":9206,"Ġaveus":9207,"rome":9208,"rima":9209,"jhÃ¨t":9210,"Ã»se":9211,"ĠÃ¥we":9212,"eto":9213,"Ġgrijh":9214,"ĠgrÃ©":9215,"Ġgland":9216,"Ġgrijhe":9217,"Ġparexhe":9218,"Ġsoey":9219,"xhowe":9220,"wai":9221,"ken":9222,"kenes":9223,"Ġtchm":9224,"Ġtchan":9225,"Ġtchikes":9226,"Ġtchets":9227,"Ġtchocol":9228,"stÃ©s":9229,"strer":9230,"irÃ©":9231,"iront":9232,"Ġ\").":9233,"1995":9234,"olÃ©":9235,"utes":9236,"utrou":9237,"ontÃªye":9238,"atwere":9239,"osa":9240,"2010":9241,"lasses":9242,"ĠMet":9243,"ĠMuzÃªye":9244,"amon":9245,"amper":9246,"eusÃ¨s":9247,"ĠDinltins":9248,"ĠDunker":9249,"Ġladvins":9250,"ĠLam":9251,"ĠLempereur":9252,"Ġomon":9253,"aco":9254,"Ġstitche":9255,"ĠstÃ¥ves":9256,"ĠBri":9257,"ĠBob":9258,"ĠBatisse":9259,"cieuse":9260,"cixhant":9261,"ĠCas":9262,"ĠCour":9263,"ĠCap":9264,"ĠCong":9265,"ĠCast":9266,"dizo":9267,"ourner":9268,"ĠSpÃ¥":9269,"ĠprÃ´zes":9270,"ireyes":9271,"Ġhesse":9272,"Ġheure":9273,"Ġhiner":9274,"gnÃªye":9275,"ĠPond":9276,"ĠPlake":9277,"omic":9278,"Ġdisbr":9279,"ork":9280,"urant":9281,"bea":9282,"liam":9283,"Ġsconte":9284,"Ġrimeas":9285,"ĠFo":9286,"ĠFÃ¥":9287,"Ġ1928":9288,"Ġ1948":9289,"Ġ1922":9290,"Ġ1921":9291,"Ġ1969":9292,"Ġ1983":9293,"Ġ1959":9294,"Ġ1961":9295,"Ġ1972":9296,"Ġcap":9297,"Ġcach":9298,"Ġcaro":9299,"Ġrape":9300,"ĠmÃ¥lÃ¨s":9301,"ĠmÃ¥ha":9302,"Ġmareye":9303,"ĠmakÃªye":9304,"essi":9305,"tia":9306,"ĠRu":9307,"ĠRam":9308,"ĠudonbÃ©n":9309,"ĠGÃ¥le":9310,"ĠGob":9311,"ĠLim":9312,"ĠLiban":9313,"ĠTe":9314,"ĠTo":9315,"ĠTay":9316,"loke":9317,"ĠcwitÃ©":9318,"umes":9319,"umire":9320,"Ġtromp":9321,"xhene":9322,"Ġrezi":9323,"Ġrepet":9324,"Ġvoci":9325,"ĠHesta":9326,"ĠEn":9327,"ĠEter":9328,"ĠEug":9329,"Djer":9330,"DjÃ¥ke":9331,"Ġbocse":9332,"icter":9333,"Ġvaila":9334,"nia":9335,"Ġbiyets":9336,"Ġbidons":9337,"Ġ2011":9338,"ĠfieÃ»ve":9339,"Ġspin":9340,"ĠspitÃ©":9341,"Ġbass":9342,"Ġbara":9343,"Ã´rs":9344,"ĠDjule":9345,"Ġenonde":9346,"idÃ®s":9347,"Ã¥ts":9348,"Ġschoices":9349,"ĠÃ«":9350,"ĠpÃ¥ters":9351,"Ġacla":9352,"Ġacert":9353,"Ġacademeye":9354,"Ġadresse":9355,"vintrin":9356,"quar":9357,"Ġaske":9358,"Ġaspo":9359,"Ġaspit":9360,"ĠveyÃ¨t":9361,"ĠveyÃ¥ve":9362,"Ġfoirts":9363,"gui":9364,"ĠpassÃªyes":9365,"Ġpassion":9366,"Ġwaches":9367,"Ġlonmint":9368,"Ġtiy":9369,"ilÃ®":9370,"ĠdvÃ©nrÃ¨":9371,"Ġroyinne":9372,"Ġza":9373,"Ġzero":9374,"itchÃ®s":9375,"Ġmoud":9376,"apes":9377,"ĠvolÃ¨t":9378,"Ġloma":9379,"Ġleg":9380,"able":9381,"Ġpelete":9382,"Sipotaedje":9383,"Ġcroeye":9384,"Ġgayet":9385,"ĠOuc":9386,"ĠOignies":9387,"oumi":9388,"Ġamou":9389,"Ġamuz":9390,"Ġmannet":9391,"Ġtchampete":9392,"ĠtchamossÃ®":9393,"Ġplatene":9394,"Ġendaler":9395,"ĠpÃ´vÃ¨s":9396,"ĠarivÃ©ve":9397,"inea":9398,"ĠsÃ¥jhons":9399,"Ġraspe":9400,"ziaux":9401,"Ġtrint":9402,"Ġtronn":9403,"Ġtrinner":9404,"Ġgue":9405,"Ġpormoenne":9406,"Ġportu":9407,"Ġpice":9408,"Ġpidjons":9409,"leuru":9410,"bass":9411,"basti":9412,"Ġpardon":9413,"Ġcreve":9414,"Ġmoennance":9415,"moneye":9416,"Ã¢dje":9417,"Ġromins":9418,"Ã¥ldimint":9419,"ĠÃħs":9420,"Ġconv":9421,"ĠcondjÃ®":9422,"Ġ1200":9423,"Ġcontro":9424,"ĠcontrÃªye":9425,"Ġsinnes":9426,"ĠserÃ©nt":9427,"ĠdinÃªye":9428,"Ġtcheri":9429,"Ġtraw":9430,"ĠtrawÃªye":9431,"ĠsaetchÃ®s":9432,"imbere":9433,"Ġlongowe":9434,"Ġclint":9435,"Ġclotch":9436,"ĠclÃ´re":9437,"Ġhouyeus":9438,"emi":9439,"Ġcher":9440,"ĠratournÃªye":9441,"Ġpadzeu":9442,"Ġdjouwnut":9443,"Ġaron":9444,"ĠaraedjÃ®":9445,"Ġrivneut":9446,"Ġmuzeure":9447,"Ġorgane":9448,"Ġeplaida":9449,"Ġfijheu":9450,"Ġfijhant":9451,"Ġmeskene":9452,"ĠtchÃ´dire":9453,"ĠFrancs":9454,"Ġnarene":9455,"Ġemil":9456,"Ġemission":9457,"leuve":9458,"Ġrima":9459,"Ġrimes":9460,"dob":9461,"Ġvoyaedj":9462,"ĠtÃ©mint":9463,"Ġrisp":9464,"Ġsipit":9465,"ĠsipoÃ»le":9466,"Ġdjha":9467,"ĠeterÃ©":9468,"ateures":9469,"Ġvina":9470,"hieu":9471,"Ġcatalan":9472,"Ġhagne":9473,"ĠhagnÃ®":9474,"ĠHenry":9475,"ĠshoflÃ©ve":9476,"ĠboutÃ©nt":9477,"Ġsetchresse":9478,"Ġpermet":9479,"Ġperio":9480,"ĠMoureau":9481,"ĠcrÃ¥mi":9482,"Ġmoslim":9483,"Ġbateme":9484,"Ġcostume":9485,"Ġringne":9486,"Ġrindjeyes":9487,"Ġredji":9488,"Ġvaleut":9489,"Ġvizu":9490,"Ġvizon":9491,"Ġ600":9492,"ĠcÃ¥tes":9493,"Ġjus":9494,"Ġgrae":9495,"Ġgripe":9496,"Ġtchaf":9497,"Ġmagnive":9498,"honnaedje":9499,"Ġmaria":9500,"Ġmariaedjes":9501,"Ġedoir":9502,"ĠGillain":9503,"Ġwaernu":9504,"Ġbruts":9505,"Ouy":9506,"Ġrexhnut":9507,"Ġegzimpes":9508,"ĠstoelÃ®":9509,"lotÃªye":9510,"Ġcmons":9511,"ĠpoirtÃ¨t":9512,"Ġprinjhe":9513,"teuse":9514,"ĠMignolet":9515,"csike":9516,"Ġtchimijhe":9517,"ĠtchiminÃªye":9518,"ampÃªye":9519,"Ġleya":9520,"Ġleyant":9521,"ĠThor":9522,"ĠbetchfessÃ®s":9523,"ĠmÃ©de":9524,"Ġcrustinne":9525,"Ġmachines":9526,"Ġpondeu":9527,"ĠaclevÃ©":9528,"Quand":9529,"ĠboÃ»kete":9530,"ermale":9531,"Ġvijhene":9532,"Ġdislaxh":9533,"ĠrascrÃ¥wÃªye":9534,"Ġflaminds":9535,"ĠsÃ¥rÃ¨":9536,"bly":9537,"Ġfonet":9538,"Ġcodjowaedjes":9539,"ĠegzistÃ©ve":9540,"Marie":9541,"Ġtchetoeres":9542,"Ġradmint":9543,"Ġcontinint":9544,"Ġshuveut":9545,"Ġdrap":9546,"Ġronds":9547,"Ġbroke":9548,"Ġmicop":9549,"Ġfranwal":9550,"ĠPrumÃ®":9551,"Ġbedot":9552,"ĠBovegne":9553,"Ġbressene":9554,"Ġaskepieu":9555,"Ġschayes":9556,"Ġritchesse":9557,"Ġcoixheure":9558,"ĠcerÃ©":9559,"ĠhossÃ®":9560,"ĠÃ´tmint":9561,"ĠgamÃ©ns":9562,"Ġravize":9563,"Ġkinoxhance":9564,"Ġdjaloz":9565,"Ġhepe":9566,"ĠNoere":9567,"ĠcrapÃ¥des":9568,"ĠtÃ¥vleas":9569,"Ġkeute":9570,"Ġcabu":9571,"ĠacsegnÃ®":9572,"Ġpezants":9573,"ĠsinglÃ©s":9574,"ĠsingulÃ®":9575,"Ġtchesseus":9576,"Ġapoite":9577,"Ġcomince":9578,"Ġomrin":9579,"Ġristitch":9580,"ĠristitchÃ®":9581,"ĠparintÃªye":9582,"cÃ´ps":9583,"Ġimprimreye":9584,"ĠPÃ¥pe":9585,"Ġlames":9586,"Ġfoumires":9587,"Ġfilozofeye":9588,"frereye":9589,"Ġeconomikes":9590,"ĠdjermÃªye":9591,"ĠÃ¥jheye":9592,"illy":9593,"ĠMÃ¥rcin":9594,"ĠHoubert":9595,"ĠHouziaux":9596,"Ġpexheu":9597,"Ġinteress":9598,"Ġindustri":9599,"Espaitchance":9600,"Ġeredjist":9601,"Ġnamurwesse":9602,"ĠrilomÃ©":9603,"Ġmawori":9604,"Ġplatezak":9605,"Ġaweure":9606,"Ġebag":9607,"CÃ¥zaedje":9608,"Ġschipe":9609,"Ġsillabe":9610,"onnaire":9611,"Ġpayizans":9612,"Ġbeni":9613,"aladeye":9614,"ĠsÃ¥vadje":9615,"Ġrcwereu":9616,"Ġhouyire":9617,"ĠcoÃ»tÃ¨s":9618,"ĠDambly":9619,"Ġostaedjes":9620,"ĠSoudan":9621,"ĠNotru":9622,"Ġasblaw":9623,"ĠuniviersitÃ©":9624,"Ġdivizi":9625,"ĠAmundsen":9626,"ĠedvintÃ©":9627,"Ġtchoezixh":9628,"Ġrsintou":9629,"ParintÃªye":9630,"ĠromantÃ®":9631,"ĠlÃ©jhou":9632,"Ġstocaesse":9633,"Ġbactereyes":9634,"Ġcoxhetes":9635,"ĠreplaidÃ®":9636,"ĠectÃ¥res":9637,"ĠBlanke":9638,"Ġordinaire":9639,"ĠtchÃ¥faedje":9640,"Ġcopiutreces":9641,"ĠsohaitÃ®":9642,"ĠBertrand":9643,"ĠWiyÃ¥me":9644,"Ġmartchandeyes":9645,"Ġdjinti":9646,"ĠcapÃ¥be":9647,"ĠHavelange":9648,"Ġzoup":9649,"Ġmedias":9650,"prononcÃ®":9651,"Ġmission":9652,"Ġcouscou":9653,"ĠCitadele":9654,"ĠDjudla":9655,"ĠIrlande":9656,"Ġfroumaedje":9657,"Ġabwesson":9658,"ĠAlexis":9659,"Ġcanton":9660,"Ġplastik":9661,"sipata":9662,"ĠMoritanreye":9663,"://":9664,"glÃ®je":9665,"ĠWaterlÃ´":9666,"ĠsoeyÃ©nxhe":9667,"ĠportuguÃ¨s":9668,"500":9669,"AB":9670,"DoÃ»":9671,"Djhan":9672,"Foirt":9673,"IV":9674,"Leus":9675,"Mat":9676,"Mete":9677,"Mau":9678,"OU":9679,"PÃ´":9680,"Pla":9681,"Pad":9682,"Prod":9683,"Te":9684,"Ter":9685,"ah":9686,"bone":9687,"brou":9688,"cl":9689,"cq":9690,"cÃ©nt":9691,"cas":9692,"ctes":9693,"cnut":9694,"crire":9695,"dÃ»":9696,"dÃ¥r":9697,"dabÃ´rd":9698,"drÃ¥le":9699,"eb":9700,"feu":9701,"fran":9702,"fini":9703,"gons":9704,"gros":9705,"ho":9706,"hen":9707,"hof":9708,"icion":9709,"iket":9710,"kis":9711,"keure":9712,"lreye":9713,"laece":9714,"lotches":9715,"meu":9716,"mis":9717,"messe":9718,"mond":9719,"noz":9720,"nrÃ¨":9721,"oct":9722,"put":9723,"pat":9724,"part":9725,"rl":9726,"rÃ©n":9727,"sa":9728,"sk":9729,"tons":9730,"tÃªyes":9731,"tÃªy":9732,"urope":9733,"vÃ¨":9734,"vuzions":9735,"you":9736,"yaedjes":9737,"yÃ©s":9738,"yco":9739,"zet":9740,"§ÙĦ":9741,"Ã¼":9742,"ÑĢ":9743,"ĠÙ":9744,"Ġwe":9745,"Ġze":9746,"Ġ47":9747,"Ġdat":9748,"ĠdnÃªye":9749,"Ġdates":9750,"esnet":9751,"Ġlouw":9752,"inÃ®":9753,"inance":9754,"oneye":9755,"Ġay":9756,"Ġametou":9757,"Ġaweye":9758,"Ġsb":9759,"Ġsan":9760,"Ġsel":9761,"ĠsÃ¨t":9762,"Ġspr":9763,"Ġsba":9764,"Ġsonn":9765,"ĠsÃ«":9766,"ĠsÃ´rt":9767,"Ġpant":9768,"Ġput":9769,"Ġpous":9770,"ĠpÃ«":9771,"Ġperes":9772,"Ġerire":9773,"Ġerote":9774,"Ġcere":9775,"Ġcingue":9776,"ouk":9777,"oupe":9778,"ĠdiÃ¥le":9779,"Ġmus":9780,"Ġmons":9781,"Ġmourt":9782,"Ġts":9783,"ĠtÃªres":9784,"ref":9785,"Ã¨me":9786,"Ã¨gne":9787,"Ã¨nes":9788,"djor":9789,"djaedjes":9790,"djÃ¥le":9791,"djime":9792,"ĠkÃ©nt":9793,"Ġkeure":9794,"Ġkert":9795,"Ġkine":9796,"ĠfÃ®":9797,"ĠfitchÃ®":9798,"Ġfuret":9799,"chandi":9800,"ĠbÃ´me":9801,"ĠbÃ®re":9802,"Ġbombes":9803,"Ġvan":9804,"Ġvetes":9805,"Ġvul":9806,"ĠnÃ´r":9807,"ĠnouwÃªyes":9808,"ĠrÃ¨":9809,"Ġrne":9810,"Ġrus":9811,"Ġrtch":9812,"ĠrÃ´z":9813,"Ġoni":9814,"ern":9815,"erci":9816,"Ġdestin":9817,"ssus":9818,"ssire":9819,"Ġcosse":9820,"Ġcopene":9821,"Ġcofrereye":9822,"Ġpoeve":9823,"aleure":9824,"ĠdjÃ¥r":9825,"Ġdjwifs":9826,"Ġdjermale":9827,"intÃ©":9828,"Ġdocs":9829,"Ġaviz":9830,"Ġime":9831,"Ã»lÃ¨s":9832,"ĠÃ¥tÃ©":9833,"ĠÃ¥reus":9834,"Ġgou":9835,"Ġgot":9836,"Ġgrinne":9837,"Ġpareye":9838,"Ġsote":9839,"Ġsoper":9840,"Ġsoyu":9841,"ceme":9842,"deyes":9843,"Live":9844,"Ġsimb":9845,"keas":9846,"ĠtchoÃ»":9847,"Ġtchau":9848,"ĠtchÃ¥te":9849,"1918":9850,"1993":9851,"olike":9852,"sea":9853,"aticmint":9854,"ray":9855,"ramint":9856,"rard":9857,"Ã¥rta":9858,"ĠMalon":9859,"ĠMen":9860,"ĠMoz":9861,"ĠMamÃ©":9862,"ĠMÃ¥rtÃ©n":9863,"oÃ»tes":9864,"ĠwÃ¨":9865,"ĠDar":9866,"ĠDutcheye":9867,"ĠDethier":9868,"ĠDutrou":9869,"Ġlau":9870,"Ġlaxhe":9871,"ĠLon":9872,"ĠLan":9873,"ĠLer":9874,"ĠLesse":9875,"ĠLingaedje":9876,"Ġope":9877,"Ġossi":9878,"aci":9879,"Ġstinde":9880,"Ġstier":9881,"ĠBol":9882,"ĠBat":9883,"ĠBav":9884,"ĠBod":9885,"ĠCO":9886,"ĠCer":9887,"dite":9888,"ĠSan":9889,"ĠSam":9890,"ĠSene":9891,"ĠSab":9892,"ĠSNR":9893,"Ġplind":9894,"Ġhoz":9895,"Ġhante":9896,"Ġhong":9897,"ĠhÃ¥rdÃªyes":9898,"Ġhttp":9899,"ĠAlo":9900,"ĠAsteure":9901,"teraedje":9902,"ĠmorÃ¨t":9903,"eni":9904,"ĠPÃ®":9905,"ĠPec":9906,"Ġdistermin":9907,"viz":9908,"vistÃ©":9909,"Ġrib":9910,"Ġrifondowe":9911,"ĠFor":9912,"ĠFris":9913,"ĠFamile":9914,"Ġtoete":9915,"Ġ1978":9916,"Ġ1965":9917,"Ġ1966":9918,"Ġ1955":9919,"Ġ1985":9920,"Ġ1963":9921,"Ġ1954":9922,"Ġ1973":9923,"Ġcazer":9924,"Ġrari":9925,"Ġrawa":9926,"Ġrapr":9927,"Ġrapa":9928,"Ġragran":9929,"ĠmÃ¥va":9930,"ĠmÃ¥honteus":9931,"outes":9932,"Ġmake":9933,"essaedje":9934,"tisse":9935,"tikes":9936,"ĠRodje":9937,"ĠRotche":9938,"ĠRÃ»sses":9939,"ĠGram":9940,"ĠGod":9941,"Ġandje":9942,"ĠTer":9943,"ĠTit":9944,"ĠTom":9945,"ĠTomb":9946,"Ġfoet":9947,"ĠWas":9948,"Ġtropea":9949,"Ġdiveur":9950,"Ġreb":9951,"Ġren":9952,"Ġregu":9953,"Ġregl":9954,"Ġ**":9955,"Ġteze":9956,"ĠHour":9957,"ĠHier":9958,"ĠHost":9959,"ĠHolandÃ¨s":9960,"ĠEnd":9961,"ĠEgzim":9962,"ĠNÃ¥cion":9963,"Ġbosse":9964,"Ġboigne":9965,"ondaire":9966,"ondroz":9967,"ĠmetÃ¥":9968,"Ġsaw":9969,"Ġditrop":9970,"Ġbibioteke":9971,"minde":9972,"Ġniy":9973,"erer":9974,"Ġfiy":9975,"Ġfiesteye":9976,"Ġspp":9977,"ĠspÃ´res":9978,"Ġbasses":9979,"Ġbawete":9980,"Ġbarake":9981,"Ã´rbr":9982,"ĠMahy":9983,"ĠDjadi":9984,"ĠenimÃ¥":9985,"idÃ®":9986,"Ã¥tÃ®":9987,"ĠcÃ¥znut":9988,"Ġscher":9989,"Ġschene":9990,"Ġfrancesses":9991,"Ġacr":9992,"ĠacÃ®":9993,"Ġacoir":9994,"vintaedje":9995,"Ġeplae":9996,"Ġgrandeur":9997,"Ġveya":9998,"ĠbeatÃ©":9999,"Ġbezogne":10000,"auje":10001,"gueu":10002,"coreye":10003,"Ġevoyaedje":10004,"Ġprometou":10005,"Ġefouwaedje":10006,"Ġdvreut":10007,"Ġdvwer":10008,"Ġrogne":10009,"itcha":10010,"Ġcompli":10011,"Ġmouze":10012,"Ġratni":10013,"apÃ©":10014,"apinse":10015,"lani":10016,"ĠdjudjÃ®":10017,"Ġvoler":10018,"Ġleve":10019,"Ã¥dnut":10020,"Ġatouw":10021,"Ġbrantches":10022,"Ġpeas":10023,"verdea":10024,"SipÃ¥rdaedje":10025,"Ġdirecteur":10026,"ĠOs":10027,"ĠOli":10028,"ĠOÃ»te":10029,"ĠOlande":10030,"ĠOuw":10031,"Ġamo":10032,"ĠamontÃ©":10033,"Ġambass":10034,"ĠcorÃ¨t":10035,"Ġmanike":10036,"Ġmanoyes":10037,"Ġabuv":10038,"ulon":10039,"ulteure":10040,"Ġplait":10041,"ĠdjÃ¥zÃ¨t":10042,"ixhmint":10043,"Ġdroles":10044,"iveuzmint":10045,"ĠarivÃ¨t":10046,"Ġ1870":10047,"rumints":10048,"ĠsÃ¥mes":10049,"Ġeployive":10050,"Ġeploctaedje":10051,"zicion":10052,"ĠtrÃ©n":10053,"ĠtrwÃ¨s":10054,"ĠtrÃ»te":10055,"Ġsicolodjike":10056,"Ġveyeut":10057,"Ġfaye":10058,"ĠfayÃ©":10059,"mpont":10060,"ĠndalÃ©":10061,"ĠlÃ¥tchaedje":10062,"Ġsitofe":10063,"monak":10064,"ĠbondjoÃ»":10065,"Ã¢djes":10066,"Ã¢reÃ»t":10067,"ĠtournÃ¨t":10068,"Ġtournisse":10069,"ĠPara":10070,"ĠneyÃ®":10071,"pyÃ®s":10072,"Ġcondicions":10073,"Ġ120":10074,"Ġtecn":10075,"Ġcalote":10076,"ĠveÃ»":10077,"Ġtcherw":10078,"Ġdijheut":10079,"Ġdijheye":10080,"Ġtrake":10081,"Ġtraite":10082,"Ġrclame":10083,"ĠpÃ¥rtixhaedje":10084,"Ġsaetchot":10085,"ĠsaetchÃ¨t":10086,"teyenes":10087,"Ġclou":10088,"Ġclotche":10089,"Ġchasse":10090,"Ġricla":10091,"Ġaronde":10092,"2002":10093,"2009":10094,"Ġcoirna":10095,"ĠcwÃ¥rtÃ®s":10096,"gazete":10097,"ĠÃ¥dla":10098,"Ġ3000":10099,"moide":10100,"ĠrtoÃ»ne":10101,"Ġramasse":10102,"ĠChar":10103,"Ġfors":10104,"Ġforma":10105,"Ġfornai":10106,"ĠtchÃ¥sses":10107,"ĠtchÃ¥for":10108,"Ġprinda":10109,"ĠprindÃ©nt":10110,"ovin":10111,"aizer":10112,"Ġtrimp":10113,"ĠÃħrlon":10114,"Ġfijhoz":10115,"linaire":10116,"bia":10117,"ÃĪm":10118,"Ġteyoreye":10119,"woumet":10120,"Ġgrete":10121,"Ġgreks":10122,"Ġtuza":10123,"Ġtimbes":10124,"Ġassaetche":10125,"Ġsoune":10126,"cÃ´swÃ¨s":10127,"Ġtourisse":10128,"Ġpicsel":10129,"Ġwangn":10130,"Ġwangna":10131,"ĠYopÃ´l":10132,"ĠYalta":10133,"ĠYork":10134,"ĠintitÃ©":10135,"Ġetertini":10136,"Ġvinou":10137,"Ġvinant":10138,"Ġcrama":10139,"ĠAnloe":10140,"Ġtinr":10141,"ĠtinkyÃ®":10142,"Ġrfondeus":10143,"hignesse":10144,"Ġfroz":10145,"ĠMÃ¥jhon":10146,"Ġcatru":10147,"Ġcatoi":10148,"Ġhagnon":10149,"ĠshoflÃ©":10150,"ĠecwÃ¥r":10151,"Ãªymint":10152,"ĠsacrÃ©":10153,"ĠrprotchÃ®":10154,"Ġtaxhe":10155,"Ġpermetou":10156,"ĠrÃ¥jhons":10157,"ĠcrÃ¥n":10158,"ĠrÃ®lÃªyes":10159,"Ġdisfindou":10160,"ĠbinamÃ©":10161,"geois":10162,"Ġfiniesses":10163,"ĠrtrovÃ¨t":10164,"ĠcandjÃ¨t":10165,"Ġnindje":10166,"plome":10167,"ĠcintrÃ¥le":10168,"Ġtchawe":10169,"Ġpinses":10170,"Ġmecan":10171,"ĠdjaenÃ¨s":10172,"ĠmagnÃ¥ve":10173,"Ġrvowes":10174,"ĠbroÃ»lÃ©":10175,"Ġaddjecti":10176,"Ġuzaedjes":10177,"Ġwaeraxhe":10178,"Ġcrexhant":10179,"Ġrexheut":10180,"Ġatchteu":10181,"Ġaidants":10182,"diveus":10183,"Ġprincip":10184,"Ġsovnance":10185,"Ġcarbone":10186,"Ġricnoxhance":10187,"Ġricnoxhous":10188,"ĠprezintÃ©":10189,"ĠVera":10190,"Ġprofit":10191,"ĠlodjÃ®":10192,"Ġbrouy":10193,"ĠmÃ©di":10194,"ĠmÃ©diaedje":10195,"Ġvindeut":10196,"ĠoficÃ®s":10197,"Ġoficirs":10198,"ĠrlomÃªyÃ¨s":10199,"Ġstritch":10200,"Ġrouyot":10201,"Ġfrontires":10202,"aedjmint":10203,"ĠrindÃ¨t":10204,"ĠBiarin":10205,"ĠConsey":10206,"Ġrapoirts":10207,"ĠsfwaitÃ¨s":10208,"ĠraloyÃ®":10209,"ĠSarazins":10210,"Ġpelake":10211,"Ġfranke":10212,"Ġdanses":10213,"Ġerive":10214,"ĠWiki":10215,"ĠdimorÃ©ve":10216,"Ġrashid":10217,"uwÃ¥cion":10218,"Ġglwere":10219,"Ġritchesses":10220,"ancre":10221,"ĠnotÃ¥re":10222,"Ġtribus":10223,"Ġ1905":10224,"Ġspitron":10225,"Ġinflu":10226,"ĠrÃ§Ã»t":10227,"ĠspotÃ©s":10228,"Ġbaguer":10229,"Riprins":10230,"Ġrujhe":10231,"Ġcivile":10232,"grÃ¨s":10233,"grÃ©s":10234,"Ġaparexhe":10235,"ĠdzÃ´r":10236,"Ġpretch":10237,"Ġmzeures":10238,"Ġrfonde":10239,"ĠpayelÃ©":10240,"ĠBragard":10241,"Ġhalcot":10242,"ĠpubliyÃ®":10243,"ostik":10244,"ĠcomincÃ®":10245,"ĠedjalÃ©":10246,"Ġbordjoes":10247,"ĠBrouw":10248,"Ġvioloneu":10249,"ĠDjivÃªye":10250,"ĠacceptÃªye":10251,"ĠsouwÃªye":10252,"ĠplantÃ©":10253,"ĠamoennÃ©":10254,"ĠmilitÃ¥re":10255,"Ġpopulaire":10256,"Ġboevou":10257,"Ġboerler":10258,"Ġdringu":10259,"Ġoridjin":10260,"Ġoridjinne":10261,"ĠWiscons":10262,"Ġfilozof":10263,"Ġfilozofe":10264,"Ġbeton":10265,"ĠnÃ¥cionÃ¥le":10266,"Ġdjoker":10267,"Ġcastinne":10268,"cÃ©nk":10269,"Ġbatchs":10270,"ĠMasset":10271,"Ġdiyalectolodjike":10272,"Ġculturele":10273,"Ġgurze":10274,"Ġfena":10275,"Ġrwaiteye":10276,"ĠahivÃ©":10277,"ĠwÃ¥rni":10278,"Ġsinonime":10279,"Ġawiy":10280,"Ġrashiou":10281,"Ġemantchaedje":10282,"ĠnÃ»ton":10283,"Ġpoytreyes":10284,"Ġdizot":10285,"ĠØ§ÙĦ":10286,"Ġpayizaedje":10287,"ĠlapÃ©n":10288,"Ġmuzicyin":10289,"Ġprodujheu":10290,"FranÃ§":10291,"Ġnaturel":10292,"Ġlimodje":10293,"Ġvacances":10294,"Ġacopl":10295,"Ġasblawi":10296,"ĠMarcel":10297,"Ġdimorer":10298,"ĠAntolodjeye":10299,"ĠPÃ¥rlumint":10300,"ĠtchaptrÃªs":10301,"Ġloigne":10302,"Ġretour":10303,"Ġbactereye":10304,"Racourti":10305,"Ġsaeyeas":10306,"Ġolimpikes":10307,"Sicrijhaedje":10308,"Ġdjwif":10309,"ĠtchitchoÃ»le":10310,"ĠLÃ®dje":10311,"Ġtraeyin":10312,"Ġtournante":10313,"ĠresponsÃ¥ve":10314,"Ġraptitixhante":10315,"cwÃ¥rlante":10316,"Ġglawene":10317,"Ġtchesteas":10318,"ĠCayÃ©s":10319,"ĠtoirtchÃ®":10320,"Ġcahoute":10321,"Ġdistrujh":10322,"ĠbÃ¥kete":10323,"Ġdjaive":10324,"ĠsiÃ¨rvu":10325,"Ġvideyo":10326,"Ġhalene":10327,"ĠWallonie":10328,"Motoit":10329,"Plaeces":10330,"Ġsimpl":10331,"ĠsirÃ´pe":10332,"Ġoumeur":10333,"Ġuropeyinne":10334,"ĠTatÃ¥rs":10335,"ĠcwÃ¥reas":10336,"ĠWilliam":10337,"ĠAntoine":10338,"ĠadministrÃ¥cion":10339,"ĠdiccionairÃ®":10340,"Ġmashales":10341,"Sourdant":10342,"ĠTrouks":10343,"ĠtÃ®xhone":10344,"ĠecoraedjÃ®":10345,"Ġtchandeles":10346,"ĠSpayisses":10347,"ĠtocostÃ©":10348,"ĠzÃ¨ls":10349,"Ġyerb":10350,"ĠidintitÃ©":10351,"ĠmnujhÃ®":10352,"ĠcoignoÃ»":10353,"Ã»listÃ©":10354,"ĠalomÃ¥cion":10355,"Ġrediveuse":10356,"Ġfroumadje":10357,"ĠAnverse":10358,"Ġtaxhlete":10359,"ĠZivembork":10360,"Ġescourci":10361,"ĠrashonnÃ©":10362,"Ġpwetrene":10363,"Ġcronzoxhs":10364,"Brussele":10365,"NerÃ©n":10366,"TBF":10367,"Ġrprezinter":10368,"ĠespÃ¥ce":10369,"ĠaspoyÃ®":10370,"ĠOucrinne":10371,"Ġcouscousse":10372,"ĠPeclers":10373,"ĠFrisÃ©e":10374,"ĠDjadida":10375,"Ġcatoize":10376,"ĠWisconsin":10377,"Am":10378,"Avey":10379,"Bat":10380,"Cw":10381,"EN":10382,"EbÃ©n":10383,"Eglijhe":10384,"Enute":10385,"Fijhoz":10386,"ISBN":10387,"Jacques":10388,"KÃ®":10389,"NU":10390,"Na":10391,"RC":10392,"RI":10393,"SO":10394,"SU":10395,"Su":10396,"SpÃ¥rdaedje":10397,"The":10398,"VÃ©n":10399,"aus":10400,"asses":10401,"aki":10402,"adon":10403,"aker":10404,"aks":10405,"bet":10406,"bire":10407,"bures":10408,"cre":10409,"cel":10410,"cmint":10411,"cwe":10412,"cesse":10413,"cants":10414,"cans":10415,"cler":10416,"crÃ¨":10417,"dÃªye":10418,"droet":10419,"dujhance":10420,"davance":10421,"fins":10422,"gal":10423,"gur":10424,"gone":10425,"grand":10426,"hÃ®":10427,"hot":10428,"hem":10429,"iler":10430,"jp":10431,"keus":10432,"lwÃ¨":10433,"lires":10434,"leure":10435,"latÃ©n":10436,"lÃ¥de":10437,"mal":10438,"mwaisse":10439,"maladeye":10440,"nam":10441,"nÃ¥ve":10442,"naux":10443,"nÃ¥des":10444,"ossu":10445,"pins":10446,"peu":10447,"pard":10448,"qwÃ¨":10449,"ressÃ®":10450,"rÃªs":10451,"sÃ¨":10452,"sinte":10453,"tri":10454,"tÃ©ve":10455,"tante":10456,"tard":10457,"ue":10458,"uy":10459,"uvou":10460,"vinte":10461,"vini":10462,"ww":10463,"ym":10464,"yn":10465,"zans":10466,"zetes":10467,"zides":10468,"Ġx":10469,"Ġ75":10470,"Ġ36":10471,"Ġ39":10472,"Ġ250":10473,"Ġ42":10474,"Ġ71":10475,"Ġyesses":10476,"ĠdnÃ¨t":10477,"Ġdaler":10478,"Ġdlou":10479,"Ġdeurs":10480,"ĠdfoÃ»":10481,"Ġdurer":10482,"Ġdzindj":10483,"Ġlae":10484,"ĠlÃ¥r":10485,"Ġleur":10486,"Ġlodje":10487,"inre":10488,"inch":10489,"inri":10490,"inreces":10491,"once":10492,"onoxhe":10493,"Ġaessi":10494,"ĠpÃ¨":10495,"Ġpeur":10496,"ĠpÃ¢":10497,"ĠpÃ»s":10498,"Ġebert":10499,"Ġeroye":10500,"Ġeraire":10501,"Ġcout":10502,"ĠcrÃ®":10503,"Ġcpagneye":10504,"oure":10505,"anes":10506,"anse":10507,"Ġdisto":10508,"Ġdiplome":10509,"tez":10510,"Ġmm":10511,"Ġtayons":10512,"Ġtantea":10513,"ĠtÃ¥yes":10514,"rek":10515,"rel":10516,"Ã¨res":10517,"neÃ»ve":10518,"djot":10519,"djrece":10520,"djoye":10521,"djmints":10522,"Ġkeur":10523,"Ġkesse":10524,"Ġfesses":10525,"Ġfonte":10526,"Ġfotches":10527,"Ġfleuve":10528,"ĠblÃ©":10529,"Ġbourd":10530,"Ġbrac":10531,"Ġbombe":10532,"ĠbÃ¨d":10533,"Ġvesse":10534,"Ġvwete":10535,"Ġvindaedje":10536,"ĠvÃ¥ye":10537,"Ġnn":10538,"ĠnÃ»":10539,"Ġnotes":10540,"Ġrg":10541,"Ġrinte":10542,"Ġroz":10543,"Ġrantoele":10544,"ĠrÃ´zes":10545,"eustÃ©":10546,"aej":10547,"aeyÃ®":10548,"aenwÃ¨s":10549,"leve":10550,"itÃ¥re":10551,"Ã´ne":10552,"Ġesta":10553,"Ġesto":10554,"Ġcoc":10555,"Ġcoete":10556,"Ġcovi":10557,"Ġcovint":10558,"Ġcoib":10559,"Ġcocote":10560,"Ġcokea":10561,"Ġpole":10562,"Ġpomp":10563,"alÃ¨s":10564,"alif":10565,"anti":10566,"ĠdjÃ©":10567,"Ġdjale":10568,"Ġaval":10569,"Ġavoye":10570,"Ġavaler":10571,"elants":10572,"Ġixh":10573,"Ġidey":10574,"ĠirlandÃ¨s":10575,"riss":10576,"jhance":10577,"ĠÃ¥re":10578,"etche":10579,"Ġglo":10580,"ĠpayÃ®s":10581,"Ġpays":10582,"ĠsoyÃ®":10583,"Ġsoris":10584,"xhive":10585,"Ãªte":10586,"vez":10587,"vekes":10588,"vent":10589,"cenes":10590,"ĠsikepyÃ®":10591,"wale":10592,"ĠtchÃ¨":10593,"ssea":10594,"sselet":10595,"stan":10596,"stru":10597,"irou":10598,"1997":10599,"1992":10600,"olÃªye":10601,"uts":10602,"segne":10603,"osteure":10604,"raf":10605,"ĠMeu":10606,"ĠMos":10607,"ĠMam":10608,"ranci":10609,"Ã§reye":10610,"oÃ»ter":10611,"imom":10612,"ĠDeus":10613,"ĠDani":10614,"Ġlaver":10615,"ĠLÃ´":10616,"ĠLingaedjes":10617,"Ġstro":10618,"Ġstri":10619,"Ġstindou":10620,"Ġstram":10621,"Ġstala":10622,"ĠalÃ¨t":10623,"ĠBene":10624,"ĠBurt":10625,"ĠBÃ´han":10626,"ciÃ¥":10627,"cire":10628,"ĠCr":10629,"ĠCan":10630,"ĠCau":10631,"ĠCole":10632,"ĠCondroz":10633,"pece":10634,"diÃ¨":10635,"dike":10636,"dikes":10637,"ĠvikÃ©nt":10638,"ĠvikÃ©ve":10639,"ĠSor":10640,"Ġpronne":10641,"Ġprouve":10642,"Ġplon":10643,"Ġplats":10644,"Ġhene":10645,"Ġhesses":10646,"Ġhier":10647,"Ġhantche":10648,"ĠAss":10649,"ĠAma":10650,"ĠAmb":10651,"Ġmorance":10652,"ĠmoyinÃ¥dje":10653,"Ġmovmints":10654,"eyer":10655,"ens":10656,"gnrece":10657,"gniye":10658,"ĠPan":10659,"ĠPeu":10660,"ĠPort":10661,"ĠPiet":10662,"ĠPhilippe":10663,"omÃ©":10664,"omaedjes":10665,"omprindaedje":10666,"Ġdisdjo":10667,"orÃ©":10668,"orant":10669,"uraedje":10670,"urna":10671,"beau":10672,"lide":10673,"Ġscl":10674,"Ġscran":10675,"Ã¥zans":10676,"indeu":10677,"Ġrixh":10678,"Ġrive":10679,"Ġriwaite":10680,"Ġrimetou":10681,"ĠFosse":10682,"ĠFontinne":10683,"ĠFili":10684,"ĠFleuru":10685,"Ġ1933":10686,"Ġ1967":10687,"Ġ1987":10688,"Ġ1976":10689,"Ġ1971":10690,"Ġrafeye":10691,"Ġmoti":10692,"Ġmotrece":10693,"ĠmÃ¥la":10694,"ĠmÃ¥kes":10695,"ĠÃ¨wou":10696,"Ġouxhe":10697,"Ġmarok":10698,"Ġmakete":10699,"tixhaedje":10700,"ĠRap":10701,"ĠRiv":10702,"ĠRoy":10703,"ĠRdÃ»":10704,"Ġuro":10705,"ĠGlÃ©":10706,"ĠGust":10707,"ĠGÃ¥lwÃ¨s":10708,"ĠLis":10709,"ĠLive":10710,"ĠTs":10711,"ĠTche":10712,"ĠTib":10713,"ĠTrÃ´":10714,"Ġfoidje":10715,"lois":10716,"lope":10717,"Ġdater":10718,"Ġcie":10719,"Ġcil":10720,"Ġciers":10721,"Ġrep":10722,"Ġrezist":10723,"Ġreclo":10724,"Ġrepubli":10725,"ĠretrÃ´":10726,"rijheu":10727,"ansons":10728,"ĠHey":10729,"ĠHicter":10730,"ĠEm":10731,"ĠEli":10732,"ĠNov":10733,"Ġboc":10734,"Ġboh":10735,"Ġbok":10736,"Ġbolet":10737,"enez":10738,"ĠmetrÃ¨":10739,"Ġaprins":10740,"Ġsak":10741,"Ġsave":10742,"Ġbil":10743,"Ġbiyet":10744,"Ġpolu":10745,"Ġfives":10746,"ĠpÃ¥rÃ©n":10747,"ĠÃ¨nn":10748,"Ġmiers":10749,"Ġspan":10750,"Ġspitch":10751,"ĠspÃ´rts":10752,"ouwess":10753,"Ġbaye":10754,"Ġbague":10755,"ĠMay":10756,"ĠMaye":10757,"ĠMale":10758,"ĠMagrite":10759,"ĠDjilÃ®":10760,"idint":10761,"ĠImÃ¥dje":10762,"Ġschir":10763,"Ġschor":10764,"ĠschÃ´t":10765,"Ġbounes":10766,"Ġboubou":10767,"Ġboudisses":10768,"Ġbouyote":10769,"payis":10770,"parey":10771,"ĠpÃ¥te":10772,"Ġacpagn":10773,"ĠVon":10774,"ĠVand":10775,"ĠVil":10776,"Ġadvi":10777,"vintaedjes":10778,"Ġprumi":10779,"nÃ©ye":10780,"Ġasteme":10781,"Ġdez":10782,"rindje":10783,"ĠluÃ§on":10784,"kign":10785,"Ã»ts":10786,"ĠveyÃ©nt":10787,"ĠbefrwÃ¨":10788,"cop":10789,"cogne":10790,"copurade":10791,"ĠÃ¥rca":10792,"Ġpassaedjes":10793,"Ġprop":10794,"ĠÃ®pe":10795,"Ġtifin":10796,"ilin":10797,"Ġfrot":10798,"Ġdvinltins":10799,"pieuzmint":10800,"Ġroveye":10801,"Ġroede":10802,"Ġcomm":10803,"Ġcomission":10804,"ĠmougnÃ®":10805,"Ġvolont":10806,"Ġdmane":10807,"ĠlomÃ©nt":10808,"Ã¥skign":10809,"Ġlepes":10810,"ĠpÃ®ds":10811,"Ġatmos":10812,"Ġcrom":10813,"ĠcroxhÃ®":10814,"Ġdireus":10815,"Ġgaiy":10816,"Ġgamene":10817,"Ġapre":10818,"ĠOmer":10819,"ĠOfins":10820,"Ġgrope":10821,"Ġegzi":10822,"Ġami":10823,"ĠcorwaitÃ®":10824,"Ġmannes":10825,"Ġmannixh":10826,"avant":10827,"Ġaber":10828,"Ġabit":10829,"nadje":10830,"cta":10831,"Ġplatea":10832,"ĠdjÃ¥zÃ©nt":10833,"Ġracra":10834,"Ġracourti":10835,"Ġfjhaedje":10836,"Ġfjhoz":10837,"ĠTchantchÃ¨s":10838,"ĠTchonveye":10839,"ĠarivÃ©nt":10840,"rue":10841,"Ġeploynut":10842,"ustumint":10843,"Ġpier":10844,"Ġpiket":10845,"Ġpiker":10846,"ĠpiÃ¨r":10847,"olea":10848,"olet":10849,"olene":10850,"leures":10851,"utenberg":10852,"Ġcwat":10853,"ĠcrevÃ©":10854,"ĠlÃ¥djes":10855,"ĠsituwÃ¥cion":10856,"Ġseuve":10857,"Ã¢les":10858,"ĠtournÃ©ve":10859,"ĠUr":10860,"Ã´tyÃ®":10861,"oyou":10862,"Ġnet":10863,"Ãħdvins":10864,"aya":10865,"Ġsindic":10866,"ĠDiÃ¥le":10867,"mann":10868,"Ġveve":10869,"Ġvekes":10870,"oponimeye":10871,"odjo":10872,"Ġdijha":10873,"Ġtrawe":10874,"ĠtraitÃ©":10875,"ĠdiscÃ´pe":10876,"Ġsaetchs":10877,"Ġsaetchant":10878,"Ġsaetchaedje":10879,"dayes":10880,"daveye":10881,"Ġpouri":10882,"Ġpousse":10883,"ĠpoujhÃ®":10884,"ĠlongowÃ¨s":10885,"ĠcoÃ»ti":10886,"Ġhouz":10887,"cari":10888,"Ġratourneu":10889,"Ġdjouwaedje":10890,"ĠdjouwÃ¨t":10891,"2005":10892,"2007":10893,"Ġcoirs":10894,"Ġcoirdea":10895,"Ġrivnant":10896,"Ġrivnous":10897,"ĠcwÃ¥rts":10898,"gad":10899,"ĠBelvÃ¥":10900,"Ġ365":10901,"Ġbatire":10902,"strÃªye":10903,"Ã«ne":10904,"ĠtÃ®ce":10905,"ujhaedje":10906,"consene":10907,"Ġotor":10908,"Ġotob":10909,"Ġafla":10910,"Ġafront":10911,"Ġfeume":10912,"Ġxhin":10913,"Ġtriyan":10914,"Ġeplaidaedje":10915,"Dizo":10916,"issin":10917,"linnes":10918,"ĠLafontinne":10919,"Ġdschind":10920,"ĠFrancis":10921,"Ġteyolodjeye":10922,"ĠtuzÃ©":10923,"Ġtuzaedjes":10924,"cintaedje":10925,"Ġsavon":10926,"ĠnaÃ§":10927,"ĠassimblÃªye":10928,"Ġrimp":10929,"Ġrimar":10930,"dosses":10931,"Ġnuteye":10932,"Ġdjambon":10933,"ĠInte":10934,"ĠIndicatif":10935,"Ġtouma":10936,"ĠtÃ©l":10937,"Ġmonts":10938,"ĠcurÃªye":10939,"Ġcamion":10940,"Ġmwinre":10941,"ĠdjhÃ©nt":10942,"Ġduk":10943,"Ġseme":10944,"ĠseÃ»":10945,"Ġsepi":10946,"Ġsepou":10947,"rimb":10948,"ĠAndene":10949,"imÃ¥dje":10950,"ĠRedjon":10951,"ĠRedjime":10952,"ĠlÃ©ts":10953,"Ġboutnut":10954,"hagne":10955,"Ġmeyeuse":10956,"Ġ700":10957,"ĠcrÃ¥sse":10958,"Ġbateus":10959,"ĠZa":10960,"ĠsociÃ¥les":10961,"ĠsocietÃ©s":10962,"Ġprodure":10963,"Ġbanc":10964,"ĠBoussart":10965,"ĠtapÃ©ve":10966,"ĠtchantÃªye":10967,"ĠtchantÃ©nt":10968,"Ġtchantnut":10969,"ĠXIV":10970,"ĠXhignesse":10971,"bouter":10972,"dispu":10973,"Ġserer":10974,"Ġflor":10975,"ĠWallonne":10976,"Ġcintinne":10977,"Ġtchvirons":10978,"Ġastoker":10979,"Ġtchapi":10980,"ĠpinsÃªye":10981,"ĠpinsÃ©ve":10982,"ĠvÃ©nront":10983,"ĠÃ´rtografeye":10984,"ĠGuy":10985,"Ġdistinde":10986,"ĠGilles":10987,"ultan":10988,"ĠbrutyÃ®":10989,"âĢĿ,":10990,"Ġovroe":10991,"ĠrÃ´le":10992,"ĠJohn":10993,"ĠJoelants":10994,"Ġastaler":10995,"Ġastantche":10996,"ĠastalÃ©":10997,"ĠkimincÃ®":10998,"Ġsicrijhaedjes":10999,"Ġsicrijheuse":11000,"Ġspepieus":11001,"Ġrmimb":11002,"Ġfwaiye":11003,"ÃĶte":11004,"ĠfinÃ¨s":11005,"Ġpoirtant":11006,"Ġalmandes":11007,"Ġprincesse":11008,"Ġdmore":11009,"Ġsovni":11010,"Ġrascovrou":11011,"Ġcarcul":11012,"Ġtchaplet":11013,"ĠMiyin":11014,"Ġricnoxhowe":11015,"ĠbÃ¥b":11016,"ĠprofitÃ©":11017,"csisses":11018,"Ġmatire":11019,"ĠmÃ¥rdi":11020,"Ġsoeyexhe":11021,"ĠocupÃ©":11022,"Ġbrabant":11023,"ĠbrouyÃ®":11024,"Ġsotnou":11025,"roclaedje":11026,"cÃ¥zant":11027,"Ġmodeles":11028,"Ġpondeus":11029,"Ġpondeure":11030,"ĠÃ©ndjolreye":11031,"ĠboÃ»sses":11032,"Ġstritche":11033,"ĠdispÃ¥r":11034,"ĠdispÃ¥rd":11035,"Ġnuketes":11036,"Ġdislaxheye":11037,"ĠrascrÃ¥wes":11038,"Ġpierdous":11039,"ĠsÃ¥rÃ©nt":11040,"ĠsÃ¥rÃ®z":11041,"Ġcrikions":11042,"Ġmamites":11043,"ĠpoÃ»ssÃ®":11044,"Ġhapeu":11045,"ĠhapÃªye":11046,"Ġmierdjin":11047,"Ġfoninme":11048,"Ġtroejhinne":11049,"Ġtchetoere":11050,"Ġmoussive":11051,"Ġcontinouw":11052,"Ġshuvnut":11053,"dinwÃ¨s":11054,"ĠColomb":11055,"ĠÃĶr":11056,"Ġdessineu":11057,"Ġcotuz":11058,"ĠcoledjÃ¥le":11059,"ĠscolÃ®":11060,"Ġscolaedje":11061,"ĠadjinÃ§nÃªye":11062,"Ġpareys":11063,"ĠprÃ©jhÃ®":11064,"Ġenonder":11065,"ĠenondÃªye":11066,"Ġpelrins":11067,"ĠvÃ´ss":11068,"bÃ¥be":11069,"Ġadjer":11070,"Ġtcheyires":11071,"Ġradjouter":11072,"Ġgovienmints":11073,"Ġpurneas":11074,"Ġconsyince":11075,"Ġrotnut":11076,"ĠOtoman":11077,"uwels":11078,"Ġaskepia":11079,"Ġclorof":11080,"ĠtchenÃ¥":11081,"ĠTchÃ¥rlote":11082,"ancetes":11083,"ĠRenÃ©":11084,"Ġlijheu":11085,"ĠChinwÃ¨s":11086,"Ġmostrant":11087,"Ġbaguetes":11088,"Rilidjon":11089,"Ġpindeut":11090,"ĠschavÃ©":11091,"Ġeplaideyes":11092,"ario":11093,"Ġcedile":11094,"ĠtÃ¥vlotÃªye":11095,"ĠflÃ¥w":11096,"Ġtroufe":11097,"Ġdzot":11098,"Ġrilidjeus":11099,"Ġrilidjeuse":11100,"atives":11101,"ĠrilevÃ©":11102,"ĠFayi":11103,"potÃ©":11104,"ĠQuertin":11105,"ĠsoÃ»fe":11106,"Ġspotchaedje":11107,"ĠspotchÃ¥ve":11108,"ĠsÃ©t":11109,"ĠcÃ»ts":11110,"ĠmessaedjÃ®":11111,"Ġetimolodjikes":11112,"Ġtcheke":11113,"Ġtank":11114,"Politike":11115,"ĠprÃ´piet":11116,"Ġharlo":11117,"ĠrashonnÃªyes":11118,"Ġimprimaedje":11119,"Ġsouwinne":11120,"Ġabatwer":11121,"woey":11122,"ĠVirwin":11123,"ĠarestÃ©":11124,"Ġfoumire":11125,"Ġesser":11126,"Ġoridje":11127,"ĠoperÃ¥cion":11128,"cixheut":11129,"ĠcayÃ´":11130,"parint":11131,"ĠÃ¥jhminces":11132,"ĠpixhÃ®":11133,"ĠdjokÃ©":11134,"Ġpexheus":11135,"Ġrescontrer":11136,"Ġetindeut":11137,"Ġrprinjhes":11138,"Ġvitamene":11139,"ribucions":11140,"ĠMoresnet":11141,"Ġcrouweur":11142,"ĠcrouwÃ¥s":11143,"Ġorganiz":11144,"ĠbÃ´rer":11145,"Ġpaxhi":11146,"Ġpaxhis":11147,"Ġdamaedje":11148,"Ġwaezon":11149,"ĠÃīN":11150,"DeprÃªtre":11151,"Todi":11152,"Ġebaguer":11153,"ĠmirÃ¥":11154,"Ġrdjond":11155,"Ġrdjonde":11156,"ĠSerge":11157,"Ġhavet":11158,"Ġrapoit":11159,"Ġrapoirter":11160,"ĠItÃ¥l":11161,"Ġshabot":11162,"ĠfederÃ¥":11163,"Ġdalaedje":11164,"ĠAcademeye":11165,"Ġshonnance":11166,"Ġprustixh":11167,"Ġledjir":11168,"ĠmuchyÃ®":11169,"Ġlinwistikes":11170,"Ġmuzicyins":11171,"Ġprodujhaedje":11172,"Ġwallonnes":11173,"Ġbuzete":11174,"Ġombion":11175,"ĠhourÃªye":11176,"ĠÃ¥rmÃªyes":11177,"Ġsubzides":11178,"Ġagrandi":11179,"Ġschoyou":11180,"Ġinseke":11181,"Ġpirlodje":11182,"Ġmeubes":11183,"ĠHergÃ©":11184,"ĠabandnÃ©":11185,"ĠnaivyÃ®":11186,"Ġtaesson":11187,"Ġdocumints":11188,"ĠMottard":11189,"ĠcatedrÃ¥le":11190,"Ġfoyous":11191,"ĠbierdjÃ®s":11192,"ĠschÃ¥yÃ®":11193,"Ġbeguene":11194,"Ġloign":11195,"Ġronxhes":11196,"ĠgozÃ®":11197,"Ġparadis":11198,"Ġtexhou":11199,"ĠchÃ®lÃªye":11200,"ĠdifoÃ»trin":11201,"ĠapoirtÃ©":11202,"Ġdominnes":11203,"rikins":11204,"ĠConteye":11205,"ĠTrempont":11206,"Ġbresseu":11207,"Ġclinikes":11208,"Ġolimpike":11209,"Ġsketch":11210,"Ġdjeyografike":11211,"ĠgrÃ¥ce":11212,"ĠBotinne":11213,"Ġschinon":11214,"Ġrclamer":11215,"Ġamerikin":11216,"Ġongletes":11217,"Ġgreviss":11218,"Rascourti":11219,"Ġnaivi":11220,"ĠdolÃ¥rs":11221,"ĠmarixhÃ¥":11222,"ĠvoerÃ¨":11223,"Ġcougnous":11224,"Ġotomaticmint":11225,"ĠredjÃ¥rb":11226,"ĠDedoyard":11227,"AndrÃ©":11228,"Sorlon":11229,"ĠlittÃ©":11230,"ĠbeyÃ´le":11231,"Ġcolibac":11232,"Ġlikides":11233,"ĠGenaux":11234,"Ġpipsak":11235,"Wallon":11236,"Ġocsi":11237,"ĠpÃ¥wions":11238,"ĠlinÃ§oÃ»s":11239,"Ġedvincion":11240,"Ġrafroedi":11241,"Nameur":11242,"ĠSidÃ¥rta":11243,"ĠhaeyÃ¥ve":11244,"ĠRozou":11245,"Ġmaneuve":11246,"ederÃ¥cion":11247,"Ġfloriconte":11248,"Ġpwezon":11249,"ĠrarindjÃ®":11250,"Ġavinteures":11251,"ĠApollinaire":11252,"Ġdiyacritikes":11253,"Ãħrvierdimint":11254,"Ġtransliteraedje":11255,"ĠdrÃ¥we":11256,"Ġtchmijhe":11257,"ĠCongolÃ¨s":11258,"ĠForire":11259,"Ġcroeyeut":11260,"Ġtrintinne":11261,"ĠmoslimÃ®s":11262,"ĠdestinÃªye":11263,"ĠMalonne":11264,"ĠDutroux":11265,"ĠhongrwÃ¨s":11266,"ĠTombeur":11267,"ĠHostin":11268,"Ã´rbrÃ´te":11269,"ĠOuwess":11270,"Ġamoreus":11271,"Ġcatruceme":11272,"ĠcrÃ¥ndimint":11273,"Ġsimplumint":11274,"jpg":11275,"ĠGlÃ©jhe":11276,"ĠQuertinmont":11277,"-)":11278,".Â»":11279,"400":11280,"At":11281,"Bier":11282,"CoÃ»":11283,"Cas":11284,"CÃ´de":11285,"Da":11286,"Dire":11287,"Dni":11288,"DirÃ®":11289,"Ess":11290,"Emey":11291,"FÃ¥ve":11292,"GB":11293,"Hu":11294,"Kim":11295,"Lav":11296,"Lad":11297,"Lomaedje":11298,"MÃ¥l":11299,"Not":11300,"NozÃ´tes":11301,"Omof":11302,"Pat":11303,"Prov":11304,"Pitit":11305,"Rin":11306,"RÃ©n":11307,"Ris":11308,"Rim":11309,"Rif":11310,"Riv":11311,"SE":11312,"Sp":11313,"Sin":11314,"Sac":11315,"Th":11316,"Tuz":11317,"VD":11318,"VÃ¥":11319,"Vir":11320,"Viy":11321,"Viye":11322,"War":11323,"akÃ©":11324,"axhes":11325,"aque":11326,"bus":11327,"bom":11328,"bodje":11329,"brÃ¥mint":11330,"bires":11331,"boy":11332,"bier":11333,"busse":11334,"cir":11335,"cam":11336,"creye":11337,"cum":11338,"crin":11339,"cÃ»t":11340,"conte":11341,"cwand":11342,"cwate":11343,"dy":11344,"daedje":11345,"dam":11346,"deur":11347,"eme":11348,"eke":11349,"fou":11350,"gel":11351,"gar":11352,"gli":11353,"gay":11354,"hl":11355,"ian":11356,"iom":11357,"ietÃ©":11358,"iÃ¨re":11359,"mÃªyes":11360,"mala":11361,"nce":11362,"nor":11363,"nants":11364,"nÃ®t":11365,"nÃ¥jhe":11366,"nature":11367,"nauve":11368,"ovraedje":11369,"pel":11370,"pÃ®s":11371,"pinse":11372,"pintaedje":11373,"rut":11374,"raedjes":11375,"ser":11376,"sels":11377,"sÃ´d":11378,"tte":11379,"tus":11380,"treye":11381,"tine":11382,"troes":11383,"uwes":11384,"uda":11385,"ulaire":11386,"vet":11387,"vos":11388,"vas":11389,"vÃ¥t":11390,"wÃ®":11391,"wel":11392,"wÃ¢":11393,"wane":11394,"wÃªr":11395,"xing":11396,"xem":11397,"yreye":11398,"zy":11399,"zene":11400,"Â´":11401,"Ã³":11402,"Î±":11403,"Ðº":11404,"Ø¯":11405,"Ø±":11406,"äº":11407,"Ġ38":11408,"Ġ33":11409,"ĠdnÃ©s":11410,"Ġlur":11411,"Ġlum":11412,"Ġlure":11413,"Ġluz":11414,"onet":11415,"Ġatche":11416,"Ġsat":11417,"Ġsey":11418,"ĠsÃ¢":11419,"Ġpret":11420,"Ġpindou":11421,"ĠpetÃ©":11422,"Ġptete":11423,"Ġeh":11424,"Ġex":11425,"Ġepr":11426,"Ġexhowe":11427,"Ġcp":11428,"Ġcru":11429,"ĠcÃ¥de":11430,"Ġcatche":11431,"ĠcÃ»te":11432,"Ġcina":11433,"Ã¥met":11434,"Ã©res":11435,"oug":11436,"oun":11437,"oussÃ®":11438,"anf":11439,"anÃ©":11440,"anne":11441,"Ġdih":11442,"Ġdiu":11443,"ĠdipÃ¥rt":11444,"ĠdiÃ¢le":11445,"tels":11446,"ĠmÃ¨t":11447,"Ġmele":11448,"Ã®r":11449,"Ã®ter":11450,"Ã®sses":11451,"Ġtur":11452,"Ġtinde":11453,"Ġtru":11454,"ĠtnÃ¨t":11455,"Ġtai":11456,"Ġtites":11457,"ĠtÃ´me":11458,"rep":11459,"reÃ§mint":11460,"Ã¨ve":11461,"yetes":11462,"Ġfont":11463,"Ġfeus":11464,"Ġfout":11465,"ĠfrÃ¥":11466,"Ġflam":11467,"Ġfrisse":11468,"Ġfniesses":11469,"ĠfitchÃ®s":11470,"chu":11471,"chy":11472,"chot":11473,"chet":11474,"chael":11475,"Ġbre":11476,"Ġble":11477,"Ġbind":11478,"Ġbotes":11479,"Ġbales":11480,"Ġblou":11481,"Ġbulg":11482,"Ġbranmint":11483,"Ġvant":11484,"Ġvene":11485,"ĠvÃ¥s":11486,"ĠvÃ«":11487,"ĠvÃ¨r":11488,"ĠnÃ©":11489,"Ġnut":11490,"ĠnÃ¥cions":11491,"Ġrpl":11492,"Ġrva":11493,"Ġroles":11494,"Ġrgon":11495,"Ġrbat":11496,"Ġons":11497,"Ġonze":11498,"inses":11499,"eule":11500,"Ġesplo":11501,"Ġesprind":11502,"ĠescÃ´swÃ¨s":11503,"Ã©nr":11504,"Ġetch":11505,"Ġetait":11506,"ssan":11507,"ssÃ¨t":11508,"ssons":11509,"lem":11510,"ley":11511,"lect":11512,"itaedje":11513,"otte":11514,"Ã´lÃ©":11515,"Ã´mÃ©":11516,"Ġestales":11517,"Ġcolo":11518,"Ġcoma":11519,"Ġcoist":11520,"Ġcorote":11521,"Ġcocm":11522,"Ġcoranmint":11523,"Ġpoloz":11524,"alt":11525,"alin":11526,"alou":11527,"Ġkimand":11528,"Ġkick":11529,"Ġdjim":11530,"Ġdjesse":11531,"ĠdjÃ©r":11532,"Ġdjniesses":11533,"ĠdorÃªyes":11534,"Ġavu":11535,"Ġavire":11536,"Ġavind":11537,"ĠavoyÃ®":11538,"Ġavanc":11539,"ĠavÃ®z":11540,"Ġavuzion":11541,"elmint":11542,"elwÃ¨s":11543,"roman":11544,"ridi":11545,"ristÃ©":11546,"rixhaedje":11547,"rimoenne":11548,"jhant":11549,"Ã»ne":11550,"Ã»de":11551,"ĠÃ¥djes":11552,"ĠÃ¥mes":11553,"ĠÃ¥rans":11554,"Ġgle":11555,"ĠgÃ¥r":11556,"Ġgli":11557,"Ġgale":11558,"Ġpair":11559,"Ġpaxhe":11560,"Ġpail":11561,"Ġpaurt":11562,"Ġsolaire":11563,"Ġsoyeu":11564,"Ġsoyeus":11565,"xhi":11566,"xhire":11567,"Ãªsse":11568,"ceyan":11569,"Ġsifwait":11570,"way":11571,"wadje":11572,"wates":11573,"Ġtchitche":11574,"Ġtchok":11575,"Ġtchifes":11576,"stikes":11577,"strÃ©":11578,"irteu":11579,"1900":11580,"uther":11581,"sele":11582,"atisses":11583,"raw":11584,"radje":11585,"ish":11586,"ĠMonsieu":11587,"Ã§lete":11588,"oÃ»teure":11589,"Ġwesse":11590,"Ġwiy":11591,"âĢĵ":11592,"amin":11593,"amindjÃ®":11594,"Ã¨ts":11595,"ĠDer":11596,"ĠDoc":11597,"Ġlava":11598,"ĠLori":11599,"Ġover":11600,"Ġorire":11601,"Ġoya":11602,"Ġoidje":11603,"Ġotel":11604,"acus":11605,"acÃªyes":11606,"Ġsti":11607,"Ġalg":11608,"ĠalÃ©ns":11609,"ĠBet":11610,"ĠBut":11611,"ĠBac":11612,"ĠBince":11613,"âĢĻ-":11614,"ĠCÃ´":11615,"ĠCele":11616,"ĠCaire":11617,"die":11618,"Ġvica":11619,"ĠSing":11620,"ĠSier":11621,"ĠSuni":11622,"Ġpres":11623,"Ġpresses":11624,"Ġprust":11625,"ĠprÃ»s":11626,"yÃ®t":11627,"ary":11628,"arre":11629,"arme":11630,"Ġplatch":11631,"Ġploy":11632,"Ġhon":11633,"Ġheye":11634,"Ġhourd":11635,"Ġhouwer":11636,"Ġhob":11637,"Ġhod":11638,"ĠhÃ¥res":11639,"Ġhandele":11640,"Ġnovi":11641,"ĠAu":11642,"ĠAte":11643,"ĠAri":11644,"ĠAlez":11645,"ando":11646,"terrÃ¨":11647,"Ġmoman":11648,"ĠPac":11649,"ĠPeter":11650,"ĠÃ§mint":11651,"omon":11652,"tchou":11653,"tcher":11654,"tchÃ©n":11655,"tchive":11656,"Ġdisplo":11657,"orde":11658,"orÃ§":11659,"ordin":11660,"Lesse":11661,"urch":11662,"urÃ©s":11663,"urÃ¥d":11664,"lite":11665,"lijhaedje":11666,"Ġscle":11667,"Ġscul":11668,"Ġril":11669,"Ġriwer":11670,"Ġrider":11671,"Ġrixhea":11672,"Ġripoizer":11673,"ĠFA":11674,"ĠFÃ©":11675,"ĠFri":11676,"ĠFum":11677,"ĠFrÃ©":11678,"ĠFoirt":11679,"Ġtorea":11680,"Ġ1917":11681,"Ġ1958":11682,"Ġ1964":11683,"Ġ1984":11684,"Ġ1941":11685,"Ġ1931":11686,"Ġ1981":11687,"Ġcaz":11688,"Ġcapou":11689,"ĠcassÃ©":11690,"Ġradi":11691,"Ġrapi":11692,"Ġrafi":11693,"Ġrawetes":11694,"Ġrakeu":11695,"Ġrazans":11696,"ĠmÃ¥djin":11697,"ĠmÃ¥vele":11698,"outsi":11699,"Ġoudon":11700,"Ġmazin":11701,"gneyes":11702,"tionnaire":11703,"ĠRin":11704,"ĠRic":11705,"ĠRif":11706,"ĠRTBF":11707,"ĠGal":11708,"ĠGau":11709,"ĠGÃ¥re":11710,"ĠGusse":11711,"ĠGÃ¥les":11712,"ĠGend":11713,"ĠGutenberg":11714,"ĠLimb":11715,"ĠLiÃ¨ge":11716,"eyo":11717,"eyÃ¨s":11718,"Ġanim":11719,"Ġandjes":11720,"ĠTor":11721,"ĠTrin":11722,"ĠTotes":11723,"ĠTrans":11724,"ĠTuni":11725,"loye":11726,"Ġcwanses":11727,"ĠWes":11728,"ĠWÃ©":11729,"ĠWer":11730,"umer":11731,"Ġtrova":11732,"ĠtrovÃ¨t":11733,"Ġtrovnut":11734,"ĠsolÃ¥":11735,"xheyes":11736,"Ġreg":11737,"Ġrem":11738,"Ġrepetaedje":11739,"ĠrecrÃ¥":11740,"Ġvost":11741,"rijhes":11742,"rÃ®les":11743,"Ġtel":11744,"Ġteri":11745,"ĠHÃ´t":11746,"ĠHancre":11747,"ureuzmint":11748,"ĠEve":11749,"ĠNou":11750,"ĠNÃ©n":11751,"ĠNay":11752,"ĠNonnrece":11753,"ĠNata":11754,"ĠNerv":11755,"Ġboy":11756,"Ġboesses":11757,"Ġbodene":11758,"eneviÃ¨":11759,"icum":11760,"icyins":11761,"Ġmetoz":11762,"Ġmetingue":11763,"Ġvayant":11764,"ĠsaqwÃ¨":11765,"nest":11766,"intenes":11767,"miner":11768,"Ġniers":11769,"Ġfigu":11770,"ĠspoujhÃ®":11771,"Ġbagne":11772,"Ġbablou":11773,"ĠMawoumet":11774,"ĠDjin":11775,"ĠDjam":11776,"ĠDjaz":11777,"ĠDjeyografeye":11778,"ĠDjapon":11779,"ĠDjÃ®le":11780,"idÃ©":11781,"ider":11782,"ĠISO":11783,"Ã¥rder":11784,"ĠschÃ´":11785,"Ġschet":11786,"ĠschÃ¥l":11787,"Ġschaye":11788,"ĠschÃ¥v":11789,"Ġboun":11790,"Ġbouyon":11791,"Ġact":11792,"Ġacteur":11793,"Ġacertin":11794,"ĠVI":11795,"ĠVa":11796,"ĠVen":11797,"ĠVresse":11798,"ĠVenez":11799,"Ġada":11800,"Ġadap":11801,"Ġadroet":11802,"Ġadaw":11803,"Ġepop":11804,"Ġscrijhant":11805,"onnet":11806,"quer":11807,"quÃ¨t":11808,"Ġaspoy":11809,"Ġasprou":11810,"maxhe":11811,"Ġ-,":11812,"Ġveyowe":11813,"guet":11814,"gusse":11815,"cope":11816,"copete":11817,"Ġevol":11818,"Ġevont":11819,"ĠÃ¥rÃ¨s":11820,"ĠÃ¥rgu":11821,"Ġwadje":11822,"Ġwaid":11823,"Ġproyes":11824,"Ġproblin":11825,"Ġproteyenes":11826,"winces":11827,"Ġtikets":11828,"Ġtipikes":11829,"poss":11830,"posse":11831,"poite":11832,"Ġdva":11833,"Ġdvoz":11834,"Ġmwaijh":11835,"ĠdjivÃ¥":11836,"Ġrodj":11837,"Ġroemi":11838,"Ġcomiss":11839,"Ġcomissions":11840,"Ġmoure":11841,"Ġmoust":11842,"Ġmougne":11843,"Ġratayons":11844,"aph":11845,"lanca":11846,"Ġdjulyin":11847,"zoe":11848,"ĠvoltÃ©":11849,"ĠlevÃ©":11850,"abil":11851,"ablanca":11852,"Ġatacaedje":11853,"Ġbrotche":11854,"Ġbrantche":11855,"iyants":11856,"Ġped":11857,"vers":11858,"Ġapri":11859,"ĠaporÃ§":11860,"ĠOmon":11861,"ĠOsselet":11862,"noer":11863,"wereu":11864,"ijheye":11865,"vres":11866,"vrÃ©":11867,"oumÃ©":11868,"otchim":11869,"Ġamisses":11870,"cÃ®mont":11871,"Ġcorwait":11872,"ĠmanaedjÃ®":11873,"ĠmaltÃ¨s":11874,"aveur":11875,"avoz":11876,"Ġabaye":11877,"ĠabÃ´rd":11878,"Ġtchamosse":11879,"naire":11880,"Ġplafond":11881,"ĠdjÃ¥znut":11882,"djawe":11883,"Ġterm":11884,"ixhants":11885,"ĠcmincÃ¨t":11886,"rÃ¨te":11887,"ĠfjhÃ®t":11888,"ĠTches":11889,"ofone":11890,"Ġ1878":11891,"Ġ1899":11892,"Ġ1886":11893,"Ġpontiaedje":11894,"Ġcandja":11895,"Ġpasteure":11896,"ĠpasrÃ¨":11897,"Ġpikets":11898,"Ġsicrire":11899,"ĠcoulÃªye":11900,"Ġcoucou":11901,"Ġveyeu":11902,"oley":11903,"oleye":11904,"Ġindi":11905,"Ġinkete":11906,"stok":11907,"stopol":11908,"basse":11909,"Ġcwadran":11910,"ĠKa":11911,"ĠlÃ¥djÃ¨s":11912,"ĠmoennÃªye":11913,"Ġsitri":11914,"Ġbonmar":11915,"Ġseules":11916,"Ã¥lene":11917,"ĠtournÃªye":11918,"ĠtournÃ©nt":11919,"Ã¥litÃ©s":11920,"Ã¥ltÃ©s":11921,"oya":11922,"Ġnexhance":11923,"Ġbetchteu":11924,"ĠcondjÃ®s":11925,"Ġconstit":11926,"Ġ1100":11927,"Ġreschandi":11928,"Ġevoyeu":11929,"Ġevoyeye":11930,"ĠcontÃ©":11931,"aymond":11932,"ĠclawÃ©":11933,"Ġdinant":11934,"ĠdinÃªyes":11935,"ĠovrÃ¨t":11936,"Ġcalin":11937,"ĠcalkÃ©s":11938,"Ġvedje":11939,"Ġveke":11940,"opes":11941,"ĠtcherÃªye":11942,"Ġtcherwer":11943,"Ġtcherpet":11944,"onea":11945,"vierti":11946,"Ġtraze":11947,"ĠtrawÃ©":11948,"Ġdiscw":11949,"Ġdiscrijh":11950,"Ġdiscrexhe":11951,"ĠdiscandjÃ®":11952,"Ġpouces":11953,"ĠpougnÃ®":11954,"ĠcoÃ»tches":11955,"Ġsondjes":11956,"Ġsorle":11957,"Ġsorrey":11958,"Ġsortot":11959,"ĠhouzÃ©":11960,"Ġminisses":11961,"Ġrlou":11962,"ĠratournÃªyes":11963,"Ġratournaedjes":11964,"ĠcoirbÃ¥":11965,"ĠrivÃ©nt":11966,"Ġrivna":11967,"gaz":11968,"ĠBelgique":11969,"Ġ31":11970,"ĠbatÃ©nt":11971,"Ġbatreyes":11972,"ideye":11973,"Ã«l":11974,"vÃ¥vÃ¨s":11975,"ĠleyÃ®z":11976,"Ġairance":11977,"Ġrames":11978,"ĠahÃ¥ye":11979,"ĠmuzÃªye":11980,"Ġbastis":11981,"ujhances":11982,"ĠChri":11983,"ĠChurch":11984,"Ġrsch":11985,"Ġfornea":11986,"ĠtchÃ¥fe":11987,"udes":11988,"Ġbotan":11989,"Ġbotnire":11990,"aigue":11991,"Ġafes":11992,"Ġafro":11993,"Ġafor":11994,"ĠaflÃ¥":11995,"Ġeplaideu":11996,"unic":11997,"Dipus":11998,"ĠÃħrmonak":11999,"Ġfijhnut":12000,"DisrÃ´":12001,"lindje":12002,"ĠtchÃ´ds":12003,"ĠLequar":12004,"Ġconteye":12005,"Ġgreve":12006,"Ġgreves":12007,"ĠtuzÃªye":12008,"djinnes":12009,"istan":12010,"istinne":12011,"Ġassot":12012,"Ġassulon":12013,"Ġberlinnes":12014,"ĠMarbÃ©":12015,"ĠprovnÃ¨t":12016,"Ġrimaedje":12017,"ĠmwÃ¢rt":12018,"Ġsouf":12019,"Ġ52":12020,"Ġtoutche":12021,"ĠtÃ©le":12022,"Ġmontinne":12023,"tifs":12024,"ĠrispÃ¥":12025,"Ġwangnes":12026,"ĠdjhÃ¨t":12027,"ĠprononcÃ¨t":12028,"iede":12029,"Ġetertin":12030,"Ġsec":12031,"Ġcrape":12032,"gogne":12033,"goreye":12034,"Ġerva":12035,"Ġcnoxhowes":12036,"Ġtinz":12037,"ĠEtio":12038,"Ġfala":12039,"Ġpatac":12040,"fait":12041,"ĠfroyÃ®":12042,"ĠHassan":12043,"Ġmolon":12044,"Ġrespir":12045,"Ġresponse":12046,"Ġhagn":12047,"Ġshoflaedje":12048,"ĠÃ©ndjin":12049,"ĠboutÃ©ve":12050,"Ġdimwin":12051,"ĠMouzon":12052,"Ġmuroe":12053,"ĠZande":12054,"ĠZÃ´rbrÃ´te":12055,"Ġ1400":12056,"ĠcostÃªye":12057,"ĠwÃ¥rdÃ©ve":12058,"Ġrindjmint":12059,"Ġrapre":12060,"ĠrapÃ¥jh":12061,"Ġrapwai":12062,"ĠbinamÃªye":12063,"ĠtapÃ¨t":12064,"erdin":12065,"Ġredjons":12066,"Ġdoner":12067,"ĠXH":12068,"Ġcandjnut":12069,"Ġsereu":12070,"ĠflÃ»te":12071,"Ġastoca":12072,"Ġjiang":12073,"Ġgroumi":12074,"ĠpinsÃ©":12075,"ĠpinsÃ¨t":12076,"ĠmagnÃ¥ves":12077,"Ġrvin":12078,"Ã¢rdin":12079,"ĠbroÃ»lÃ©s":12080,"Ġmarieye":12081,"ĠGui":12082,"Ġcafro":12083,"Ġdistch":12084,"Ġcroejhetes":12085,"Ġraezoe":12086,"phe":12087,"Ġkinikes":12088,"Ġmayisse":12089,"ĠcrexhoÃ»les":12090,"Ouwess":12091,"ĠJohan":12092,"ĠastampÃ©":12093,"ramyÃ®":12094,"Ġsicrijha":12095,"ĠrmÃ©de":12096,"Ġstoks":12097,"Divinltins":12098,"Ġfwai":12099,"ĠmÃ¥lÃ¥jheye":12100,"ĠSocietÃ©":12101,"Ġcarbon":12102,"Ġtchapite":12103,"finet":12104,"ĠDisk":12105,"Ġdischav":12106,"ĠmÃ¥rkÃ©":12107,"ĠesplikÃªye":12108,"Ġbrait":12109,"Ġbraijhes":12110,"Ġmagneu":12111,"Ġmagneus":12112,"Ġloyaedje":12113,"Ġmerite":12114,"ĠAfgan":12115,"ĠracontÃ©":12116,"djicisses":12117,"ĠCoÃ»tchantrece":12118,"Ġaclev":12119,"Ġacleveus":12120,"Ġstrins":12121,"Ġstrons":12122,"ĠstritchÃ®":12123,"Ġnukete":12124,"ĠrascrÃ¥we":12125,"Ġpierdowe":12126,"ĠMarokins":12127,"Ġatrap":12128,"ĠsÃ¥rmas":12129,"Ġmiercor":12130,"Ġmiercopete":12131,"aedjÃ¨s":12132,"Ġcodjowas":12133,"Ġratindant":12134,"Ġratindeut":12135,"Mahin":12136,"ĠdicÃ¥ces":12137,"ĠrespondÃ¨t":12138,"Ġgalants":12139,"ĠschoÃ»tant":12140,"Omonime":12141,"Ġbroye":12142,"ĠbroyÃ®":12143,"ĠConf":12144,"Ġrabind":12145,"ĠrapoirtÃ©":12146,"Ġplaijhant":12147,"ĠdistrÃ»te":12148,"Ġmicros":12149,"ironmint":12150,"ĠScla":12151,"ĠhÃ¥ynÃ©":12152,"ĠhÃ¥ynaedje":12153,"Ġortografike":12154,"VicanstÃ©":12155,"Ġpeler":12156,"angzi":12157,"Ġgayels":12158,"Ġpurn":12159,"Ġrashire":12160,"Ġsierveu":12161,"uweles":12162,"Ġschaver":12163,"lantike":12164,"ĠlÃ¨pes":12165,"ĠcoixhÃ®s":12166,"ĠCoinrece":12167,"ĠpÃ¥pire":12168,"Ġflayea":12169,"Ġdimegnes":12170,"ĠveritÃ©":12171,"ĠChinon":12172,"Ġraviz":12173,"ĠravikÃ©":12174,"ĠfoirdjÃ®s":12175,"Ġrwaitive":12176,"Ġ1903":12177,"Ġspitant":12178,"Ġamours":12179,"Ġdjalof":12180,"ĠrÃ§Ã»":12181,"ĠheyÃ®":12182,"ĠNoer":12183,"Ġrestorants":12184,"ĠstudyÃ®s":12185,"ĠschavÃªyes":12186,"boxing":12187,"Ġaparexh":12188,"Ġaparexhou":12189,"ĠplatÃ¨s":12190,"Ġhertcheye":12191,"Ġxhuflet":12192,"ĠÃ¥bson":12193,"ĠLuxem":12194,"Ġpezante":12195,"Ġdiyalekes":12196,"Ġlodjoe":12197,"Ġaroyaedje":12198,"ĠFagne":12199,"grafikes":12200,"ĠtchessÃ®s":12201,"ĠwaitroÃ»les":12202,"Ġspotchant":12203,"ĠsÃ¥vaedjÃ¨s":12204,"rdu":12205,"Ġoblidjeye":12206,"dixhmints":12207,"Ġdecida":12208,"Ġedjale":12209,"Ġtanf":12210,"ĠbrÃ¥y":12211,"Ã¨nn":12212,"ĠprÃ´pietÃ©":12213,"ĠacceptÃ©":12214,"ĠimprimÃ©":12215,"lodjeye":12216,"Ġponre":12217,"Ġevike":12218,"Ġcelure":12219,"Ġinstrumints":12220,"Ġmilitaires":12221,"ĠfrexhÃ¨s":12222,"Ġraecene":12223,"ĠAbeye":12224,"ĠGodenne":12225,"ĠcayÃ©":12226,"ĠWisconsene":12227,"Ġconsey":12228,"Ġdisso":12229,"ĠreclÃ´re":12230,"ĠnÃ¥cionÃ¥":12231,"ĠpÃ¥jhirmint":12232,"ĠrescontrÃ©":12233,"ĠcompÃ´zÃ©":12234,"Ġdvizer":12235,"ĠsalÃ¥de":12236,"Ġcolone":12237,"Ġcoloni":12238,"Ġvitesse":12239,"Ġgurz":12240,"ĠgurnÃ®":12241,"Ġploumaedje":12242,"Ġaspoye":12243,"ĠcrouwÃ¥":12244,"ĠpÃ´rÃ©nt":12245,"Ġcatchete":12246,"ĠlibertÃ©s":12247,"ĠpormoennÃ©ve":12248,"ĠrtournÃ©":12249,"ĠeternÃ¥cionÃ¥":12250,"ĠcÃ¥barets":12251,"dandjreus":12252,"Ġloyeures":12253,"ĠaprestÃ©":12254,"ĠÃ¥rmonak":12255,"ĠocupÃ¥cion":12256,"ĠIsrayelÃ®s":12257,"CÃ¥zu":12258,"Ġschieles":12259,"Ġsillabes":12260,"ĠMoldaveye":12261,"Ġoizou":12262,"Ġoizeur":12263,"ĠRweyÃ¥l":12264,"ĠNapoleyon":12265,"Ġledjire":12266,"Uzaedje":12267,"corti":12268,"Ġekip":12269,"ĠewalistÃ©":12270,"Ġewalpeure":12271,"Ġlivreyes":12272,"ĠdobÃ¨s":12273,"Ġpazeas":12274,"ĠlapÃ©ns":12275,"Ġnierveus":12276,"Ġnaturelmint":12277,"Ġhourlea":12278,"ĠDjumet":12279,"ĠrshonnÃ¨t":12280,"clarÃ¥cion":12281,"ĠfÃ´raedje":12282,"ĠMinisse":12283,"ĠAtlasse":12284,"ĠriwaitÃ®z":12285,"ĠmiyÃ¥rds":12286,"ĠecrÃ¥xhÃ®":12287,"ĠrmoussÃ®":12288,"ĠospitÃ¥s":12289,"TAN":12290,"Ġdivize":12291,"ĠrebanÃªye":12292,"Ġcopinreye":12293,"Ġtchoezis":12294,"Ġwiki":12295,"Ġwikipedia":12296,"Ġconcours":12297,"ĠâĢĿ,":12298,"Ġotonomeye":12299,"Ġeritaedje":12300,"ĠeritÃ®s":12301,"efants":12302,"ĠpÃ»ni":12303,"Ġrlaye":12304,"Ġmodienes":12305,"ĠPalestin":12306,"Ġgrangrinne":12307,"ĠVictor":12308,"Ġatuzes":12309,"ĠAntigone":12310,"Ġadministrative":12311,"Ġsaeyea":12312,"ĠcÃ´rÃ®s":12313,"ĠcawÃ®":12314,"ĠHoutous":12315,"Ġmartchandijhe":12316,"sicrÃ®t":12317,"Ġmandarin":12318,"Ġdjwive":12319,"Ġspirous":12320,"Ġbrouwires":12321,"ĠradjoutÃ©":12322,"Ġcopiutrece":12323,"Ġfirlotches":12324,"Ġbisteu":12325,"Ġnoejhes":12326,"Ġcavale":12327,"ĠGrign":12328,"ĠÃĪn":12329,"ĠmargougnÃ®":12330,"Ġfaflote":12331,"Ġfaflotes":12332,"Ġcondicioneu":12333,"Ġraloyeye":12334,"ĠtrevÃ¥tchÃ®":12335,"Ġeciclopedeye":12336,"RilomÃªye":12337,"Tecse":12338,"agnostik":12339,"Ġcuzene":12340,"Ġfarma":12341,"Ġesplor":12342,"Ġaloyrece":12343,"ĠBosly":12344,"ĠSelvais":12345,"Ġmolec":12346,"ĠPetrez":12347,"ĠmÃ¥jhire":12348,"Ġtourniket":12349,"ĠemacralÃ©":12350,"ĠDedoyart":12351,"Ġtranki":12352,"ĠCabay":12353,"ĠTurkeye":12354,"Ġlondjinnmint":12355,"Ġinnmi":12356,"Ġinnmis":12357,"Ġgrevesse":12358,"Ġgrevesses":12359,"Ġantibiyotikes":12360,"burg":12361,"ĠvÃ´rÃ©nt":12362,"ĠMirwÃ¥":12363,"ĠhÃ¥rpi":12364,"Ġmoyene":12365,"Ġscreper":12366,"Ġtchamosseure":12367,"Ġtradicionele":12368,"Ġotrichyins":12369,"Biyolodjeye":12370,"ĠÃ¥matÃ©n":12371,"ĠÃ¥maye":12372,"Ġsipale":12373,"Ġstrimaedje":12374,"ĠscrÃ®tes":12375,"Ġridivni":12376,"ĠRotchfoirt":12377,"ĠGreks":12378,"ĠTaeyes":12379,"ĠToutsis":12380,"Ġterorisses":12381,"Ġzigza":12382,"ĠapÃ¥rtinance":12383,"Ġparvinou":12384,"grafeyes":12385,"Ġrescouler":12386,"Claude":12387,"Ġpeste":12388,"Ġdiloujhe":12389,"ĠBulgÃ¥reye":12390,"ĠNÃ®me":12391,"Ġacmaxhaedje":12392,"Ġwapeur":12393,"Ġorkesse":12394,"Ġtriyingue":12395,"Ġveterinaire":12396,"ĠlÃ»ter":12397,"ĠbÃ¥det":12398,"Ġrmerci":12399,"acobÃ©n":12400,"ĠtiyoÃ»":12401,"Ġperiodike":12402,"Ġjusqu":12403,"Ġmicoplasses":12404,"ĠcerÃ©jhes":12405,"PlaÃ§aedje":12406,"Ġceremoneye":12407,"Ġvulga":12408,"Ġrneti":12409,"ĠBavire":12410,"ĠCerfontinne":12411,"ĠAloyÃ®s":12412,"ĠGodfro":12413,"ĠWaslet":12414,"Ġreglumint":12415,"ĠHiernaux":12416,"ĠeplaeÃ§mint":12417,"Ġambassad":12418,"Ġfayenes":12419,"ĠveÃ»y":12420,"Ġriclama":12421,"ĠBrouwires":12422,"Ġfenaesses":12423,"cweme":12424,"Ġeroyene":12425,"Ġglobures":12426,"ĠretrÃ´c":12427,"ĠMayence":12428,"ĠschirÃ¥de":12429,"Ġadviert":12430,"ĠOfinsive":12431,"ĠegzistÃ©":12432,"ĠmannestÃ©s":12433,"cariotes":12434,"Ġclorofile":12435,"Ġcoistrece":12436,"Ġlavasse":12437,"ĠLoriaux":12438,"ĠFumwÃ¨":12439,"ĠGendarme":12440,"ĠNatacha":12441,"ĠNervyins":12442,"Ġfigueure":12443,"ĠDjazira":12444,"Ġproblinmes":12445,"Ġroemiants":12446,"ĠEtiopeye":12447,"ĠAfganistan":12448,"Ġmiercorin":12449,"ĠLuxembourg":12450,"--":12451,".-":12452,"300":12453,"800":12454,"AM":12455,"AS":12456,"AdjinÃ§":12457,"Adire":12458,"Bel":12459,"Bra":12460,"Bar":12461,"Bast":12462,"Batisse":12463,"CH":12464,"Cal":12465,"Cour":12466,"Conte":12467,"Cara":12468,"Cwate":12469,"DÃ¨":12470,"Den":12471,"DilÃ©":12472,"EP":12473,"ES":12474,"Em":12475,"Er":12476,"Fou":12477,"FrÃ©":12478,"Hal":12479,"HÃ¥rdÃªyes":12480,"Louwis":12481,"Lingaedje":12482,"LacobÃ©n":12483,"Mont":12484,"MÃ¥r":12485,"Mam":12486,"Mapes":12487,"NoÃ»":12488,"NES":12489,"ON":12490,"One":12491,"PÃ¥":12492,"Pers":12493,"Pade":12494,"Pron":12495,"Passer":12496,"Philippe":12497,"Sov":12498,"Sambe":12499,"Simon":12500,"Ta":12501,"UdonbÃ©n":12502,"Vs":12503,"Vol":12504,"ais":12505,"ayÃ®":12506,"aite":12507,"agu":12508,"afi":12509,"bre":12510,"bos":12511,"bas":12512,"blo":12513,"botes":12514,"beres":12515,"bresse":12516,"bates":12517,"cte":12518,"cyÃ®":12519,"cires":12520,"cetes":12521,"cteure":12522,"cÃ¥cion":12523,"day":12524,"deles":12525,"doÃ»s":12526,"dinnes":12527,"ek":12528,"ex":12529,"eÃ»":12530,"fl":12531,"fo":12532,"fat":12533,"fra":12534,"fants":12535,"ful":12536,"fem":12537,"ffe":12538,"frexh":12539,"fane":12540,"gs":12541,"gÃ¥":12542,"gis":12543,"gwere":12544,"glÃªye":12545,"glijhes":12546,"hins":12547,"hant":12548,"iyes":12549,"ibes":12550,"izo":12551,"iwes":12552,"isto":12553,"ienne":12554,"jo":12555,"jon":12556,"jardin":12557,"ko":12558,"lÃ¥ve":12559,"lust":12560,"mus":12561,"mwa":12562,"mdi":12563,"nn":12564,"nus":12565,"nacion":12566,"oer":12567,"oran":12568,"oeye":12569,"px":12570,"pter":12571,"pic":12572,"pond":12573,"pitan":12574,"pÃ¢le":12575,"rÃ®s":12576,"rinde":12577,"sinse":12578,"sori":12579,"sÃ´re":12580,"tots":12581,"uk":12582,"urance":12583,"vÃ®t":12584,"veuse":12585,"voyÃ®":12586,"vrete":12587,"vwers":12588,"virÃ»sses":12589,"vski":12590,"weles":12591,"wik":12592,"wÃ¢r":12593,"xe":12594,"xus":12595,"xique":12596,"yance":12597,"yisse":12598,"yowe":12599,"yov":12600,"zen":12601,"zons":12602,"Âº":12603,"Ãī":12604,"ÃĽ":12605,"Åĵ":12606,"Îµ":12607,"Î¹":12608,"ÏĦ":12609,"Ø©":12610,"ÙĪ":12611,"æ±":12612,"éĢ":12613,"Ġq":12614,"Ġut":12615,"Ġ65":12616,"Ġ72":12617,"Ġ135":12618,"ĠolandÃ¨s":12619,"Ġdet":12620,"Ġden":12621,"ĠdÃ¥re":12622,"Ġdza":12623,"ĠdÃ´zes":12624,"Ġdinez":12625,"espi":12626,"Ġlot":12627,"Ġlenes":12628,"Ġlov":12629,"onÃ®s":12630,"onikes":12631,"Ġame":12632,"Ġale":12633,"ĠarÃ¥":12634,"Ġaite":12635,"Ġazo":12636,"Ġagnons":12637,"Ġaweyes":12638,"Ġsy":12639,"Ġsaedjes":12640,"Ġsele":12641,"Ġsatche":12642,"Ġseurs":12643,"Ġswess":12644,"Ġsondes":12645,"Ġpz":12646,"Ġpil":12647,"Ġpwaire":12648,"Ġpwate":12649,"Ġew":12650,"Ġete":12651,"Ġech":12652,"Ġemon":12653,"Ġeber":12654,"Ġedji":12655,"Ġemoen":12656,"Ġedicion":12657,"ĠehÃ¥":12658,"Ġcle":12659,"Ġcrin":12660,"Ġcotch":12661,"ĠcÃ´re":12662,"Ġcrijhe":12663,"Ġcaca":12664,"Ġcardin":12665,"Ã¥vistÃ©":12666,"Ã©ron":12667,"Ã©geois":12668,"ouss":12669,"oupeye":12670,"ann":12671,"anite":12672,"anube":12673,"Ġdipl":12674,"ted":12675,"ĠmoÃ»":12676,"Ġminte":12677,"Ġmouw":12678,"Ġmitch":12679,"Ġmatche":12680,"Ġmeres":12681,"Ġtinte":12682,"Ġtauve":12683,"reds":12684,"Ã¨dje":12685,"Ã¨vre":12686,"neure":12687,"djole":12688,"djots":12689,"djamb":12690,"Ġkitch":12691,"Ġkerna":12692,"yev":12693,"Ġfey":12694,"Ġfouw":12695,"Ġfinde":12696,"ĠfÃ¥de":12697,"Ġfonde":12698,"Ġflou":12699,"Ġfrans":12700,"Ġfreu":12701,"ĠfintÃ©":12702,"Ġbalon":12703,"Ġband":12704,"ĠbwÃ¨":12705,"Ġblin":12706,"Ġbrike":12707,"Ġbland":12708,"Ġbroc":12709,"Ġbomb":12710,"ĠbrÃ¥ve":12711,"Ġbleus":12712,"Ġbits":12713,"Ġbrimb":12714,"Ġvon":12715,"Ġveut":12716,"Ġven":12717,"Ġveres":12718,"Ġvanter":12719,"Ġvuwe":12720,"Ġnit":12721,"Ġnis":12722,"ĠnÃ¥jh":12723,"Ġralon":12724,"Ġrma":12725,"Ġrmo":12726,"Ġrbout":12727,"Ġrmetant":12728,"Ġrwan":12729,"Ġrglat":12730,"ĠrÃ¥skign":12731,"Ġ(Â«":12732,"insion":12733,"erman":12734,"ersen":12735,"eute":12736,"Ġesh":12737,"Ġesprinde":12738,"aene":12739,"Ġeti":12740,"Ġetires":12741,"Ġetcher":12742,"ĠetrevÃ©n":12743,"ssant":12744,"lef":12745,"itz":12746,"itou":12747,"itite":12748,"itaire":12749,"itifs":12750,"ota":12751,"Ã´ye":12752,"Ã´les":12753,"Ã´ler":12754,"Ã´kÃ®":12755,"Ã´zeu":12756,"Ġestch":12757,"Ġestance":12758,"Ġcof":12759,"Ġcoreut":12760,"Ġcoreus":12761,"Ġcoprind":12762,"Ġcodou":12763,"Ġpote":12764,"Ġpoer":12765,"Ġposses":12766,"Ġposson":12767,"Ġpoize":12768,"Ġporeas":12769,"Ġpovwers":12770,"Ġlib":12771,"Ġkisch":12772,"ĠdjÃ¨":12773,"Ġdjotes":12774,"Ġdjureus":12775,"ĠdjÃ¢rdin":12776,"Ġdoe":12777,"Ġdoy":12778,"Ġdomes":12779,"Ġavin":12780,"rogne":12781,"rolÃ¨s":12782,"rofe":12783,"Ġiviers":12784,"rid":12785,"rif":12786,"jheus":12787,"jheut":12788,"Ã»j":12789,"Ã»lÃ©":12790,"ĠÃ¥meas":12791,"Ġgon":12792,"Ġgofe":12793,"Ġpay":12794,"Ġpale":12795,"ĠpavÃ©s":12796,"Ġsom":12797,"Ġsovr":12798,"Ġsopes":12799,"xhÃ¥":12800,"xhen":12801,"Ãªne":12802,"deas":12803,"Lives":12804,"Ġsis":12805,"Ġsici":12806,"Ġsiba":12807,"Ġtchire":12808,"Ġtchesses":12809,"ĠtchÃ¨r":12810,"Ġtchalons":12811,"strÃ¥":12812,"strea":12813,"irÃ¥":12814,"irance":12815,"irner":12816,"1912":12817,"1980":12818,"1933":12819,"olÃ®":12820,"utte":12821,"ontÃ¨t":12822,"atan":12823,"atÃ©s":12824,"atik":12825,"raiy":12826,"rateure":12827,"rapl":12828,"wed":12829,"weter":12830,"wenes":12831,"ladje":12832,"lair":12833,"ĠMes":12834,"ĠMas":12835,"ĠMers":12836,"ĠMori":12837,"ĠMitchÃ®":12838,"range":12839,"Ã§usses":12840,"Ġwants":12841,"Ġwimb":12842,"imat":12843,"amont":12844,"ĠDim":12845,"ĠDest":12846,"ĠDuf":12847,"ĠDRI":12848,"ĠDanube":12849,"Ġlaw":12850,"ĠladrÃ®":12851,"ĠLeu":12852,"ĠLae":12853,"ĠLit":12854,"ĠLot":12855,"ĠLat":12856,"ĠLand":12857,"ĠLans":12858,"ĠLamb":12859,"Ġoxh":12860,"Ġotels":12861,"ĠstÃ¥r":12862,"Ġstantche":12863,"ĠstantchÃ®":12864,"ĠstÃ¥rer":12865,"ĠstandÃ¥rd":12866,"Ġali":12867,"Ġalou":12868,"Ġalint":12869,"ĠalÃ®t":12870,"Ġalbom":12871,"ĠBD":12872,"cipes":12873,"cides":12874,"cixhaedje":12875,"cieuzmint":12876,"ĠCH":12877,"ĠCel":12878,"ĠClo":12879,"ĠCul":12880,"ĠCoc":12881,"ĠCaz":12882,"ĠClas":12883,"ĠCaizer":12884,"asteye":12885,"peter":12886,"penes":12887,"dion":12888,"digne":12889,"dica":12890,"Ġviyes":12891,"Ġvict":12892,"Ġvilin":12893,"Ġvilla":12894,"ourg":12895,"Ġwaloneu":12896,"ĠSu":12897,"ĠSin":12898,"ĠSour":12899,"ĠSur":12900,"ĠSto":12901,"ĠSdan":12902,"ĠSireye":12903,"ĠStiene":12904,"ars":12905,"ĠplÃ´":12906,"Ġpleur":12907,"Ġploye":12908,"Ġplanter":12909,"Ġhanter":12910,"Ġhoumer":12911,"ĠhÃ¥rdÃªye":12912,"Ġhiede":12913,"ĠAy":12914,"ĠAz":12915,"ĠAre":12916,"ĠAns":12917,"anda":12918,"Ġmor":12919,"ĠmoxhÃ®":12920,"ĠmoitÃ¨s":12921,"prouve":12922,"gnÃ¨":12923,"ĠPS":12924,"ĠPou":12925,"ĠPir":12926,"ĠPres":12927,"omin":12928,"omans":12929,"Ġdisme":12930,"Ġdisnor":12931,"orÃ¥cion":12932,"uron":12933,"urlin":12934,"bek":12935,"bere":12936,"lik":12937,"liv":12938,"live":12939,"viene":12940,"viyaedje":12941,"Ġscrene":12942,"indous":12943,"Ġrip":12944,"Ġriz":12945,"Ġrite":12946,"Ġrico":12947,"Ġrilou":12948,"Ġridis":12949,"Ġriprinde":12950,"ĠFlo":12951,"ĠFab":12952,"ĠFlori":12953,"Ġtoeles":12954,"Ġtocsike":12955,"Ġtodroet":12956,"Ġ1919":12957,"Ġ1916":12958,"Ġ1913":12959,"Ġ1968":12960,"Ġ1988":12961,"Ġ1949":12962,"Ġ1942":12963,"Ġ1951":12964,"Ġ1952":12965,"Ġcadj":12966,"Ġcale":12967,"Ġcaus":12968,"ĠcawÃªye":12969,"Ġrag":12970,"Ġray":12971,"Ġrais":12972,"Ġgno":12973,"ĠmÃ¥ve":12974,"ĠmÃ¥vi":12975,"ĠmÃ¥ssÃ®":12976,"ĠmÃ¥mdi":12977,"ĠÃ¨ri":12978,"Ġmare":12979,"Ġmateri":12980,"tion":12981,"tier":12982,"tive":12983,"ĠRis":12984,"ĠRas":12985,"ĠRwÃ¨s":12986,"Ġune":12987,"Ġund":12988,"ĠGou":12989,"ĠGand":12990,"ĠGros":12991,"ĠGhy":12992,"ĠLimer":12993,"ĠLibin":12994,"eynut":12995,"Ġani":12996,"Ġango":12997,"ĠannÃªyes":12998,"ĠTon":12999,"ĠTins":13000,"ĠTri":13001,"ĠTam":13002,"ĠTil":13003,"ĠfossÃ©":13004,"Ġforom":13005,"Ġcwirt":13006,"ĠdivrÃ©nt":13007,"Ġciri":13008,"Ġred":13009,"Ġreki":13010,"Ġrect":13011,"Ġrefa":13012,"ĠrelÃ®s":13013,"Ġrepeter":13014,"Ġvore":13015,"Ġvoennes":13016,"itecteure":13017,"rÃ®le":13018,"rÃ®yes":13019,"Ġtem":13020,"Ġtemons":13021,"ĠHesse":13022,"ĠHaye":13023,"ĠHod":13024,"ĠHoss":13025,"ĠHeyer":13026,"ĠNel":13027,"ĠNosse":13028,"Djez":13029,"Djusse":13030,"Ġbodj":13031,"Ġboss":13032,"Ġbolets":13033,"ick":13034,"onder":13035,"Ġvari":13036,"Ġvagons":13037,"ĠJÃ¨r":13038,"Ġsaiz":13039,"Ġsayant":13040,"niom":13041,"Ġbia":13042,"Ġbibe":13043,"ĠbiÃ¨sse":13044,"ĠbiÃ¨sses":13045,"Ġpolin":13046,"ĠcÃ´paedje":13047,"ĠniÃ»t":13048,"Ġsacwantes":13049,"Ġfilet":13050,"Ġmiyon":13051,"Ġspre":13052,"Ġspla":13053,"Ġbay":13054,"Ġbaxhete":13055,"Ġbadjawe":13056,"Ã´rtant":13057,"ĠMaud":13058,"ĠMadri":13059,"ĠMarake":13060,"ĠMaissin":13061,"ĠDjul":13062,"ĠDjÃ¥zans":13063,"Ġenoc":13064,"idance":13065,"ĠIz":13066,"ĠIran":13067,"ĠIvan":13068,"ĠIsta":13069,"ĠcÃ¥zeu":13070,"jheas":13071,"ĠschÃ´p":13072,"Ġschoum":13073,"ĠschÃ¥y":13074,"Ġessegnrece":13075,"Ġeleccions":13076,"Ġbouket":13077,"pass":13078,"payÃ®":13079,"ĠpÃ¥ter":13080,"ĠpÃ¥stÃ©":13081,"Ġacon":13082,"Ġacov":13083,"Ġaccions":13084,"Ġacost":13085,"Ġacmoide":13086,"ĠVit":13087,"ĠVla":13088,"ĠVatic":13089,"vintÃ¥re":13090,"Ġepesti":13091,"Ġscrijhnut":13092,"ĠdjoÃ»r":13093,"Ġashi":13094,"Ġdev":13095,"Ġdefini":13096,"ĠshÃ»":13097,"mayes":13098,"maire":13099,"kidi":13100,"Ġgrandeu":13101,"Ġbediv":13102,"aute":13103,"anteure":13104,"coter":13105,"coirs":13106,"Ġevironmint":13107,"ĠÃ¥rvÃ´":13108,"Ġwar":13109,"Ġwas":13110,"Ġwaisse":13111,"Ġwaib":13112,"Ġprote":13113,"Ġproye":13114,"Ġpromete":13115,"Ġprobl":13116,"ĠprogrÃ¨s":13117,"pote":13118,"Ġfrinne":13119,"Ġpun":13120,"Ġdvancetes":13121,"alene":13122,"pia":13123,"Ġdjivions":13124,"Ġzwers":13125,"Ġcomike":13126,"Ġcompet":13127,"Ġcombat":13128,"Ġcomprins":13129,"Ġmoude":13130,"Ġmoudri":13131,"Ġratna":13132,"lÃ©men":13133,"Ġvolu":13134,"Ġvoltr":13135,"Ã¥der":13136,"ĠpÃ®d":13137,"Ġatac":13138,"Ġatind":13139,"Ġataca":13140,"Ġatroclaedje":13141,"ElzÃ¨s":13142,"Ġbru":13143,"ĠbrÃ»t":13144,"Ġbritan":13145,"iyites":13146,"Ġpele":13147,"Ġpezer":13148,"Ġcroe":13149,"Ġcroke":13150,"ĠcrolÃ©s":13151,"Ġcroyixh":13152,"Ġgamenes":13153,"Ġapel":13154,"Ġapar":13155,"ĠOb":13156,"ĠOmof":13157,"ĠOTAN":13158,"nois":13159,"nowes":13160,"Ġgrosses":13161,"Ġegolene":13162,"Ġintere":13163,"Ġintelect":13164,"vrous":13165,"Ġamanite":13166,"ĠcorantÃ¨s":13167,"Ġcorwaite":13168,"plis":13169,"plÃªye":13170,"plouve":13171,"Ġmanne":13172,"Ġmanni":13173,"Ġmanif":13174,"ĠsÃ´lÃªye":13175,"ulos":13176,"nay":13177,"ctÃªye":13178,"ĠplaÃ®":13179,"Ġpladjes":13180,"ifiaedje":13181,"Ġendal":13182,"Ġtermenes":13183,"ĠpÃ´k":13184,"Ġdroci":13185,"Ġracs":13186,"iveuse":13187,"Ġmargay":13188,"ĠTchape":13189,"ofones":13190,"Ġ1800":13191,"Ġ1895":13192,"Ġ1897":13193,"Ġ1880":13194,"ĠsÃ¥les":13195,"ĠsÃ¥cisses":13196,"ards":13197,"Ġdjinres":13198,"viÃ¨r":13199,"Ġtronne":13200,"Ġporcintaedje":13201,"Ġpiete":13202,"Ġpixhe":13203,"Ġpietes":13204,"atchyov":13205,"Ġcougne":13206,"baras":13207,"rÃ©e":13208,"otea":13209,"oteu":13210,"oteus":13211,"ĠKe":13212,"ĠKin":13213,"ĠKÃ©":13214,"ĠKaz":13215,"ĠlÃ¥djmint":13216,"Ġsitok":13217,"monaedje":13218,"metaedje":13219,"Ġcrit":13220,"Ġcraeye":13221,"Ġtoursi":13222,"ĠscrÃ®ta":13223,"ĠUNES":13224,"Ã¥lÃ¨s":13225,"ĠOnk":13226,"Ã®tre":13227,"oyance":13228,"Ġnete":13229,"Ġneut":13230,"Ġneni":13231,"Ġconcile":13232,"Ġsintaedje":13233,"Ġsuf":13234,"Ġsup":13235,"Ġcontnou":13236,"Ġcontrum":13237,"Ġsinteut":13238,"Cial":13239,"ĠserÃ©s":13240,"Ġserans":13241,"ĠovrÃ©":13242,"Ġcalinreye":13243,"ĠvevÃ®":13244,"Ġvexheye":13245,"Ġvegnnut":13246,"Ġtcheron":13247,"Ġtcherwaedje":13248,"Ġdijhinnes":13249,"viersele":13250,"Ġtraits":13251,"Ġrcetes":13252,"ĠrcandjÃ®":13253,"Ġrconoxhe":13254,"ĠdiscÃ¥z":13255,"Ġdisclo":13256,"Ġdiscrire":13257,"Ġsaetcheye":13258,"Ġsaetchive":13259,"dahl":13260,"Ġpouch":13261,"Ġpoujh":13262,"Ġpoude":13263,"Ġpouxhant":13264,"Ġlongous":13265,"ĠclÃ©s":13266,"ĠclÃ´s":13267,"ĠcoÃ»r":13268,"Ġsondj":13269,"Ġsortit":13270,"casse":13271,"psyins":13272,"Ġchez":13273,"Ġchife":13274,"Ġchaque":13275,"Ġmindje":13276,"Ġminimom":13277,"ĠBail":13278,"mÃ¥jhon":13279,"Ġaraegne":13280,"2008":13281,"Ġrivuwe":13282,"ĠcwÃ¥rdjeu":13283,"Ġ32":13284,"ĠbatijhÃ®":13285,"stral":13286,"todi":13287,"Ġpaltots":13288,"ĠfÃ¥tchaedje":13289,"ĠfÃ¥cons":13290,"Ã«k":13291,"Ã«t":13292,"Ġdjonnete":13293,"ĠFranwal":13294,"ĠtÃ®ces":13295,"Ġramou":13296,"Ġramoenne":13297,"Ġahan":13298,"Ġahote":13299,"ĠCham":13300,"ĠChap":13301,"ĠChiyites":13302,"Ġorbite":13303,"Ġforc":13304,"Ġforcori":13305,"Ġbotayes":13306,"ovirÃ»sses":13307,"Ġafrikins":13308,"Ġvicantes":13309,"Ġxhor":13310,"ĠxhiyÃ®":13311,"oricmint":13312,"ung":13313,"Dissu":13314,"Copurade":13315,"Coinreces":13316,"issario":13317,"ĠFrancor":13318,"ĠFrancesse":13319,"Ã¥vÃ¨s":13320,"Ġgreke":13321,"Ġgreter":13322,"Ġtuzaedje":13323,"ĠtuzÃªyes":13324,"culer":13325,"ista":13326,"istikes":13327,"vÃ®fa":13328,"Ġberikes":13329,"Ġpassete":13330,"ĠDegre":13331,"ĠDejardin":13332,"Ġemile":13333,"Ġemantche":13334,"Ġemiles":13335,"Ġrimonte":13336,"Ġmwintes":13337,"dobÃ©n":13338,"Ġ5000":13339,"ĠInvintÃ¥re":13340,"teren":13341,"Ġingl":13342,"Ġmontaedje":13343,"tific":13344,"iyev":13345,"ocs":13346,"oclore":13347,"ĠsipÃ¨s":13348,"Ġsipotaedje":13349,"Ġcamps":13350,"Ġcamions":13351,"ĠcÃ¥zumint":13352,"ĠYves":13353,"ĠintitÃ©s":13354,"Ġofri":13355,"rimont":13356,"Ġpeumons":13357,"Ġtouwaedje":13358,"ĠtouwÃ¨t":13359,"Ġassene":13360,"Ġfalijhes":13361,"ĠpatÃ¥r":13362,"riya":13363,"Ġmolons":13364,"Ġimprima":13365,"ĠimpÃ´rtant":13366,"Ġrespirer":13367,"Ġcatruc":13368,"Ġshofla":13369,"Ġshoflete":13370,"ĠecnÃªye":13371,"ĠerÃ®lÃ©":13372,"Ġagol":13373,"Ġtake":13374,"Ġperlins":13375,"Ġdialectes":13376,"ĠrÃ¥ye":13377,"Ã´zÃ©":13378,"Ã´zucion":13379,"ĠcrÃ¥xhes":13380,"ĠZhu":13381,"ĠwÃ¥rdant":13382,"Ġringnes":13383,"ĠcÃ©nkinne":13384,"ĠsociÃ¥le":13385,"Ġsociolin":13386,"ĠCals":13387,"assogne":13388,"Ġbinauje":13389,"Ġfondreye":13390,"Ġtchantant":13391,"Ġcoplets":13392,"bouya":13393,"disfondowe":13394,"ĠdmandÃ©ve":13395,"walonde":13396,"Ġastoke":13397,"Ġpiretes":13398,"Ġgrizou":13399,"Ġmehins":13400,"Ġdjaeye":13401,"ĠtaeyÃ®":13402,"ĠtaeyÃ®s":13403,"Ġtaeyant":13404,"Ġuzer":13405,"Ġwaeraxh":13406,"Ġwaeraxhes":13407,"ĠmartchÃ®s":13408,"Ġcrexhince":13409,"azun":13410,"Ġrexha":13411,"coulot":13412,"ramiaedje":13413,"ĠaujÃ®":13414,"Ġbalou":13415,"ĠkiminÃ§mint":13416,"Ġrmonte":13417,"Ġrmimbere":13418,"ĠRoger":13419,"Ġlanawaire":13420,"Ġaveuri":13421,"ĠmÃ¥lÃ¥jh":13422,"ĠRomans":13423,"banne":13424,"ĠpoirtÃ©nt":13425,"ricus":13426,"ĠBaltike":13427,"Ġdmora":13428,"ĠtchampnwÃ¨s":13429,"ĠsovÃ©nt":13430,"Ġsovrin":13431,"obos":13432,"obac":13433,"Ġseurmint":13434,"Ġpetro":13435,"Ġpetotes":13436,"Ġpetales":13437,"ĠArcq":13438,"ĠricnoxhÃ¨t":13439,"ĠpriyÃ®s":13440,"Ġprofete":13441,"Ġmatrice":13442,"ĠmÃ¥rteas":13443,"Ġloyive":13444,"Ġmacrale":13445,"ĠStirner":13446,"wiaedje":13447,"Ġcomplet":13448,"ĠcompÃ´zeu":13449,"Ġamonter":13450,"Ġamonucions":13451,"ĠracontÃªye":13452,"Ãĩouci":13453,"ĠcircÃ»t":13454,"ĠmÃ©deye":13455,"Ġvindowe":13456,"Ġvindous":13457,"zake":13458,"ĠaclevÃ¥vÃ¨s":13459,"Ġnuke":13460,"ĠnukÃ®":13461,"Ġnuks":13462,"ĠpolicÃ®":13463,"Ġloumires":13464,"Ġstudia":13465,"Ġstudiaedjes":13466,"Ġalfabetike":13467,"ĠsÃ¥rot":13468,"Ġcrist":13469,"Ġfonolodjeye":13470,"Ġbrict":13471,"cloke":13472,"Ġgrav":13473,"Ġgrawes":13474,"ĠtchetidÃ®s":13475,"Ġvierlete":13476,"ĠradoÃ»":13477,"Ġcontinowe":13478,"Ġcontinouwer":13479,"ĠcontinouwÃ©":13480,"Ġshuvowe":13481,"ĠotostrÃ¥":13482,"ĠÃ¥yexhe":13483,"ĠColson":13484,"ĠEsprit":13485,"ĠDjezu":13486,"Ġcroeyou":13487,"Ġbrost":13488,"Ġbrokes":13489,"ĠdessinÃ©":13490,"Ġcolere":13491,"Parey":13492,"ĠScrire":13493,"Ġortodosses":13494,"ĠvÃ´ter":13495,"Ġcolneye":13496,"âĢ¦)":13497,"Ġrissint":13498,"Ġrissaetche":13499,"Ġadjond":13500,"Ġeriesses":13501,"Ġradjond":13502,"ĠWiket":13503,"ĠdimorÃ¨t":13504,"Ġdimornut":13505,"Ġrotant":13506,"Ġrotaedje":13507,"ĠrotÃ¨t":13508,"ĠrotÃ©ve":13509,"ĠOtomans":13510,"ĠpotÃªye":13511,"Ġpotince":13512,"Ġindo":13513,"Ġcloyaedje":13514,"Ġcodujhance":13515,"ĠCoviete":13516,"lomÃ©":13517,"yÃ©nxhe":13518,"ĠnotÃ©":13519,"ĠBerlin":13520,"Ġhope":13521,"Ġhopeas":13522,"Ġtribu":13523,"Ġverbok":13524,"ĠmostrÃªye":13525,"Ġridaedje":13526,"Ġrwaitant":13527,"ĠMeke":13528,"ĠMeyÃ®":13529,"ĠAndalou":13530,"Ġ1906":13531,"Ġneyer":13532,"ĠSchoice":13533,"ĠtrinnÃªye":13534,"ĠspotÃ©":13535,"ĠbaguÃ©":13536,"Ġelectrikes":13537,"Ġpwis":13538,"Ġpindant":13539,"Ġruban":13540,"Ġrestorant":13541,"deleyev":13542,"Ġcivil":13543,"boket":13544,"ratournÃ©":13545,"Ġfelmint":13546,"ĠflÃ¥wes":13547,"Ġxhufler":13548,"ĠtrerÃ¥":13549,"djoÃ»rdu":13550,"Ġvelire":13551,"Ġrilidjeuses":13552,"Ġcabus":13553,"ĠaschoÃ»t":13554,"ijÃ©":13555,"Ġlodjeu":13556,"ĠrnÃ¥ds":13557,"Ġritrover":13558,"Ġfabric":13559,"Ġtchessi":13560,"Ġhalcote":13561,"Ġpublik":13562,"nÃ¥cionÃ¥le":13563,"Ġdrouve":13564,"Ġlouke":13565,"Ġpenas":13566,"Ġdjouxhire":13567,"Ġomrins":13568,"Ġrevoye":13569,"igneÃ»r":13570,"Ġfrisses":13571,"Ġfrigo":13572,"Ġetimolodjeyes":13573,"Ġpossibes":13574,"Ġavanci":13575,"ĠPiret":13576,"ĠPirenÃªyes":13577,"ĠreplaecÃ®s":13578,"Ġdecider":13579,"Ġdmeys":13580,"ĠedjalÃªye":13581,"Ġtubes":13582,"Ġbork":13583,"Ġbordon":13584,"ĠbrÃ¥yes":13585,"ĠbrÃ¥vÃ¨s":13586,"ĠrintrÃ©":13587,"ĠmargayÃ®":13588,"Ġespedicion":13589,"ĠprÃ´pmint":13590,"ĠacsÃ»s":13591,"Ġaccepter":13592,"Ġashir":13593,"Ġimprimeu":13594,"PrumÃ®":13595,"Ġponaedje":13596,"Ġmezeure":13597,"Ġfraw":13598,"Ġframb":13599,"Ġnouriteure":13600,"teria":13601,"Ġbolante":13602,"Ġpopulaires":13603,"ĠComission":13604,"ĠboevÃ¨t":13605,"ĠboerlÃªye":13606,"Ġmizrete":13607,"crouw":13608,"stian":13609,"ĠcayÃ´s":13610,"ĠunitÃ©s":13611,"ĠViet":13612,"Ġconsecant":13613,"ĠnouvÃ¨s":13614,"Ġfilozofes":13615,"urois":13616,"ĠdjÃ¥rdÃ©ns":13617,"Ġdischindant":13618,"Ġminti":13619,"Ġminton":13620,"Ġversets":13621,"ĠnÃ¥cionÃ¥litÃ©":13622,"ĠMÃ¥rmite":13623,"Ġrastrind":13624,"Ġrastrindaedje":13625,"ĠpÃ¥jhÃ»le":13626,"Ġtimperateures":13627,"Ġindustreyes":13628,"Ġrcori":13629,"ĠrcopyÃ®":13630,"Ã´daedje":13631,"Ġsofri":13632,"acawÃªye":13633,"Ġdiscovrou":13634,"Ġrastinrece":13635,"Ġparfonds":13636,"ĠpaxhnÃ¥de":13637,"Ġmaweures":13638,"Ġbistoker":13639,"Ġcomunisses":13640,"ĠpormoennÃ¥de":13641,"Ġbeldjicisses":13642,"ĠratchtÃ©":13643,"Ġpougns":13644,"ĠmeyeusÃ¨s":13645,"Ġbardouxha":13646,"SchoÃ»te":13647,"Ġcmander":13648,"Ġhavurna":13649,"Ġrapoite":13650,"ĠnormÃ¥lmint":13651,"ĠnormÃ¥ldimint":13652,"Ġrmetous":13653,"Ġhanzin":13654,"Ġfoclorikes":13655,"ĠshonnÃ©ve":13656,"ĠBernus":13657,"RodjÃ®":13658,"Roger":13659,"Ġadjey":13660,"djuster":13661,"Ġverdeure":13662,"Ġsillabusse":13663,"ĠSaint":13664,"Ġprusti":13665,"ĠmÃ¥lvÃ¥t":13666,"ĠmelÃªyes":13667,"ĠvÃ¨yu":13668,"Ġtchip":13669,"ĠRoumins":13670,"pagnols":13671,"Ġespaitchance":13672,"ĠbanslÃªye":13673,"ĠbanslÃ®":13674,"Ġlimite":13675,"Ġrifondou":13676,"ĠLibins":13677,"ĠNew":13678,"ĠsÃ¥vadjes":13679,"Ġfetchire":13680,"ĠbÃ´rÃ©s":13681,"Ġvaccin":13682,"Ġsoyete":13683,"olium":13684,"ĠLorinne":13685,"ĠBayÃ¥d":13686,"ĠSacwantÃ¨s":13687,"ĠAtlantike":13688,"ĠErnest":13689,"ĠmiyÃ¥rd":13690,"ĠschoyÃ¨t":13691,"ĠcrombyÃ®":13692,"ĠfÃ¥tcheu":13693,"ĠuniviersitÃ©s":13694,"Ratournaedje":13695,"Ġâµ":13696,"Ġblaw":13697,"Ġsipexheur":13698,"Ġstofes":13699,"Ġmetchants":13700,"ĠapougnÃ®":13701,"Ġberdeler":13702,"Louis":13703,"crabeau":13704,"ĠCorwaitaedje":13705,"Ġplokes":13706,"Ġplorer":13707,"Ġcaracole":13708,"Ġbiestreye":13709,"Ġdefinixha":13710,"Ġconcerts":13711,"Ġconfonde":13712,"ĠahessÃ¥ve":13713,"Ġagritch":13714,"ĠagritchÃ®":13715,"Ġagritche":13716,"Ġprofesseurs":13717,"Asteme":13718,"Ã¶r":13719,"Ġcinq":13720,"ĠatuzlÃ©":13721,"ĠlÃ¥tchÃ¨t":13722,"Anti":13723,"Ġcujheut":13724,"Ġposteures":13725,"Ġmoxhet":13726,"vietike":13727,"Ġrabate":13728,"ĠreplaidÃ®s":13729,"Ġbressaedje":13730,"Ġclinike":13731,"Ġnawea":13732,"ĠassazinÃ©":13733,"Ġmicrobe":13734,"Ġmicrobes":13735,"EstÃ´":13736,"ĠectÃ¥re":13737,"ĠtrÃ®xhes":13738,"Ġsawoura":13739,"ĠÃĩa":13740,"Ġarkeyolodjike":13741,"Ġresponses":13742,"ĠÃ¥busson":13743,"Ġsgondaire":13744,"Ġrlikes":13745,"Ġcovra":13746,"ĠsiÃ¨ke":13747,"ĠCayron":13748,"ĠPrÃ©le":13749,"ĠTournai":13750,"ĠNorve":13751,"Ġ----":13752,"Ġfougnants":13753,"Ġttafwaitmint":13754,"ĠcuzÃ©n":13755,"ĠCuba":13756,"ĠCugnon":13757,"Ġvideyos":13758,"ĠSicrijheus":13759,"Ġhalenes":13760,"rinnwik":13761,"ĠtrÃ»lÃªye":13762,"Ġconoxhou":13763,"Ġbrouheur":13764,"Ġcrustinnisse":13765,"idive":13766,"Ġpikete":13767,"Ġcoster":13768,"Djudjmint":13769,"Ġdmanants":13770,"ĠinmÃ©ve":13771,"COT":13772,"Dimwin":13773,"cetmint":13774,"Ġaireurs":13775,"ĠelaxhÃ®":13776,"ĠrployÃ®":13777,"antoeles":13778,"Ġplantchete":13779,"Ġmastoke":13780,"Ġmastokes":13781,"ĠDjÃ¥Ã§lete":13782,"Ġindjeni":13783,"Ġgruzin":13784,"Ġbrouxhir":13785,"Afrike":13786,"ĠswerÃªye":13787,"ĠedjÃ®strÃªye":13788,"Ġelaidi":13789,"Ġelaidixh":13790,"Ġfuzik":13791,"Ġsovietike":13792,"Ġsovietikes":13793,"ĠMÃ©lin":13794,"ĠmopliyÃ®":13795,"ĠumanitÃ©s":13796,"ĠTangan":13797,"Ġdemocra":13798,"Ġabateu":13799,"Ġcoulots":13800,"Ġbondiu":13801,"Ġserieus":13802,"Ġinstitucion":13803,"Ġeterprijhe":13804,"Ġdialectale":13805,"ĠBrusselwÃ¨s":13806,"ĠcivilizÃ¥cion":13807,"ĠcivilizÃ¥cions":13808,"Accint":13809,"Faleut":13810,"Linwe":13811,"brun":13812,"Ð¸Ñ":13813,"Ġetourpiner":13814,"ĠDictionnaire":13815,"ĠBinamÃªye":13816,"ĠAuguste":13817,"ĠdivoirÃ§aedje":13818,"Ġaduzoe":13819,"Ġhoubion":13820,"Ġglaeces":13821,"Ġtchesturlinne":13822,"Ġareyoplane":13823,"Hamteas":13824,"uciusse":13825,"ĠassÃ®te":13826,"Ġtortos":13827,"ĠtchocolÃ¥t":13828,"Ġcarolo":13829,"ĠrapexhÃ®":13830,"ĠTaylande":13831,"ĠEternÃ¥cionÃ¥le":13832,"ĠEugÃ¨ne":13833,"Ġaskepeye":13834,"Ġguepard":13835,"Ġcontroler":13836,"Ġclintcha":13837,"ĠclotchÃ®s":13838,"ĠcrÃ¥mignon":13839,"Ġdjalozreye":13840,"ĠMÃ¥rcinele":13841,"ĠeredjistrÃ©":13842,"Ġdivizions":13843,"DoÃ»cÃ¨s":13844,"Maurice":13845,"Termetant":13846,"dÃ¥rni":13847,"Ġayir":13848,"ĠkÃ©ntes":13849,"Ġrustea":13850,"Ġlaudje":13851,"ĠSabine":13852,"Ġdisterminant":13853,"Ġtoetea":13854,"ĠrawaÃ®te":13855,"ĠEgzimpes":13856,"ĠenimÃ¥djÃ®":13857,"Ġatouwance":13858,"ĠParadis":13859,"Ġcoirnaye":13860,"Ġfornaiviaedje":13861,"ovindjins":13862,"ĠdzÃ´rnÃ©":13863,"ĠhalcotÃ®s":13864,"Ġdringuele":13865,"Ġgurzeas":13866,"ĠyerbÃªyes":13867,"ĠcoignoÃ»lÃ®":13868,"aejde":13869,"Ġstroetes":13870,"Ġstalag":13871,"ĠhierdÃ®":13872,"ĠPietkin":13873,"ĠHeymans":13874,"ĠsaveÃ»t":13875,"ĠschÃ´tlÃªye":13876,"ĠnetyÃ®":13877,"ĠnaÃ§ale":13878,"Ġrimpleye":13879,"ĠZabele":13880,"Ġtchapistrea":13881,"Ġrmimbrer":13882,"ĠrapoitroÃ»les":13883,"Ġocsidjinne":13884,"Ladvins":13885,"Ġluzere":13886,"Ġpretind":13887,"ĠdipÃ¥rtumint":13888,"Ġbindd":13889,"Ġblouze":13890,"ĠbulgÃ¥re":13891,"Ġvantrin":13892,"Ġgleter":13893,"Ġgaletes":13894,"Ġwiyinme":13895,"Ġalgori":13896,"ĠFARC":13897,"outsiplou":13898,"Ġmazindje":13899,"ĠLimbourg":13900,"Ġapriyesse":13901,"ĠOmonimeye":13902,"ĠChurchill":13903,"DisrÃ´lmint":13904,"ĠLequarrÃ©":13905,"Ġadviertance":13906,"ÃĽt":13907,"Ġazote":13908,"Ġsaedjesse":13909,"ĠMorice":13910,"Ġwimbire":13911,"ĠDRICOT":13912,"ĠClaskin":13913,"ĠmÃ¥mdiyinne":13914,"ĠGhys":13915,"Ġangoxhe":13916,"ĠHeyerdahl":13917,"ĠMadrid":13918,"ĠMarakech":13919,"ĠVatican":13920,"Ġepestifer":13921,"Ġbritanike":13922,"ĠUNESCO":13923,"ĠAndalouzeye":13924,"%)":13925,"'ve":13926,")-":13927,",..":13928,".:":13929,".;":13930,".),":13931,"Ass":13932,"Ant":13933,"Abeye":13934,"Bor":13935,"Basse":13936,"Con":13937,"Cot":13938,"Cro":13939,"Com":13940,"Cha":13941,"Claire":13942,"CÃ©nk":13943,"DÃ¨s":13944,"Deujhinme":13945,"Eco":13946,"Emile":13947,"For":13948,"Forir":13949,"FÃ¥ves":13950,"Fontinne":13951,"Fagne":13952,"Flori":13953,"Famile":13954,"Fayi":13955,"Gof":13956,"Georges":13957,"Gaston":13958,"Her":13959,"Hinri":13960,"IN":13961,"JosÃ©":13962,"Keb":13963,"Lo":13964,"Lon":13965,"LÃ©":13966,"Monde":13967,"Merci":13968,"Nin":13969,"Nive":13970,"Neni":13971,"Our":13972,"Ostant":13973,"PA":13974,"Pe":13975,"Pl":13976,"Pond":13977,"RN":13978,"Res":13979,"Rowe":13980,"Roz":13981,"Role":13982,"Rwey":13983,"Rotaedje":13984,"Sc":13985,"Sou":13986,"Sing":13987,"Tra":13988,"Tere":13989,"Tantea":13990,"Van":13991,"Val":13992,"Vind":13993,"Voye":13994,"Vera":13995,"Xh":13996,"awÃ¨":13997,"akeye":13998,"aprume":13999,"bel":14000,"bete":14001,"bleu":14002,"biner":14003,"cy":14004,"ceu":14005,"cap":14006,"cotes":14007,"cÃ´ze":14008,"cyins":14009,"cron":14010,"dos":14011,"dor":14012,"dinne":14013,"doir":14014,"dzeu":14015,"dÃ«":14016,"dinner":14017,"eg":14018,"eau":14019,"fÃ¨":14020,"fot":14021,"fmint":14022,"fere":14023,"fessÃ®":14024,"fÃ´re":14025,"fate":14026,"fusse":14027,"ficcion":14028,"gz":14029,"gol":14030,"grin":14031,"gris":14032,"gÃ¥de":14033,"hr":14034,"hÃ´":14035,"has":14036,"hans":14037,"hene":14038,"hmed":14039,"ieu":14040,"iÃ¨t":14041,"ipe":14042,"ien":14043,"idjes":14044,"ipene":14045,"jiang":14046,"kel":14047,"line":14048,"litÃ©":14049,"lusse":14050,"ldimint":14051,"leuses":14052,"my":14053,"mant":14054,"mÃ¥r":14055,"mam":14056,"mÃ¨t":14057,"mic":14058,"mwere":14059,"mission":14060,"nb":14061,"nin":14062,"nit":14063,"nal":14064,"nesse":14065,"nires":14066,"ora":14067,"ope":14068,"ovi":14069,"oche":14070,"oyi":14071,"opo":14072,"oker":14073,"ogra":14074,"ocide":14075,"ows":14076,"py":14077,"pal":14078,"ptit":14079,"powe":14080,"rÃ©ve":14081,"rwÃ¨":14082,"smint":14083,"sur":14084,"sons":14085,"sist":14086,"souye":14087,"tou":14088,"tro":14089,"trece":14090,"treyes":14091,"taire":14092,"uo":14093,"uri":14094,"uve":14095,"unes":14096,"ulets":14097,"vter":14098,"vler":14099,"vreut":14100,"vÃ¥s":14101,"vwere":14102,"voe":14103,"wesses":14104,"waneye":14105,"yale":14106,"zot":14107,"zis":14108,"zÃ®s":14109,"zÃªyes":14110,"zeure":14111,"zone":14112,"zaece":14113,"zinnes":14114,"ziner":14115,"Ã¦":14116,"ÃĢ":14117,"Å«":14118,"ÉĻ":14119,"ËĲ":14120,"ÏĤ":14121,"Ð´":14122,"Ð»":14123,"Ñģ":14124,"Ø¨":14125,"ØŃ":14126,"ÙĨ":14127,"à§":14128,"åŃ":14129,"è¯":14130,"ĠÏ":14131,"Ġout":14132,"Ġ95":14133,"Ġ78":14134,"Ġ77":14135,"Ġ34":14136,"Ġ37":14137,"Ġ87":14138,"Ġ54":14139,"Ġ140":14140,"Ġ59":14141,"Ġ61":14142,"Ġ581":14143,"ĠÊ¾":14144,"Ġdre":14145,"Ġdot":14146,"Ġdeye":14147,"Ġdure":14148,"ĠdÃ´p":14149,"ĠdviÃ¨":14150,"Ġduc":14151,"Ġdvintrin":14152,"ĠdaenwÃ¨s":14153,"ese":14154,"ĠlÃ©n":14155,"Ġlut":14156,"Ġleurs":14157,"ĠlÃ§ons":14158,"Ġlorin":14159,"Ġlouwaedjes":14160,"inou":14161,"inÃ©s":14162,"inaire":14163,"onÃ¨s":14164,"onnes":14165,"Ġagu":14166,"Ġamete":14167,"Ġacide":14168,"Ġsae":14169,"Ġsus":14170,"Ġslo":14171,"ĠsÃ»t":14172,"ĠswÃ¨":14173,"Ġsyin":14174,"Ġseure":14175,"Ġsker":14176,"Ġsteu":14177,"Ġsours":14178,"Ġpti":14179,"Ġpots":14180,"Ġpince":14181,"ĠpÃ¨r":14182,"Ġpane":14183,"Ġpotches":14184,"ĠpÃ´rt":14185,"Ġera":14186,"Ġedi":14187,"Ġewaer":14188,"Ġevekes":14189,"ĠcÃ¨s":14190,"Ġcse":14191,"Ġcwe":14192,"Ġcran":14193,"Ġcind":14194,"Ġcpa":14195,"ĠcÃ¥te":14196,"Ġcsch":14197,"Ġcmere":14198,"oule":14199,"ounaedjes":14200,"anon":14201,"anisse":14202,"Ġdij":14203,"ĠdiÃ¨s":14204,"Ġdial":14205,"Ġdilon":14206,"Ġdimey":14207,"ĠdigrÃ©s":14208,"tey":14209,"tereyes":14210,"Ġmut":14211,"Ġmour":14212,"Ġmesses":14213,"Ġmers":14214,"ĠmÃ¥rs":14215,"ĠmouwÃ©":14216,"Ġmonsi":14217,"ĠmÃ¨ye":14218,"Ã®n":14219,"Ã®Ã§":14220,"ĠtÃ¨":14221,"Ġtam":14222,"Ġtar":14223,"Ġtrez":14224,"Ġtaire":14225,"ĠtnÃ©nt":14226,"ĠtÃ¥rdjÃ®":14227,"Ã¨m":14228,"Ã¨z":14229,"Ã¨ke":14230,"Ã¨che":14231,"Ã¨mes":14232,"nel":14233,"djreyes":14234,"djimont":14235,"yeas":14236,"ĠfÃ®s":14237,"Ġfesse":14238,"Ġfum":14239,"Ġflan":14240,"Ġfute":14241,"Ġfindou":14242,"Ġflaire":14243,"ĠfrÃ¥le":14244,"chinde":14245,"chau":14246,"chone":14247,"ĠbÃ¨t":14248,"Ġblam":14249,"ĠbÃ¥res":14250,"ĠbÃ¨le":14251,"ĠbwÃªre":14252,"Ġbgh":14253,"Ġvuz":14254,"Ġvante":14255,"Ġvleur":14256,"Ġvnant":14257,"ĠvÃ´tes":14258,"Ġvudi":14259,"ĠvwÃ¨t":14260,"Ġnour":14261,"Ġnous":14262,"Ġrb":14263,"Ġrdje":14264,"Ġrxh":14265,"Ġrse":14266,"Ġrvi":14267,"Ġracw":14268,"Ġrouw":14269,"Ġrwer":14270,"Ġrdis":14271,"Ġrviers":14272,"Ġrvey":14273,"Ġrmeteut":14274,"Ġrbasti":14275,"Ġ(+":14276,"Ġ(.":14277,"erter":14278,"Ġeske":14279,"Ã©ncweme":14280,"aedjÃ®s":14281,"Ġetindou":14282,"itaedjes":14283,"itrÃ¨":14284,"itay":14285,"otisse":14286,"otreyes":14287,"Ġcoye":14288,"Ġcove":14289,"Ġcora":14290,"ĠcoyÃ®":14291,"ĠcorÃ¥":14292,"ĠcolÃ©":14293,"ĠcopyÃ®":14294,"Ġcovri":14295,"Ġcovrou":14296,"Ġpolet":14297,"Ġpoiz":14298,"Ġpoites":14299,"Ġpowetes":14300,"Ġpolaxhe":14301,"alÃ®s":14302,"alijhaedje":14303,"Ġkiwi":14304,"Ġdjant":14305,"Ġdjene":14306,"Ġdjok":14307,"ĠdjalÃ©":14308,"Ġdjustumint":14309,"ĠdjÃ®sses":14310,"intchÃ®":14311,"Ġdoyes":14312,"Ġavot":14313,"Ġavinde":14314,"ĠavnÃ¨t":14315,"Ġavirance":14316,"roy":14317,"roter":14318,"rovi":14319,"roche":14320,"romans":14321,"roixhe":14322,"Ġienne":14323,"rite":14324,"riyÃ®":14325,"rium":14326,"riket":14327,"rilidjon":14328,"jhi":14329,"Ã»ss":14330,"ĠÃ¥jhe":14331,"ĠÃ¥rire":14332,"ĠÃ¥djeu":14333,"ĠÃ¥rÃ®z":14334,"ĠÃ¥yÃ©nxhe":14335,"etÃ¨s":14336,"Ġgor":14337,"Ġgreye":14338,"Ġgola":14339,"Ġgerman":14340,"Ġpalete":14341,"Ġpayive":14342,"Ġpatois":14343,"xhnut":14344,"xhisses":14345,"Ãªve":14346,"Ãªpe":14347,"usteye":14348,"uskin":14349,"ustene":14350,"vete":14351,"denes":14352,"Lidje":14353,"Ġsipene":14354,"Ġsibar":14355,"Ġsicoreye":14356,"Ġtchar":14357,"Ġtchiy":14358,"Ġtchai":14359,"ston":14360,"irl":14361,"iry":14362,"irÃªye":14363,"irans":14364,"irÃ»sse":14365,"1914":14366,"1930":14367,"1940":14368,"1936":14369,"1969":14370,"1979":14371,"1989":14372,"oly":14373,"olz":14374,"oloke":14375,"utude":14376,"sete":14377,"ath":14378,"ator":14379,"mintaedje":14380,"osÃ¨f":14381,"raif":14382,"raper":14383,"rapeye":14384,"2013":14385,"Ã¥rdene":14386,"iser":14387,"ismes":14388,"istere":14389,"laiwe":14390,"ĠMuz":14391,"ĠMele":14392,"ĠMong":14393,"ĠMali":14394,"randjes":14395,"ranki":14396,"ranasse":14397,"Ã§let":14398,"ĠwÃ©":14399,"Ġwant":14400,"ĠwÃ´t":14401,"Ġwespi":14402,"imp":14403,"imit":14404,"ambou":14405,"ĠDoze":14406,"ĠDroixhe":14407,"Ġlabor":14408,"ĠLeus":14409,"Ġoi":14410,"Ġoyons":14411,"Ġoyeu":14412,"Ġodio":14413,"Ġoxhs":14414,"Ġorandje":14415,"Ġorandjes":14416,"acul":14417,"accions":14418,"ĠstÃ¥re":14419,"Ġstamp":14420,"Ġalpin":14421,"ĠBout":14422,"ĠBov":14423,"ĠBrinne":14424,
[...]
