#version: 0.2 - Trained by `huggingface/tokenizers`
Ġ d
e s
Ġ l
i n
o n
Ġ a
Ġ s
Ġ p
Ġ e
Ġ c
Ã ¥
Ã ©
o u
a n
Ġd i
t e
Ġ m
Ã ®
Ġ t
r e
Ã ¨
n e
d j
Ġ k
y e
Ġ f
c h
Ġ b
Ġ v
Ġ n
Ġ r
Ġ on
Ġ (
in s
e r
e u
Ġ es
Ġl es
Ã© n
a e
Ġd es
m e
Ġe t
dj e
s s
l e
i t
o t
Ã ´
Ġes t
Ġc o
Ã¨ s
Ġp o
a l
Ġl i
Ġk i
an t
Ġd j
in t
Ġe ne
) .
Ġd o
Ġa v
e l
r o
Ġ i
r i
j h
Ã »
Ġ Ã¥
e t
Ġ g
Ġp a
Ġs o
ae dje
x h
Ã ª
u s
v e
c e
d e
L i
Ġs i
w a
k e
Ġt ch
ss e
s t
i r
Ġ "
1 9
o l
u t
s e
on t
Ġd el
a t
m int
Ġd ins
o s
Ġav ou
r a
Ġ ).
2 0
w e
Ã¥ r
i s
Ãª ye
l a
Ġ M
y es
al on
r an
Ã §
o Ã»
Ġ w
i m
â Ģ
Ġn Ã©n
a m
eu s
1 8
Ã¨ t
Ġ D
Ġl a
Ġ L
1 0
Ġ o
a c
Ã©n t
Ġs t
Ġa l
Ġ B
1 5
Ġ :
Ġt ot
1 7
âĢ Ļ
1 6
1 4
O n
c i
Ġ C
1 3
2 4
a s
2 5
p e
2 7
2 8
Ġp us
2 6
2 3
2 9
d i
in me
Ġv i
ou r
Ġw alon
Ġ S
Ġp r
y Ã®
a r
eu r
wa it
eu t
i re
e te
Ġp l
Ġ h
Ġn o
Ġco me
Ġ A
an d
te r
Ġm o
e ye
e n
p r
g n
Ġ P
Ġ Ã§
o m
t ch
Ġdi s
dj es
o r
L es
u r
b e
on s
l i
Ã® s
v i
Ġs c
es se
Ã¥ z
in d
o dje
Ġ Ã´
Ġet o
Ġr i
Ġ F
Ġt o
E t
Ġf wait
ant s
Ġon t
Ġe l
Ġ 19
te ut
Ġc a
Ġr a
Ġg n
Ġm ot
Ġm Ã¥
Ġes teut
ou t
Ġ Ã¨
Ġ ou
Ġm a
es s
g ne
t i
I l
Ġ R
Ġf Ã©
re ye
Ġ u
ae djes
Ġ G
Ġ Li
Ġst Ã®
e y
Ã© s
) ,
Ġa n
Ġ T
Ġf o
l o
Ġc w
in ne
w Ã¨s
Ġ W
r Ã¥
Ġb Ã©n
u m
Ġi l
Ġt ro
i ke
Ġso l
Ġd a
Ġdi v
Ġc i
Ġs ont
ir t
xh e
Ġ re
Ġv o
c es
i te
0 0
ri jh
ol odje
Ãª yes
r Ã®
an s
t es
Ġ *
olodje ye
Ġ te
Ġ H
ac w
u re
Ġav eut
Ġ E
Ã´ p
Ġ N
D j
Ġb o
e ne
ye t
i c
on d
Ġm et
Ã© ve
ch e
Ġdj ins
Ġv a
k es
im olodjeye
Ġ J
Ġa pr
Ġs a
Ġdi t
n es
n i
Ġb i
Ġs es
in te
Ġpo l
u z
ĠÃ¥ s
in g
ran c
Et imolodjeye
t it
Ġc Ã´p
m in
Ġg ran
Ġm ins
Ġe yet
Ġ 20
Ġn i
Ġs acw
Ġd eus
e re
y is
an ce
Ġf i
o me
Ġp Ã¥r
ĠÃ¨ n
Ġm i
i sse
Ġs p
ou w
Ġb a
n ut
Ã´ r
ĠM a
Ġp tit
Ġ Â
Ġs ins
y i
ĠD j
Ġe n
1 2
ci on
i d
Ã¥ t
Ġ I
Ġc Ã¥z
jh e
Ã¥r d
Ġpl ae
M ins
Ġs ch
5 0
Ġes se
Ġe le
Ġb ou
Ġ Ã
in de
Ġv os
3 0
ss es
Ġf ranc
p a
Ġp Ã¥
Ġa c
4 0
Ġn os
Ġ V
Ġt ins
Ġa d
v int
Ġe p
Ġapr Ã¨s
Ġp out
Ġpr um
1 1
ess es
6 0
Ġsc rijh
o we
on ne
l es
o z
Ġdj oÃ»
q u
dj Ã®
9 8
n Ã©
Ġa s
9 5
7 0
" .
ĠÃ§ a
Ġd e
4 8
7 8
9 0
Ġpa yis
6 8
r in
3 5
3 8
2 2
4 5
Ġl u
Ġa i
Ġs h
Ġm inme
re ce
m a
6 5
k i
7 5
Ġgran d
z e
Ġ -
G n
Ã» t
rÃ¥ mint
w Ã¨
Ġv ey
Ġb e
Ġfo irt
ĠW alon
ĠÃ§ ou
ou s
a u
an te
b es
Ġcw and
g u
c o
Ġe v
ĠÃ¥ r
k et
Ġpa ss
Ġ wa
l er
Ġp ro
Ġm ete
Ġl on
w in
Ġfranc Ã¨s
o ye
Ġto di
Ġ Ã®
ĠÃ´ te
Ġt i
9 6
y aedje
ne r
9 4
p o
" ,
i l
Ġf r
Ġt os
Ġp u
Ġe f
Ġd v
on te
9 3
9 7
Ġb rÃ¥mint
a le
Ġl eu
p i
Ġm wa
m es
Ġdj i
Ġr o
ir es
Ġ z
it ch
re ut
v es
Ġco m
Ġm ou
7 7
2 1
Ġr at
3 4
Ġso vint
a p
ĠÂ «
3 6
es t
h in
l Ã©
l an
y in
Ġdj u
et es
gn Ã®
ae tch
z o
Ġv ol
Ġd m
Ġl om
Ġl ing
Ã¥ s
et ch
we te
Ġl e
Ã¥ d
eu re
ĠÃ´ tes
Ġ ye
4 4
8 0
a b
Ã©n s
k Ã®
p u
Ġp Ã®
Ġmot s
3 7
Ġa t
Dj i
E l
Ġb r
i y
Ġp e
6 6
v er
Ġai we
S i
Ġc ro
Ġdi re
w es
Ġg a
Ġa p
Ġ O
n o
Ġg ro
Ġf e
te ure
Ġsi e
Ġl yi
Ġe g
ĠWalon reye
5 5
w and
we re
Ġf Ã¥t
Ġ20 0
i jh
Ġsacw ants
8 8
d on
Ġ inte
er s
Ġplae ce
v r
ou m
Ġf oÃ»
P o
Ġv Ã®
ot ch
Ġa m
c Ã®
Ġco r
rÃ® t
Ġon k
p l
Ġm an
9 9
Ġm al
a v
Ġa b
Ġb wÃ¨s
st Ã©
4 7
Ġtch am
3 3
Ġp it
jh on
6 7
Ġs Ã´
f er
u l
Ġli ve
n a
re r
c t
Ġp la
er t
Ġdj Ã¥z
dj a
at Ã©n
i f
Ġen d
m inme
Ġ ter
Ġto te
Ġp Ã´
i xh
n ou
Ġye u
Ġc min
4 6
i kes
Ġprum Ã®
Ġdiv ant
5 8
i ve
n d
r Ã¨
Ġd ro
Ġm on
Ã¥ ve
Ġmet ou
E le
Ġr ac
i v
k er
e le
Ġmo es
Ġest Ã©nt
Ġav eur
ĠMa hin
Ġm ar
Ġf our
E ne
Ġf jh
Ġca wete
ĠT ch
Ġa ri
Ġtot es
o f
Ġ 18
in e
r u
Ġ qu
Ġs Ã¥
Ġp ont
ar d
c aedje
re z
C wand
Ġr as
Ġep lo
ĠL es
Ġc an
ss u
Ġdj in
Ġpa s
me xh
us t
z i
vi Ã¨
Ġsie ke
Ġt r
Ġg u
D ins
Ġl ome
it an
Ġpo r
Ġp i
Ġsi c
at ch
3 9
a de
Ġl eus
Ġc ou
Ġv eye
i on
o le
Ġtro es
Ġbo ket
l eur
Ġl atÃ©n
Ġdis k
Ġling aedje
z Ã¨s
ri s
w er
ra de
Ġte re
5 7
Ã ĩ
Ġ in
Ã¥ cion
6 4
st o
Ġz el
b a
i le
r Ã©
u te
Ġf a
Ġ Ã¨t
l on
m p
Ã¥ de
Ġan s
Ġbi esses
Ġn d
o te
Ġpa r
Ġsacw Ã¨
Ġc wa
Ġc re
Ġc is
Ġmwa isse
Ġ K
Ġl Ã¥
mint s
Ġmo en
Ġv Ã©nt
t Ã®
Ġs it
Ġl Ã¨s
int s
Ġvi e
m on
Ġb on
me t
Ġav Ã©nt
El le
Ġs eu
te a
Ġk el
p us
Ã ¢
Ã¥ le
Ġc r
Ġt our
g ra
Ġc es
Ġr om
Ġsc rÃ®t
8 5
8 7
f ond
v a
ĠdjoÃ» s
Ġplae ces
Ġ U
Ġel le
Ã´ t
p er
Ã¥ l
ot s
ĠcÃ´p s
i ce
Ġb lan
ĠP a
ĠmÃ¥ jhon
ĠÂ »
f eye
Ġ On
ĠÃ ħ
in ce
Ã® t
o y
Ġ ne
Ġb etch
p yÃ®
on n
Ġc on
Ġo me
Ġef ants
i sses
v ou
Ġs int
m er
Ġs u
st were
Ġvi yaedje
Ġf Ã©n
gn es
Â »
Ġ 1
Ġr es
ur es
ĠLi dje
A don
Ġb odje
Ġr Ã©n
4 3
Ã ħ
6 3
Ġev oye
6 9
Ġc ont
Ġte c
Ġfour it
a y
tch Ã®
t s
Ġvo ye
Ġs in
ot Ã®
mexh nÃ©
Ġc la
Ġco stÃ©
Ġal er
ĠÃ ł
ĠD i
C i
Ġs er
Ġpit ite
ĠA l
m an
v Ã©
Ġd in
Ġm itan
ri re
Ġo vr
Ġtro p
4 9
Ġc al
Ġv e
ĠcÃ¥z e
o p
u me
Ġe y
Ġtch er
pr Ã¨s
Ġptit s
Ġzel s
o dj
Ġdi jh
Ġd dja
on e
vi er
Ġv s
Ġvi y
Ġt ra
Ġr c
i er
Ġ )
Ġmal ade
el es
Ġdis c
ĠpÃ¥r ti
n Ãªye
it Ã©
Ġs aetch
im be
d a
r ou
te ye
Ġv out
Ã´r es
Ġdju sse
a pe
ant Ã¨s
Ġp ou
Ġga z
xh Ã®
Ġlon g
m and
Ġc l
Ġco Ã»
xh on
o ir
v ant
Ġs on
Ġn ou
ae ke
Ġso r
Ġh ou
Ãĩ a
e m
h onne
Ġc our
ĠS int
Ġno sse
Ġep la
Ã§ mint
c a
p s
Ġc h
Ġm in
ot es
l Ãªye
re yes
Ġr l
ant ch
ins e
Ġrat our
Ġl in
ĠB a
Ġri c
Ã¥ te
Ġpa d
ke pyÃ®
z eu
le te
Ġdj ouw
ĠM otÃ®
Ġti esse
m Ã¥
Ġan Ãªye
Ġvie be
e d
Ġa r
20 0
no xh
o e
t Ã©
Ġco ir
ci eus
Ġri v
Ġcw Ã¥r
g a
Ġ 2
ĠÃ¥ d
ĠB el
Ġad on
l Ã®
Ġ ;
Ã´ de
dj re
Ġk Ã©
Ġsi er
9 2
ra mexhnÃ©
t ins
10 0
Ġdo et
Ġmo irt
Ġgro s
Ġ 3
Ġb at
Ġdj us
Ġi d
st r
Ġgran de
e jh
Ġ âĢ
ou kÃ®
Ġv ont
8 6
m o
t o
in i
en es
7 6
9 1
i de
y on
Ġl s
Ġp al
te ur
Ġf Ã¥
Ġf am
Ã «
Ġl eye
ss Ã®
5 6
8 3
i me
7 4
a ire
v Ã¥
Ġmi ete
Ġpass er
Ġfe me
Ġdi fer
5 4
Ġtch ans
la m
Ġvol tÃ®
Ġle yÃ®
Ġgu ere
b Ã©n
o wes
Ġdi zo
Ġr t
7 3
Ġdj onne
Ġpr on
Ġtch aeke
ĠF ran
A prÃ¨s
Ġa ir
Ġt Ã®
Ġsins e
Ġ ins
de ne
p es
Ġdi er
Ġr am
Ġan Ãªyes
k Ã©
an ces
Ġno ve
N o
n Ã¨t
Ġa h
Ġm uz
Ġou y
Ġba st
u jh
Ã¥ re
ĠC h
Ġr s
8 4
f wait
ĠÃ¥ reut
5 3
ro Ã»
Ġo r
C ome
c on
Ġp rez
Ġf or
al es
Ġtch Ã¥
gu e
Ġcwa te
u d
Ġsh u
n s
Ġ 17
Ġdi d
Ġb ot
Ġpr ind
ĠN am
Ġef ant
o v
Ġbi esse
a i
Ġmot Ã®
ĠÃ§ou la
n aedje
Ġ ot
Ġa f
Ġf eu
ot che
Ġvi c
xh es
wa ite
ol odj
Ġ xh
Ġt ri
al er
eu se
ĠpÃ¥r t
ĠsÃ´ re
Ġepla id
Ġv Ã®s
e an
l Ã¨s
o ri
u n
Ã´ ze
li jhe
D i
y ins
Ġg o
Ġas teure
ĠÃħ r
oukÃ® z
Ġs Ã´res
ĠmÃ¥ y
Ġvo sse
Ġfi jh
Ġmalade ye
7 9
ae ce
jh ey
C o
D is
b or
l Ã¥
z Ã®
on de
ou ve
le z
15 0
Ġci sse
Ġ 10
25 0
i ss
l in
Ġm es
Ġtch Ã´
ĠL e
Ġh Ã´t
b i
Ġ ),
te as
ĠL a
Ġd s
ĠdjÃ¥z ant
b ert
i k
Ã Ī
Ġc onte
le t
oÃ» s
ĠF ranc
Ġte y
a ye
m ot
w ou
Ġd an
Ã¥ v
dj ike
et s
Ġg re
at che
Ġt uz
Ġmon de
c int
r on
ci ons
Ġo ssu
I stwere
f e
l ou
dj in
tch e
Ġsa v
Ã´r d
Ġbou ne
Ġpu rade
c u
i jhe
er es
Ġdis pu
n t
Ġn a
19 0
18 0
i st
v Ã®
Ġt im
Ġv int
16 0
14 0
Ġdv ant
Ġdm or
Ġap la
d s
Ġa ss
Ġb er
ĠM ar
24 0
Ġfam ile
u c
re y
Ġv ra
le a
Ġpa sse
Ġ" .
ĠD e
17 0
13 0
27 0
Ġma gnÃ®
00 0
ĠPa yis
8 9
N os
S acw
a d
e z
o yÃ®
Ġe m
te u
Ġt oÃ»
ant es
ro pe
5 9
l eu
Ġm est
re xh
28 0
23 0
29 0
Ġpro v
Ġcmin cÃ®
leur s
. .
A l
p et
Ġr im
26 0
Ġbe a
Ġovr aedje
Ġviy aedjes
D es
b li
w al
Ġdj on
ess Ã®
Ġwa ire
Ġmou mint
ĠNam eur
s es
t Ã¨s
Ġ 16
Ġm w
Ġscrijh eu
Ġling aedjes
ĠBel djike
in nes
in rece
eu jh
ri ke
Ġvo et
4 1
V os
d o
p li
Ġn ute
Ġpr inde
eujh inme
3 2
4 2
Ġ 15
Ġd Ã¨s
Ġs ou
Ġs kepyÃ®
Ġt Ã¥rd
Ġptit Ã¨s
Ġter t
c Ã´
Ġ 5
Ã¥ y
Ġdj am
Ġi mÃ¥
en ne
Ġvo y
ĠI n
Ġeplo yÃ®
6 1
6 2
Ġpa p
itch Ã®
z im
te re
Ġli ves
Ġpr Ã¨s
ĠJ ean
Ġev nd
Ġ ing
Ġt ou
it che
Ã´ re
Ġprum ire
Ġd ene
Ġt Ã©
Ġsi st
Ġvi ye
ĠtÃ® xhon
3 1
Ġ +
Ġd Ã¨
Ġm ont
ti f
A vou
k s
t oÃ»
Ġr is
Ġdiv ins
Ġpass Ã©
Ġbetch ete
ĠFran ce
Ġdjon nes
7 2
r inne
Ġd eujhinme
Ġm Ã´de
re t
Ġes honne
eur es
Ġscrijh aedjes
Ġcmin ce
ĠDi u
T ot
i ye
o c
Ġp ic
Ġc ur
Ġf ot
Ġsi p
Ġw an
our d
Ġblan c
Ġc Ã©n
Ġc am
Ġm win
re v
me te
Ġwalon s
ĠcÃ¥z u
Ġlom Ã©
l tins
an de
Ã´ te
7 1
Ġdj h
ro et
Ã» s
Ġou xh
Ġsa kÃ®
Ġeg lijhe
Ġpron on
Ġapla caedje
T ch
d es
r esse
v Ãªye
Â °
Ġ Y
Ġ int
ol es
Ġo f
Ġfi er
otch Ã®
Ġboket s
Ġser Ã¨
' '
i e
r es
Ġe ter
tch ant
Ġmest Ã®
1 25
a te
Ġd u
Ġs e
Ġv in
ri m
xh aedje
ĠB on
Ġbe le
au x
Ġins i
1 24
1 27
S o
Ġp eu
Ġc ra
Ġt ouw
ĠA n
Ġend Ã¨
Ġpas k
Ġtey Ã¥te
1 14
8 2
g o
i z
Ġ 4
Ġe r
Ġc noxh
Ġt in
im Ã¥
1 18
1 23
Ġr fond
Ġes pa
1 20
1 10
1 15
1 13
h i
u mint
Ġ Et
Ġa sse
Ġf al
Ġpa t
ĠpÃ¥ s
ĠpÃ® ce
Ġrom an
1 16
1 28
1 26
1 29
f a
l aedje
r Ãªye
y inne
ri y
se gnes
Ġtro ve
Ġpol it
ĠÃ¥r ti
1 19
1 17
t ant
Ġf ro
pe te
wait Ã®
ĠH a
Ġgrand s
Ġat a
Ġpit it
2 19
2 15
2 17
2 13
2 24
ch el
Ġv nou
ĠM Ã¥
li dj
uz e
2 20
2 18
2 10
2 16
2 14
2 25
2 27
2 28
2 26
2 23
2 29
b er
t a
u sse
Ġm ol
Ġi mp
ran s
ĠU rope
Ġgaz ete
k in
l and
Ġs et
Ã» te
ĠÃ¥ toÃ»
ont ins
ĠR e
Ġres p
Ġtert os
Ġc at
Ġdi viÃ¨
Ġh a
ĠH en
Ġsh of
Ġnd Ã¨
ĠÃħr dene
Ġa ma
Ġe c
Ġmet owe
atch es
Ġsist inme
c cion
z eye
Ãª y
rijh aedje
Ġsa it
po irt
Ġ Ã©n
Ġl Ã©
in er
Ġs ac
Ġe rÃ®
Ġdi ssu
Ġr pr
it es
Ġrac segnes
Ġasse z
l mint
Ã´ be
Ġsc rire
ind ou
Ġpol Ã¨t
Ġgro sse
gra feye
ĠmÃ¥jhon e
i b
l le
Ġ Ã¨s
Ġa g
Ġt a
Ġt oum
ye l
Ġb out
h a
i be
o i
o k
Ġs etch
Ġp er
Ġdi m
Ġdi ale
Ġm eye
re ne
Ã¨ r
Ġr Ã¥
Ã´ z
ĠM ou
Ġdiv ni
Ġqu i
Ġid Ãªye
n ant
v aedje
Ġ 7
Ġd nÃ©
Ġc rÃ¥
Ġm os
Ġr Ã®
yÃ® s
ar t
Ġscrijh eus
ĠpÃ® ces
Ġm u
dj wÃ¨s
el Ã¨s
xh ons
Ġ" ,
Ġdis f
Ġba te
pu rade
ĠlÃ¥ dje
Ġvra iy
Ġ Z
Ġ 14
Ġa ra
Ġco st
ant che
ri xh
Ġw Ã¥rd
Ġo ct
Ġpl ante
Ġing lÃ¨s
Ã¥ reye
an e
Ġv atches
Ġr in
Ġso lea
Ġmo st
Ġra p
ijh Ã®
ĠsÃ´ d
Ġtec ses
Ġbast i
Sacw ants
ĠcÃ©n k
Ġe zÃ¨s
dje t
Ġso ci
Ġwalon e
ind aedje
Ġpro d
Ġc ins
Ã¥ ke
Ġf ou
Ġb an
Ġv atche
Ã¥r t
Ġw ice
ĠB ou
ĠC al
eur s
Ġvey ou
Ġtr Ã´
a ss
Ġp ers
Ġb in
Ġou jhe
Ġfr Ã¥z
Ġpe a
a ra
i ons
m ont
Ġt ap
Ġf ond
er d
ro z
oÃ» t
Ġno v
Ġdiv nou
Ġre dj
Ġsacw antÃ¨s
Ġdier in
5 1
L oukÃ®z
g e
Ġd on
Ġf ini
Ġv al
ĠÃ¥ jhey
Ġtch ant
Ġfo yes
Ġdv ins
Ġsin cieus
djre Ã§mint
Ġtchans ons
Ġrt ro
Ġoct Ã´be
8 1
b on
Ã´ tes
Ġco p
Ġtch ape
Ġvi z
Ġmou ssÃ®
p Ã©
p rez
Ġ 6
Ġ X
Ġa wÃ¨
Ġs am
Ġc as
dj o
Ã» sse
ĠB ru
Ġapr ume
Ã¥rd s
Ġdro et
Ġcan dj
Ġlin win
djre us
ĠâĢ ľ
b ou
c tif
d is
Ġs ere
Ġc Ã¥
Ġt ite
re u
Ġf l
Ġn in
ve ye
ĠW al
Ġdm and
lam ind
m b
p it
w alon
Ġl etes
Ġi vier
Ã» ve
ti te
Ġprum Ã®s
Ġgrand Ã¨s
Ã¥d es
Ġfjh eut
Ġeplo ye
) ;
c feye
p w
p lo
Ġd zo
Ġe ures
Ġc int
Ġc ene
Ãª re
Ġtch v
Ġpad rÃ®
wou sse
imÃ¥ djreÃ§mint
s o
s in
Ġ /
Ġa sto
ĠM o
13 5
Ġpl in
ĠP o
um ont
n Ãªyes
Ġ j
Ġp ire
Ã¥ ye
ĠÃ¥ bes
Ġg r
Ġg ri
Ġtch a
Ġal Ã©ve
Ġsc ole
Ġai wes
Ġeplaid Ã®
5 2
s i
Ġd ner
Ġon e
ss Ã¨s
jh es
Ġda b
ĠÃ©n dj
h an
Ġ 24
Ġp ins
Ġm e
re ces
Ġv Ã©n
me y
Ã´ pe
Ġdj ae
ĠÃ¥ be
at s
ran d
Ġst roet
27 8
Ġvi ker
Ġma gn
Ġ20 00
qu e
ĠWalon s
no xhe
Ġlinwin cieus
f i
k Ãªye
Ġ Il
Ġp Ã®s
Ġr v
ra c
10 8
16 8
14 8
25 8
28 5
28 8
23 8
Ġre xhe
Ġtcham pi
Ġtcham ps
Ġpas ki
Ã¢ r
Ġson k
Co inrece
h onn
in ltins
Ġa wousse
Ġb roÃ»
Ġdo Ã»
ke pi
19 8
20 8
18 5
18 8
15 8
17 8
16 5
13 8
24 8
25 5
27 5
26 8
29 8
ĠÃ´ r
Ġra de
Ġma ri
ĠG u
ĠHa ust
Ġdab Ã´rd
P u
s teure
Ġl zÃ®
Ġp ris
Ġp tite
Ġt ae
Ġf eye
Ġtch Ã©n
ĠD umont
10 5
26 5
29 5
ĠS ch
Ġto fer
Ġca f
ĠG n
Ġcor on
n Ã¨s
u cion
Ġl ontins
Ġe d
Ġdi y
Ġdi st
Ġm Ã®
Ġr it
Ġco purade
Ġpo y
et Ã©
19 5
20 5
Ã§ aedje
15 5
Ġ: ''
17 5
14 5
24 5
23 5
ĠG il
Ġci al
Ġad dje
Ġcro ejh
ul t
ĠÂ» .
Ġtchans on
ori r
o is
re us
Ġr ae
Ġco ss
20 7
16 7
29 7
Ġu z
ĠE l
Ġwa er
Ġbr ut
pl in
pet aedje
P or
e de
o it
p h
r ont
u de
v Ã¨t
Ġt ant
Ġf leurs
Ġtch vÃ¥
âĢ Ŀ
18 7
Ġo v
14 7
27 7
28 7
23 7
ĠE ne
ĠE st
ic mint
pa gne
Ġmar tch
ĠkÃ© cfeye
rev Ã©ns
Ġpers ou
d er
Ġdi pus
Ġk in
Ġv ni
19 7
10 7
15 7
17 7
13 7
24 7
25 7
26 7
ĠÃ´ tÃ¨s
Ġma y
yi ve
Ġde c
Ġ200 7
Ġcre xh
Ġmos tere
L W
O u
a z
Ġr Ã´
ve n
Ã¥r s
ĠA v
Ġre xh
ĠJ o
Ġeg zim
Ġcor ant
av Ã¥
Ġpap Ã®
pw is
Ġtchv Ã¥s
L a
c ou
u di
Ġa st
ir s
ra m
ĠF orir
aetch Ã®
Ġcal caedje
ĠcwÃ¥r s
c rÃ¥
i a
l ons
p la
t ot
u ss
Ġa u
Ã¨ re
Ġf lo
Ġb al
ae gn
Ġki min
sse le
ĠC oÃ»
25 6
Ġfi esse
ĠDj i
Ġman ire
Ġsic rijh
Ġne l
Ġsier vi
ĠtchÃ´ d
ĠimÃ¥ djes
Ġara be
Ġa tch
Ġs pe
Ġr m
Ġav ans
ro k
20 4
Ġst o
Ġpl antes
ĠR o
Ġscrijh aedje
Ġviy Ã¨s
b out
c Ã¥
l ot
t r
v ol
Ġc m
Ã¥ me
Ġn oÃ»
Ġdj eu
st ant
ĠS i
Ġma me
ĠpÃ¥r teye
otch es
Ġmw ins
D iv
p ont
t re
z er
ou x
Ġf waite
ch er
Ġr odje
Ġr owe
Ġco gne
23 6
ouw er
Ġpar ints
met ou
Ġtec se
ime ye
Ġmuz ike
Ġaddje ctif
C es
Ġ 8
es tea
Ġl an
Ġa id
Ġpo yes
19 4
19 6
20 6
18 6
10 6
15 4
15 6
14 6
13 4
Ġtro ver
Ġde dja
c rijhaedje
t in
t Ãªye
u f
Ġd zeu
Ġl ete
Ġp ere
Ġdi lÃ©
te ne
Ġf wa
Ġv l
Ġdj our
Ġav eu
10 4
Ġo mes
17 6
16 4
16 6
14 4
13 6
24 6
25 4
27 4
27 6
28 4
28 6
26 6
29 6
di v
ĠS om
ĠmÃ¥ lÃ¥
ĠR om
ing u
Ġsh ijh
itch ant
Ġcre xhe
Ġrc wer
" ).
b an
n Ã®
o sse
Ã Ķ
Ġ 12
Ġt ol
Ã¨ te
Ġf in
Ġb as
Ġco leur
Ġpo irt
ri c
jh Ã®
18 4
Ġal mand
ĠB al
17 4
24 4
26 4
23 4
29 4
ĠS o
Ġpr in
id es
Ġdm o
Ġtcham p
Ġdan djreus
a me
a sse
c ome
k Ã¨s
m i
Ġp rijh
le ts
Ġso v
ĠL uc
Ġvi ke
Et o
Ġmet es
ĠÃ¥r Ã¨
Ġmwa isses
Ġras co
Ġsaetch Ã®
Ġnove le
Ġouy s
Ġsere ut
a ve
f ab
m Ãªye
n aedjes
n Ã©s
o b
o xh
Ġs eur
Ġp et
Ġc ar
te us
Ġv ir
Ġr wÃ¨
Ġav oz
Ġso ce
Ġtch ap
ĠM i
ĠA r
ĠmÃ¥ ss
Ġsp l
Ã¥s h
zi st
Ġric noxh
Ġprez int
ds chel
M i
f in
k Ã¨t
o ele
p Ã¥
r y
Ġl aece
Ġp ri
Ġb Ã¥
Ġi stwere
de y
20 3
18 3
ĠD is
17 3
14 3
25 3
27 3
gn on
Ġdis ch
Ġri walon
Ġra mexh
Ġfo ice
ĠV er
Ġpro f
Ġpro gra
po y
Â» .
Ġdifer in
ĠHen dschel
ĠBru ssele
Ġcoss ou
D id
S es
c s
Ġ 13
Ġm at
Ġm Ã¥r
Ġes pli
Ġso eye
Ġtch im
19 3
at ike
Ã§ on
10 3
Ġo cu
15 3
16 3
13 3
24 3
28 3
26 3
23 3
29 3
Ġtour ner
Ġid Ãªyes
ĠdÃ¨ l
Ġriwalon ijhÃ®
' -
o en
Ġc inse
Ġdi man
ne u
ne ut
Ġb ra
me as
Ã´ me
ke ye
Ġtot Ã¨s
Ġno le
vi ete
Ġma gne
Ġbou ter
lan de
ĠdjÃ¥z er
Ġres c
Ġdijh Ãªye
Ġsor lon
ĠÃ¥d zeu
Ġnove a
Ġds u
n ance
w inne
Ġl o
Ġs Ã¨s
Ã¥ ler
Ġm er
Ġm ac
Ġb elÃ¨s
Ġli mer
Ġg rin
Ġpa tes
am p
16 9
pe a
ĠS t
Ġno er
pr ind
Ġan c
ome ye
Ġbr ou
Ġfe mes
Ġsie ve
Ġmoen s
Ġblan ke
djin Ã§
Ġmost rer
Ġlaece a
o d
w i
Ġl ey
Ġl zÃ¨s
Ġs ot
Ġb Ã¥sh
oÃ» le
18 9
ĠB e
17 9
26 9
Ġh am
ĠA f
Ġto plin
gne ur
ĠT h
Ġcw Ã¨
Ġsa yÃ®
Ġcom p
Ġdju n
Ġam on
Ġrac ont
Ãĩ ou
Ġseu le
Ġbetch f
antch Ã®
olodj ike
Ġspl itchant
n Ã©ve
y a
Ġ us
on g
Ġc ir
Ġm Ã©
dj i
dj Ã®s
Ġv ind
ro c
ĠÃ¥ cint
Ġal fab
27 9
di mint
Ġmet ans
yin ce
Ġdm eure
Ġgro ssÃ¨s
Ġpla ke
Ġcr ust
Ġwan gnÃ®
Ġof ic
land Ã¨s
ĠCoÃ» tchant
c Ã¥z
g l
g rÃ©
r Ãªyes
z a
Ġs inne
Ã¥ jhe
me ye
Ġco ri
al a
19 9
20 9
Ã¥r es
10 9
15 9
14 9
13 9
24 9
25 9
28 9
23 9
29 9
Ġmo d
Ġma ch
Ġrl om
Ġvic Ã¥reye
Ġama gnÃ®
Ġcost Ã©s
Ġstroet mint
ĠSom me
c teur
v ins
Ġ oÃ»s
Ġd pus
Ġp ond
ch a
jh ons
ĠD ins
li ard
Ġpol eur
ĠI mp
ĠcÃ¥z ant
Ġac le
if s
Ġdro ete
Ġrom ans
Ġprez id
Ġdjh eut
Ġfro ed
Ġsac wÃ¨s
Ġoujhe as
ĠÃ©ndj ol
Ġlinwincieus Ã¨s
M et
Q u
l Ã©s
Ġs ourd
Ġp our
Ã¥ ves
re xhe
Ġb oÃ»
Ġb inde
Ġr ire
me nt
Ġco in
Ġtch inne
im bor
Ġst r
Ġal Ã©nt
Ġdis p
Ġbo ir
ĠpÃ¥ djes
Ġter es
Ġsic rÃ®t
Ġvie bes
Ġmalade yes
ĠGil liard
A steure
l u
v in
an ter
Ġv nÃ¨t
Ġn u
Ġr ou
er ma
Ġco bÃ©n
Ġpo li
al Ã©
ro e
ro s
Ġvi jh
ĠÃ§ k
vi e
vi ers
ĠpÃ¥ dje
ki pe
Ġmwa is
Ġari ver
Ġcour t
Ġvoy ale
Ġcur Ã©
Ġasto k
Ã¥ler wÃ¨
t ra
y ons
Ġ 30
Ġl oum
Ġk m
ce a
Ġw al
ĠL ou
Ġst udi
Ġpl ou
Ġdis la
ĠR em
Ġmet ous
Ġac cint
co le
Ġfr ont
Ġras crÃ¥
Ġcan djÃ®
Ġpi erd
atch Ã®
Ġdjouw er
Ġalfab et
C isse
g an
i we
z Ã´tes
Ġe ure
Ã¥ cions
Ġf lamind
Ġr inde
Ġest Ã©
Ġdo be
ĠM ont
am be
Ġpl ouve
Ġra f
ĠMa rok
Ġscrijh a
qu es
Ġat ra
pl ae
Ġcla ss
ĠFranc ard
a ires
c w
d ins
s on
y ant
Ġs Ã¥r
Ġp win
Ġe viÃ¨
Ġc ri
Ġm am
Ġb ire
Ġv ous
Ġv ud
Ġpo Ã»
ĠÃ¥ k
Ġpa yÃ®
Ġh ap
Ġca we
Ġvo yes
Ġmi er
av ou
ĠTch Ã¥lerwÃ¨
ÃĪ n
Ġprod Ã»t
T os
b l
c c
c in
n is
Ġs inte
Ã¥ m
Ġdi f
te yes
Ġf on
Ġb ri
Ġ( "
ae dj
it Ã©s
Ġco djo
Ã» le
Ġtch oe
ir ter
ran te
Ġno m
Ġtro ejh
xhe a
Ġsa ye
ma gne
Ġpass aedje
Ġrat ind
Ġeg zist
Ġcis te
ns i
ĠmÃ¥lÃ¥ jhey
A lez
D o
E nd
I n
M a
c lo
d Ã©
s h
u ni
w Ã©
Ġdi cÃ¥
Ġr ind
ae djÃ®
Ġco pete
int che
Ġg ra
Ġso gne
Ġtch et
se ph
ĠD en
ac le
ĠB ijhe
Ġvi er
Ġcome ne
Ġdis wal
Ġra d
Ġsa p
Ġsp Ã¥rd
Ġmou ss
Ġlom Ã©ve
Ã¥d s
Ġcont in
Ġshu v
Ġot o
Ġresp ond
Ãªy Ã¨s
Por tant
I nsi
d in
d ou
n u
Ġd Ã¥
Ġd ra
Ġp ires
Ã¥ les
Ġm esse
Ġr ond
er i
ot lÃ®
Ġpo ite
Ġdj ond
Ġdo s
ĠÃ¥ ye
Ġg al
ke te
Ġtch ante
ĠB i
ĠC ol
ĠA mer
Ġmo rou
ĠE s
ĠDj ez
ĠcÃ¥z er
Ġsch oÃ»
ĠÃ Ķ
Ġev oyÃ®
Ġlom Ã©s
Ġcro ey
ĠdjÃ¥z e
Ġgaz etes
Ġrfond ou
Ġfal eut
ĠRem acle
O mon
f Ã©
l Ã´
Ġ &
Ġ y
Ġc enes
Ã¥ dje
re a
re ur
Ġb ro
Ġb leu
Ġv Ã¥t
Ġr lidj
Ġdes sin
Ġpa cÃ´
ĠC on
vi en
Ġra b
Ġra poirt
Ġmet owes
Ġmal Ã¥de
Ġpla ijh
ert s
Ġfjh Ã¨t
sto gne
ĠK i
oy Ã©
Ġmol Ã©n
Ġprezid int
' t
d el
o grafeye
r ins
Ġs fwait
Ġc ot
Ã¨ ch
Ġr al
ae gne
Ġco le
ve y
im on
Ġo stant
ĠS ara
Ġcome re
Ġsc ol
Ġsc oles
Ġbi jhe
Ã´r t
ĠI I
Ġfranc esse
Ġdju lete
iy nut
Ġab eye
Ġari ve
Ġcaf Ã¨
P a
P us
l s
Ã ł
Ġa djinÃ§
Ġc noxhe
Ġdi str
Ġm ic
Ã¨ sse
it i
Ġav Ã¥
Ġpa rey
Ġtch estea
ir on
la ire
di re
ĠS c
Ġpr Ã©
Ġh Ã¥y
Ġmo ri
om b
ĠG rand
Ġen ond
Ġdv Ã©nt
Ġpi ede
Ġzel es
Ġratour ne
ĠBa stogne
No sse
Ġor to
Ġtchampi on
Ġcroejh ete
Ġbetchf essÃ®
ĠDen is
V ic
a er
h e
Ġ 50
Ġd ints
on es
Ġp el
an vÃ®
Ã® re
Ġt Ã©nt
Ã¨ le
Ġf ran
Ġv Ã´
Ġes c
Ġet imolodjeye
Ġco l
ĠÃ¥ dje
wa ire
âĢ ¦
ci al
Ġh Ã¥
ĠP r
ĠÃ§ ki
Ġri ss
Ġre y
Ġas kepyÃ®
Ġbe d
mo en
Ġram ass
ĠfrÃ¥z e
L e
T i
a st
b Ã¥
f oÃ»
m pe
v mint
z in
Ġd ans
Ġl Ã®
Ġa dj
Ġe ri
ou l
ou te
an g
Ġm ous
Ġco xhes
ant oele
Ġdj onn
us e
Ġtch ey
Ġtch Ã©ns
se ne
ĠB o
ĠÃ´ re
Ġra dj
ĠW i
ĠN oyÃ©
gu es
Ġfr ut
Ġga yel
Ġmoen ne
antch es
con omeye
Ġgo vien
ĠFranc Ã¨s
Ġsav eur
Ġcnoxh ou
Ġcat ol
Ġdim or
ĠMou ze
l Ãªyes
v rÃ®
Ġp ur
Ġc ons
Ġr ot
me ne
le tes
Ġest oz
jh an
at es
ĠM at
ci p
Ġsa i
Ġbi y
rin dj
aetch e
Ġbr esse
ĠO t
Ġras h
Ġdisc onte
Ġpad vant
Ġsier v
Ġdifer ins
prez int
erma in
f r
l Ã©ve
u w
w aedje
w etes
Ġp ot
re te
ch es
Ġav i
Ġav ri
ri sse
Ġg l
Ġg ote
On k
ar in
ĠG ermain
Ġan t
Ġbou te
Ġas kepi
Ġari meas
onn rece
ĠAl mand
Ġmoirt s
Ã´ze f
Ġdmor Ã©
ĠtoÃ» ne
Ġset imbe
Ġdec imbe
Ġdjour nÃªye
Ġtroejh inme
b al
h y
l Ã¨t
n Ã©nt
n ike
Ġ ind
Ġs em
Ġc lo
an djÃ®
Ġdi rÃ®
Ġm eur
Ġt Ã¥ve
ne a
ye u
Ġn Ã´
ro le
Ġtch Ã®
Ġtch en
am a
Ġo y
pe ne
ĠP ol
Ġdis pa
ĠF el
Ġca rac
Ġsch a
Ġscrijh as
Ġfr ume
Ġfe vrÃ®
Ġtcham be
ĠTch Ã¥r
fond owe
Ġdan djÃ®
Ġprov ince
Ġtchape a
ven ir
ĠAf rike
A venir
a xhe
i dje
l ant
p ol
v ous
Ġd Ã©
Ġl Ã¨
ne t
Ġr itch
Ġr waitÃ®
Ġco d
Ġco ixh
Ã¨s t
Ġdj anvÃ®
Ã» r
ve a
st ike
we z
im es
ĠB en
ĠC o
ĠC ar
Ġpr Ã´pe
Ġto et
Ġdiv Ã©nt
ĠH am
ĠN onne
uz ance
ĠDj an
Ġsch ap
ĠpÃ¥ p
ĠV ers
Ġbe dje
Ġsic onte
ĠÃ¥jhey mint
Ġdmand er
vol ucion
Ġfwa iynut
tra it
ĠDjez us
Ã¨ch eur
b r
l om
o ke
o xhe
r landÃ¨s
u we
y Ã©n
Ġc er
an c
Ġf la
Ġv inte
Ġn ot
me a
dje ye
ir mint
we y
ĠB er
Ġpl an
Ġh o
Ġno ere
ĠP Ã¨cheur
ind Ãªye
ĠÃ´ t
Ġ19 40
Ġra v
ĠR en
Ġbo ke
Ġmete ut
Ġ200 8
oir d
Ġhou te
Ġtri b
Ġsou ke
Ġpap Ã®s
Ġsoci etÃ©
Ġnov eles
ĠWal lons
ĠJo seph
Div ant
Ġdmo rer
D inltins
m ots
o va
u j
Ġ our
Ġ 40
Ġd eure
Ġdi me
Ã¨ ne
Ġv er
Ġv ete
Ġet ur
Ġpo we
Ġli jh
Ġav e
Ġg am
xh ant
Ġsi gneur
ont inne
ĠD u
ĠD es
Ġo ra
ĠC hin
di a
Ġno zÃ´tes
Ġmo str
Ġri d
Ġ19 60
Ġra vi
Ġra pl
Ġfo ir
Ġbo ere
au d
ket s
win nes
Ġro te
Ġcom if
Ġdro le
Ġmoen ner
ĠimÃ¥ dje
Ġpolit ike
ĠMÃ¥ m
ĠÃ¨s t
ĠwÃ¥rd er
Ġboir d
ĠpoÃ» ss
ĠAlmand s
Ġcomif Ã¥t
g es
g zim
y Ã¨t
Ġl wÃ¨
Ġp ene
Ã® z
Ġr wait
me n
el le
ri ce
Ġtch ere
ĠM e
ran ce
Ã§ a
ĠL ov
ĠC ome
di c
Ġno r
ĠA nd
pr inde
Ġdis m
ind rÃ®
Ġ19 0
Ġou ve
Ġfo k
ĠW ar
Ġtro ke
Ġtro vÃ©
ĠH u
ic ol
Ġsp it
ĠDj er
Ġsh Ã»t
ĠÃ¥r mÃªye
Ġwa i
Ġvol a
Ġ200 3
Ġam our
Ġfjh ant
Ġin f
ĠÂ» ,
Ġne ye
Ġve yes
ĠfÃ¥ ves
ĠsÃ´d Ã¥rds
ĠSch o
Ġpersou naedjes
Ġkin oxh
ave Ã»t
Ġnom be
Omon imeye
ĠMÃ¥m dey
f es
i ci
s ch
Ġs ur
Ġm imbe
Ġt rin
ch Ã®
Ġv inde
ae ye
ss on
Ġpo sse
Ġdj al
jh ene
Ġtch Ã¥r
Ġtch min
ĠM er
ĠA LW
Ã¥z e
Ġmot lÃ®
ess ion
lo te
Ġre cher
yet s
Ġba tea
ab Ã´rd
Ġmin mes
Dis pu
Tch er
Ġpeu pe
ĠlÃ© t
ĠbÃ¥sh ele
Ġgovien mint
" )
S ol
a k
w esse
Ġ 9
Ġ ner
Ġd aegn
Ġa lez
Ġn onnrece
Ġr Ã§
Ġr mete
Ġest at
ol a
Ã§ ons
im b
pe lez
Ġh e
ind es
Ġra mexhnÃ©
Ġdiv int
Ġte le
ĠN o
Ġsp ot
Ġba gu
Ġele ct
Ġwa ibe
Ġpu pont
Ġcom ment
pu bli
Ġap pelez
Ġ200 6
Ġmon ter
Ġfjh a
Ġari vÃ©
Ġovr Ã®s
Ġratour nÃ©
Ġfijh eut
Ġdjam bes
Ġcra p
Ġviz aedje
ĠAv is
ĠVer vÃ®
Ġmach ine
ĠtchÃ® f
ĠFel ler
Ġrecher che
C h
R i
c ro
l Ã®s
v imbe
es ter
Ġp w
Ġp ind
Ġt revÃ©ns
Ġf win
Ġr u
Ġr est
Ġi s
Ãª tre
ve ke
de le
ol aedje
eus es
ĠD jhan
Ġst ud
ĠB ar
di cion
ĠS m
Ġpr ins
wait aedje
Ġpl eut
Ġpl inne
Ġh intche
Ġdis poy
Ġmot oit
ĠmÃ¥ jhons
ti ke
Ġu ni
ĠG of
Ġan on
inne r
rÃ¥ ve
Ġci vi
ĠN ive
ene rÃ¥
ĠpÃ¥r ler
Ġmi l
Ġsch av
Ġbe as
Ġfr Ã©
Ġdji vÃªye
Ġlom nut
Ġnd aler
Ġseu lmint
Ã¥l tÃ©
Ġepla ide
ĠBa sse
Ġgre k
rexh ou
Ġint rÃªye
Ġtoum er
Ġsam winnes
Met ans
Ġcoin es
ĠnÃ´ vimbe
ova erts
Ġave Ã»t
ĠNive le
N i
a ri
a zi
b o
c k
c ant
g r
n Ã®s
r at
t on
v Ã©s
w Ãªye
Ġ 11
Ġ 21
es ti
Ġa pa
Ġc e
Ġm atÃ©n
Ġt Ã¥v
dj Ã¨s
dj mint
Ġk eu
Ġf el
Ġf lÃ¥
Ġav Ã¥r
ce p
wa isse
ol and
ac ques
Ġtot avÃ¥
ĠC wand
Ġpl at
Ġh er
Ġcw eri
ĠH in
il la
Ġcor ti
ĠpÃ´ ve
ĠsÃ¥ jhon
Ġtr ou
Ã¥l mint
Ġblan kÃ¨s
Ġcal indrÃ®
Ġxh uf
Ġata ke
Ġsam winne
Ġdjae ne
ĠLuc y
Ġham tea
Ġus teye
Ġloum ire
Ġour it
Ġner Ã©n
. ,
c om
m Ã©
m ans
o irt
t Ã©s
v Ã©ve
Ġd z
Ġp re
Ġm z
Ġt re
ne te
dj oÃ»
Ġv el
Ġr itche
eu z
jh aedje
ĠÃ¥ b
Ġso ces
Ġtch ve
Ġtch esse
Ġtch ene
ir Ã¨s
we le
ĠL u
Ġvi te
Ġvi Ã¨
Ġri lidj
Ġca b
ĠR antoele
Ġac se
Ġas ch
Ġpe z
Ġpla kes
Ġfour Ã®t
Ġsit Ã®
Ġcla p
Ġdin er
ĠcoÃ» tchÃ®
Dis crijhaedje
Ġtouw er
Ġbout Ã©
Ġdiy ale
Ġramexh nÃªye
Ġgrin nes
ĠLou is
Ġvud Ã®
1 12
2 12
M otlÃ®
d eus
i j
p in
p ou
y s
Ġl odj
Ġa ro
Ġp an
an i
te Ã»t
Ġf Ã´me
Ġr f
Ġr n
ro p
ro es
ri kes
Ġpa ye
Ġtch anter
at i
Ġla id
di er
Ġvi ol
ĠS inte
Ġpr Ã´ze
om es
Ġri le
ĠF a
Ġel s
Ġ19 95
Ġfo te
ĠN op
ic Ã®
Ġad vie
Ġcro es
gra f
ĠU ni
Ġsu djet
ĠcoÃ» tchant
Ġespa gn
ĠÃ¥rti ke
Ġrit ro
Ġtol minme
Ġlimer o
ĠImp ire
ĠNop Ã¨re
' m
C or
E plo
c wÃ¨
l im
p ot
z ete
Ġ Qu
Ġa rin
Ġs ing
Ġs ust
Ġc hin
Ã© e
Ġf ab
Ġb ard
Ġv wÃ¨s
Ġco ine
Ġco leurs
Ġso Ã»
ce ye
Ġtch ess
Ġst indaedje
ĠB ra
ĠB our
Ġh al
Ġmi yons
ouw Ã©
Ġbou re
oz et
Ġlu ne
Ġpu bli
Ġ200 5
Ãħ r
ĠAl magne
Ġratour naedje
Ġbat reye
ik ins
Ġespa itchÃ®
Ġpat t
Ġprogra me
kipe dia
Ġdime gne
K i
L eu
e or
m ins
n Ã¥cion
o st
Ġ wait
Ġd rou
Ġl ou
Ġa po
Ġp en
Ã© r
Ġm ere
ye ur
Ã©n xhe
Ġet roc
le mint
Ġco min
Ġdj ou
Ġdj owe
ro te
Ġi sto
Ã» sses
at if
am b
Ġo m
ĠS al
Ġh Ã´te
pr Ãªtre
ĠP ier
ĠP iron
ur wÃ¨s
Ġfwait s
ĠmÃ¥ ye
ey ografeye
Ġfo ye
Ġre v
Ġvo yaedje
Ġbo le
Ġapr ind
Ġpol nut
Ġsp otch
ĠMa reye
Ġro v
Ġro wes
Ġbr esses
if es
ĠsÃ¥ v
Ġdin ltins
Ġve a
Ġdoet s
Ġdier inne
Ġprov Ã©nt
Ġpronon Ã§aedje
Ġmartch and
Ġegzim pe
Ġresc onte
imbor djwÃ¨s
Ġplaijh i
ĠHam teas
ĠScho ovaerts
) :
C ri
W a
a ke
f art
i gne
k Ã©s
l la
n ances
o gne
p ind
r d
r Ã©nt
u g
Ġd rÃ®
in a
in ces
on ke
Ġs Ã©
Ġc Ã»t
ou ma
an a
Ġm im
Ġm ess
Ġf ri
Ġet im
Ġet rindj
ss Ã©
Ġpo ss
Ġav an
el s
ĠÃ¥ zÃ¨s
Ġtch e
ol s
Ġo bli
Ġst rin
ĠB as
pe ye
di xh
ete r
ĠP ire
Ġcw Ã©n
Ġre plae
ĠE le
ĠN Ã´r
ic cion
Ġpol ou
ĠDj Ã´zef
ĠI s
Ġde ci
Ġlon gue
Ġter mene
Ġmar yÃ®
met ant
ĠPa ris
Â» ,
Ġtcher petaedje
ĠpÃ¥rti ci
Ġlin we
ĠÃ¥d vins
Ġpron o
Sacw antÃ¨s
rim Ãªye
ĠrÃ® les
Ġcandj mint
Ou ve
ĠnoÃ» mots
Ġlan gue
ingu e
ĠdicÃ¥ ce
Ġbed ots
Tcher petaedje
euz mint
2 11
T uzance
a fwait
g on
g lijhe
i aedje
j e
l eus
o enne
t h
u v
Ġ 25
Ġd mey
Ġd bout
in mes
Ġp riy
Ġe dj
Ġc Ã´
te ures
Ġt u
Ġt an
Ġf ene
Ġb or
Ġb rÃ¥
Ġv eu
Ġr int
me re
dje ts
Ġdj enerÃ¥
ont a
at a
la i
ĠD el
ĠB r
ĠB or
ĠS imon
Ã¥z Ã¨s
Ġri st
ĠF r
Ġ19 98
ni sse
ance te
Ġba sse
ket es
Ġlon gu
Ġfr Ã¨
Ġfe m
Ġmar ga
of e
Ġpar int
Ġcr on
Ġbast on
Ġbot ike
Ġbot aye
Ġtim ps
Ġdjam Ã¥y
Ġcins Ã®
ĠCal ozet
ĠEst at
Ġpersou naedje
Ġsicrijh eu
Ġcossou ne
Ġavi Ã¨
ĠGof fart
Ġviol on
Ġsust ant
D abÃ´rd
I I
P ol
b is
c Ã´p
e c
h Ã¥
u le
Ġ inme
on ter
Ġs Ã»
Ġp Ã©
Ġp Ã¥zÃ¨s
Ġe mey
an eye
Ã® sse
Ġt rans
Ã¨ n
Ġr pa
Ġr ujh
Ġes pe
Ġdes s
Ġdj eus
Ġdo cteur
Ġav a
Ġsi cole
se n
ra le
ĠC ou
di o
Ġpr Ã´p
Ġh ar
or mint
li jhes
ĠW a
rijh e
rÃ® te
Ġbo djÃ®
Ġni ve
ĠDj iv
Ġesse gne
ĠpÃ¥ ye
Ġac s
Ġac cep
Ġas h
Ġlu ss
au l
Ġdv ou
Ġlom Ãªye
Ġpe xhons
Ġam er
ĠpÃ´ reut
Ġras honn
ĠlÃ¥ tchÃ®
Ġcont es
Ġric noxhe
Ġpad zo
teur s
ĠfÃ¥ reut
con om
ĠLa g
Ġpic Ã¥rd
Ġimp rim
Ġoujhe a
ult ure
Ġov rer
ĠRom ins
Ġcossou nes
Ġanc yin
Ġcrust ins
Ġtchoe zi
Ġdra pea
Ġgam Ã©n
Ġtchve as
Eplo yaedje
Ġchin wÃ¨s
Ġpatt avÃ¥
eor ges
Ġresconte re
Ġmim bes
B rÃ¥mint
E gzim
P r
V o
c ar
k Ãªyes
l odje
o ss
p or
t Ã®s
v Ã©nt
Ġ os
Ġ 100
Ġs ouw
Ġp on
Ġe vi
Ġc el
an mint
Ġm ez
dj on
ye ye
Ġf ra
Ġv ou
Ġv neut
eu x
ro vaedje
Ã¥r Ã¨
ĠM on
Ġvi caedje
Ġpl ant
ĠA d
ĠA iwe
ter es
li er
Ġ19 50
Ġ19 70
Ġ19 94
ĠmÃ¥ s
Ġou ves
xhe as
ure r
ĠJ u
Ġfi lo
Ġba teas
ĠMa ri
Ġro ed
Ġye bes
Ġam oen
Ġab at
ĠsÃ¥ reut
Ġfa rene
Ġsit indÃªye
Ã®t rinne
Adon pwis
Ġnou ri
Ġins t
un Ã¥
Ġtoum Ã©
Ġtchape le
Ġwaer ant
ĠEst ats
Ġpowe zeye
Ġstud yÃ®
Ġmil it
Ġluss imbordjwÃ¨s
L LW
c Ã®s
t aedje
v al
w o
w ifs
es p
Ġa pi
Ġc atchÃ®
Ã¥ tes
te ri
Ã® ye
Ġt ni
ye us
Ġf leur
Ġf rexh
Ġb ol
Ġn ol
Ġr aece
Ã´ s
Ġest ant
Ġpo es
Ġpo ye
Ġpo pu
al oux
ĠÃ¥ roz
de ye
oÃ» les
im ont
Ġ: :
ĠC om
ĠA b
gn Ã®s
ĠP Ã¥
Ġ19 90
ĠmÃ¥ grÃ©
Ġma yeur
ĠR a
ĠR ome
ĠG o
Ġda te
Ġvo eye
Ġbo e
Ġbo er
Ġbi z
Ġmi z
ĠV ir
68 0
po iz
yin Ã¥dje
Ġ200 2
Ġpla stike
Ġras honne
wer es
ba ye
Ġser ont
Ġtra va
Ġar est
ad as
rev Ã©n
Ġrfond aedje
Ġtchampi ons
Ġkimin ce
Ġvir Ã»sse
Ġpour cea
Ġfrume le
Ġneye rlandÃ¨s
publi ke
illa ume
ĠcoÃ»tchant rece
C a
S int
b ois
c r
d bon
h ou
i gn
l umint
m ar
n mint
o ice
Ġd r
Ġl am
Ġdi mand
ne ye
Ġf oum
Ġes s
Ġco k
Ġco inrece
Ġco viete
Ġco rante
Ġpo dbon
Ġav ni
Ġav ance
ro les
Ġsi mpe
Ġtch Ã´de
Ġtch oi
st i
la me
ĠL aloux
Ġo ri
Ġo per
ac r
ci xh
ĠC rimÃªye
Ġpl u
ĠP Ã¥ke
om be
ĠF lamind
Ġca y
Ġra w
Ġmot Ã®s
Ġu n
ĠG ran
ĠG azi
Ġfo ite
ĠW is
Ġdiv na
Ġre f
ni kes
ĠcÃ¥z aedje
Ġac cion
Ġac olaedje
ĠV i
qu et
78 0
38 0
Ġcom prind
Ġlom er
Ġat Ã´
Ġat Ã¥v
Ġat uze
Ġap icÃ®
ĠO r
Ġ200 9
don bÃ©n
Ġrac onte
ĠscrÃ®t s
Ġcon se
Ġnou v
Ġriv ni
ĠFran Ã§
Ġfijh Ã¨t
Ġrim pli
Ġtap er
Ġval eur
Ġmari aedje
Ġegzim pla
ĠTh om
Ġtchere te
ĠpÃ¥rtici pe
Ġfilo zo
ĠGazi aux
b ar
c ol
e a
f re
i les
p ar
u ro
v ri
v oye
Â ²
Ġ Ã»t
Ġd ujh
es baye
Ġl wÃ¨s
Ġl oy
Ġe conom
Ġdi ss
Ġm eurs
dj eu
Ġf er
Ġb Ã®
Ġb et
me d
it s
Ġpo irter
Ġdj Ã¥
Ġdj er
Ġdj Ã¥rd
ĠÃ¥ jh
Ġg ris
ra yel
ĠL in
Ġtot afwait
our ti
ire r
ĠÃ¨ le
um Ã®
Ġdiv ancete
Ġre c
ans es
Ġva let
Ġapr inde
Ġen ute
Ġsch Ã¥le
Ġad min
Ġad rovaedje
98 0
Ġde Ã»s
48 0
il l
il Ã©
Ġcom eres
ap on
Ġ200 4
Ġcmin Ã§mint
Ġcan adas
Ġgu eres
Ġpor djet
Ġnove as
Ġmuz ul
Ġrs aetchÃ®
Ġna teure
Ġtim pe
Ġvra iye
Ġdjam be
Ġcur Ã©s
Tch aeke
Ġtouw Ã©
Ġfini esse
Ġsov nances
Ġdisch ind
Ġpierd ou
In te
Ġis lam
Ġrov yÃ®
' d
E conomeye
R at
S Ã´res
a dje
b in
f or
g ri
i yÃ®
m ile
n Ã¥
n Ã©n
Ġ ol
Ġd nÃªyes
Ġl at
in ter
Ġs enes
Ġp ixh
Ġdi ccion
Ġm int
Ġt one
Ġt ape
Ġf Ã¥s
Ġv ers
Ġv ormint
Ġn Ã¥cion
Ġes p
ss er
Ġli be
Ġki lo
Ġdj o
wa te
Ġtch essÃ®
at ure
ĠM ins
ĠM Ã¥r
yes se
ĠD aegn
Ġo yi
23 2
ĠS LLW
Ġmo xhes
en nes
ĠP rin
ur s
ĠÃ´ le
ĠF lande
Ġca st
Ġca yets
Ġra str
ĠÃ¨ ne
ĠR wÃ¨
ĠG eorges
Ġan ti
Ġvo e
ĠH ou
ĠpÃ¥r otche
Ã¥rd aedje
ĠpÃ¥ jh
Ġprum irÃ¨s
au che
Ġrat inde
Ġpe xh
ijh es
Ġman aedje
Ġman ke
Ġin ter
ĠlÃ¥ me
Ã¥l itÃ©
ay ons
Ġnou k
Ġdier ins
roÃ» le
Ġshu ve
Ġshu vou
Ġeplaid Ã®s
Ġtim per
ĠDe prÃªtre
Ġcam aer
Ġdim eure
Ġnov elÃ¨s
Ġcop lemint
ĠGu illaume
ÃĶ tÃ¨s
Ġresc ont
Ġcomp Ã´z
ĠCon go
Ġmous mints
Ġind ust
Ġora yes
oland Ã¨s
ĠLag auche
Ġegzimpla ires
E s
T ins
b la
b iy
c Ã©n
f ant
g re
i ter
i xhe
k a
m win
p aedje
p inte
Ġd vi
Ġd Ã«
in Ãªye
Ġs al
Ġs ene
Ġp otch
Ġe re
Ġc ul
Ġb ons
Ġb atch
Ġb uze
Ġr co
Ġr metou
Ġet ind
Ã´ d
Ġest ans
Ġco lon
Ġli djwÃ¨s
Ġene viÃ¨
Ġdo ir
ro ejh
Ġso f
ve re
ce ne
wa ires
la s
ĠD aegne
Ġo d
ac a
ĠC op
24 1
Ġpl oÃ»t
ĠA ra
Ġmo dele
Ġma pe
ti ce
Dj eyografeye
Ġbo esse
Ġba le
ĠMa ss
Ġas co
Ġsh onne
Ġro ter
Ġmou sse
Ġeg lijhes
ijh aedje
Ġman oye
Ġfjh Ã©nt
ru mint
met ans
ĠmÃ¥jhon es
Ġne z
Ġcla ir
Ġtcher bon
Ġcl Ã¥
Ġch ifes
ĠkÃ© kes
bor k
ĠLe vant
Ġrpr in
ĠrÃ¥ jhon
Ã´z es
prez inte
Ġvl eut
ĠMi chel
Ġmod Ãªye
Ġmam bor
Ġegzist Ãªye
Ġratourne ure
Ġorto grafeye
Ġcatol ike
Ġdiyale ct
Ġposs ibe
onta ine
C ont
b at
c Ã¨s
g er
g en
i o
i se
m ou
n ire
u ne
v eus
w ess
Ġ oÃ»
Ġ 60
Ġd eur
es pr
in ant
Ġs kepi
Ġc mon
Ġc ulture
Ġf yis
Ġv it
Ġv ere
Ġn am
Ġr Ã©
Ġr onde
Ġes teu
ro d
ro v
ri b
Ġg ur
Ãª r
Ġtch ir
at ikes
20 1
we ye
ĠM or
ĠL Ã©
ac Ã´p
25 2
27 1
26 2
our s
ĠS ambe
yÃ® z
ar les
Ġpl oum
Ġmo vmint
gn a
Ġdis co
Ġdis fondowe
Ġri f
Ġri lom
Ġra st
Ġci st
ans on
ĠH esbaye
min mes
Ġfi esses
Ġsp Ã¥de
ouw is
Ã¥t Ã©
Ġbou xhÃ®
Ġac oird
Ġas p
ĠÃ¥r Ã©nt
Ġcro mp
Ġpar fond
Ġcr ouw
Ġsint i
Ġsu djets
Ġcont rÃ¥ve
Ġor gan
olodj ikes
iss ion
Ġtuz e
Ġtuz ance
Ġber bis
ĠtÃ© lmint
Ġwan gne
Ġcam pagne
Ġpronon ce
So vint
ĠlÃ© re
Ġrpr ins
Ġdisf ind
Ġcins Ã®s
Ġrtro ver
ĠX h
Ġsourd ant
ĠrascrÃ¥ w
ĠprodÃ»t s
ĠAmer ike
ĠWi kipedia
Ġfrut s
ĠChin e
Ġwai bes
Ġcrap Ã¥de
Ġadvie be
Ġrujh es
" ;
L u
M Ã¥
R e
a ir
c aedjes
l os
m ons
o ere
p ike
u b
v nut
Ġ Ã©
Ġ waitÃ®
Ġa dier
Ġs yince
Ġp Ã´r
Ġc ure
Ġc atch
Ġc ints
ou me
an di
Ġm as
dj int
Ġk Ã®
Ġf en
Ġf Ã¥rÃ¨
Ġb Ã´
Ġr waite
Ġco ide
al isse
Ġli bert
Ġi m
Ġpa xh
de n
19 1
18 1
ĠD a
Ġla tene
15 2
16 1
16 2
27 2
26 1
Ġpr esse
gn ons
tch aedje
Ġto ele
Ġel zÃ¨s
Ġ19 00
Ġra i
Ġma w
ĠT ot
rÃ¥ le
ni xh
Ġbi sto
uz ion
Ġfi me
Ġfi zi
Ġsp ots
Ġsp otchÃ®
12 1
12 2
Ġbou xhons
ĠV iy
Ġwa ide
Ġcom ie
Ġcom uni
Ġvol eur
Ġpe c
Ġpe xhon
Ġlive a
Ġpla te
ĠpÃ´ ves
Ġdro ets
Ġpont s
Ġgu eu
Ġpor moen
Ġcre ver
Ġcon ter
Ġovr aedjes
Ġrt our
Ġah iv
iss Ã¨s
Ġfot o
Ġeter nÃ¥cion
fa gne
riy al
Ġmeye u
Ġbasti mint
Ġcins es
ĠfrÃ¥z es
ĠcÃ¥ ba
Ġuz aedje
ĠDji han
ĠLuc yin
Ġcod Ã¥
Ġcer vea
ĠFlamind s
Ġcromp ires
Ġcomie ce
- .
c ter
c ti
c ul
c ints
d an
g lÃ¨s
i es
i li
m Ã©s
m inne
n ute
Ġd ou
Ġd Ã®
Ġd am
Ġl oye
Ġm ed
Ġt on
ch al
Ġb el
Ġb Ã´re
Ġv Ã¥
Ġv Ã´t
Ġv lou
Ġco pe
Ġpo enne
Ġli te
el an
ro ets
ro kin
Ġg Ã¥re
Ġso pe
xh eye
ce as
Ġ" -
19 2
20 2
Ġw ae
Ġw Ã¥r
18 2
10 1
10 2
Ġst Ã¥ve
15 1
17 1
17 2
14 1
14 2
13 1
13 2
24 2
25 1
28 1
28 2
23 1
29 1
29 2
di le
Ġdis d
li ke
Ġel zÃ®
ĠT i
Ġbo ye
ond es
ĠcÃ´p er
min ce
min ces
Ġgran div
Ġfi ve
Ġsp Ã¨s
Ġbou ye
Ġbou nÃ¨s
ĠÃ ī
ĠpÃ¥ sse
11 1
Ġai yes
Ġfr Ã©s
Ġro sse
Ġrat ch
Ġye be
Ġfe yes
Ġeg a
Ġmal Ã¥des
ĠdjÃ¥z Ã©
Ġpor trait
ute re
Ġmoen nes
Ġtec nikes
ay on
Ġsin on
Ġdin rÃªyes
Ġpou gn
Ġmin isse
ĠkÃ© kÃ¨s
ĠâĢ ĵ
Ġdifer ince
Ġram oen
ĠIn gl
Ġpic eures
Ġfot bal
Ġata ker
Ġmeye us
Ġredj on
Ġredj ime
Ġov rÃ®
ĠDis crijhaedje
Ġprogra mes
Ġdiman de
ĠHin ri
Ġacse gn
Ġbard ou
ĠDjiv et
D e
J ean
S ch
S ins
T o
g or
k Ã©nt
l ae
m Ã®
s Ã¥
v Ã¨s
w Ã¨t
y Ã¨s
Ä ĥ
Ġl oukÃ®z
in et
on k
on se
Ġa w
Ġa zÃ¨s
Ġs Ã´r
Ġe ba
Ġc mand
Ġm ir
Ġm onte
Ġf yi
Ġb os
Ġv ude
Ġr dj
Ġr oye
Ġco mint
Ġpo cwÃ¨
Ãª s
ĠM an
ĠL uss
ĠC a
pe ns
di d
Ġvi kÃ¨t
Ġwalon eus
ĠS er
Ġh av
Ġdis bÃ¥
Ġ19 99
Ġra po
ĠstÃ® le
Ġfo sse
rÃ¥ cion
Ġsol Ã©s
ĠN i
ĠN icol
Dj an
Ġapr est
Ġsa iss
yi z
ĠI t
ĠI stwere
30 3
rin nes
22 1
Ġsh ab
65 8
ki de
Ġev a
ĠÃ¥r mon
Ġpass Ã¨t
est a
Ġlom aedje
Ġfe der
vr ins
Ġras hi
Ġpas keye
Ġfa Ã®t
ĠlÃ¥ vÃ¥
Ġcr ou
ĠAl bert
Ġlin w
Ġdjus k
con k
Ġdid ins
Ġgo sse
Ġgo idje
Ġem antch
Ġvoy ales
Ġtou me
Ġblanc s
ĠÃ¥rti kes
ĠcrÃ¥ s
ĠrÃ® le
ĠBou yon
Ġrtro vÃ©
ĠdoÃ» Ã§mint
Ġrae cin
pla id
Ġatch ter
ĠRo bert
Ġaid Ã®
Ġfin ixh
Ġocu p
ĠboÃ» sse
imbor k
Ġfran ci
Ġeri rece
cip Ã¥tÃ©
Ġoy ou
Ġtrib unÃ¥
ĠLov ire
Ġnor m
ĠBar ry
ĠsÃ¥v lon
ĠIs rayel
ĠGran de
espr Ãªye
C Ã¥z
F Ã¥t
M inme
N Ã©n
a gne
b ot
b lan
g ou
h er
h aye
i ch
i stÃ©
i que
l oukÃ®z
n ous
o es
r Ã´
r Ã¨s
r ons
z on
Â «
Ġd al
Ġl ond
Ġa dire
Ġe b
Ã¥ tche
Ġm antche
Ġt revÃ©n
re Ã»t
Ġn Ã»t
Ġr met
Ġr indou
Ġr prezint
it ike
it if
Ġco ides
Ġli kide
ro we
Ġi ye
Ġi st
ĠÃ¥ me
Ġpa de
Ġsi gn
la ke
ĠL o
Ġst ok
Ġal oum
ĠB wÃ¨s
Ġpr ince
Ġh an
ĠA c
en d
or t
Ġri Ã§
ĠF ontaine
Ġ19 96
ĠR Ã»sse
Ġfo clo
Ġcw Ã¥tes
Ġre vint
ĠH Ã´te
ure us
ĠE glijhe
ni er
ouw Ãªye
ĠcÃ¥z es
Ġsch i
Ġsch oir
35 3
35 5
22 2
45 7
Ġsh onn
ki on
94 1
Ġdv eut
Ġro djes
Ġro djÃ¨s
36 2
Ġle zÃ®
pl aece
Ġmar tchÃ®
Ġfa gne
Ġsu d
Ġtec nike
ĠcoÃ» sse
ĠcoÃ» tche
ĠcwÃ¥r tÃ®
ĠÃ¥d foÃ»
Ġvic ant
Ġem antchÃ®
Ġfal ou
ĠÃ¥rti sse
Ġmu nut
ĠMo yinÃ¥dje
Ġpoy t
Ġricnoxh ou
Ġvijh Ã©ns
Ġclass ike
Ġrad dimint
ĠBi et
Vic Ã¥reye
Ġdjonn esse
Ġant olodjeye
Ġcarac teres
ĠBer n
Ġavan cÃ®
iccion aire
' s
B Ã©n
K Ã©
R o
V osse
a w
c an
e ve
i str
l at
m Ã¨s
p Ã¥rt
p Ã¥rdaedje
w et
Ġd ur
Ġl inne
Ġl Ãł
Ġa te
Ġa dje
Ġs aedje
Ġs ouwer
Ġs wele
Ġp otche
Ġc Ã¥ve
Ġdi z
Ġt wÃ¨
dj us
dj inne
Ġb ac
Ġv erd
Ġv esprÃªye
Ġr Ã¥le
Ġes prÃ¨s
it Ã®
Ġco xhe
Ã¨s teÃ»t
Ġpo ennes
Ġli sse
Ġli Ã¥rds
ri on
ri ch
Ġso Ã§ons
Ġsi lla
Ġtch iv
ĠM ol
im in
ĠD iv
Ġo teur
Ġo iz
Ġo xheas
ac Ã´
Ġvi kÃ©
ĠS a
Ġpr ot
Ġpr us
Ġpl antches
ĠA vou
ĠP irs
tch es
vi d
vi on
Ġra dio
ĠmÃ¥ l
gne ye
ĠR wey
ĠG aud
ĠLi djwÃ¨s
ĠbÃ©n rade
Ġre volucion
Ġvo le
ĠE v
ĠN a
ĠN oÃ»
Ġbo vrins
ic a
inte us
Ġ20 10
Ġfi l
ĠDj ib
50 4
50 5
30 8
Ġac cints
40 2
40 8
ĠV an
60 6
60 7
98 8
95 2
95 6
70 1
70 2
70 7
48 1
48 2
48 3
48 5
48 6
78 9
90 2
68 1
68 8
35 4
38 5
65 6
65 9
Ġbe acÃ´p
au bois
ĠÃ¥r djint
Ġpass Ã©ve
96 2
96 6
96 9
93 6
97 4
97 6
34 1
36 7
lÃ© re
Ġvol ou
Ġle dj
Ġle vant
37 3
Ġdire k
Ġga y
Ġ200 1
na i
Ġter it
ixh aedje
Ġmon onke
ine z
ĠsÃ¥ me
Ġcwa r
ĠU nis
Ġcla w
man de
Ġtcher pinte
Ġriv nou
Ġaf waires
Ġxh il
Ġtri viÃ¨
Ġtuz er
ĠtÃ© vÃ©
Ġpolit ikes
Ġmu ch
ĠcÃ¥ kÃªye
Ġtae ye
Ġrexh ou
Ġsto eles
Ġprijh nÃ®s
Ġdiman ants
Ġcodjo waedje
Ġdistr Ã»t
iti aubois
Ġratourne ures
Ġrapl oÃ»
Ġrest ant
ĠflÃ¥ we
Cor waitaedje
ĠThom sin
ĠCop pens
ĠLÃ© on
Ġfizi k
Ġpec lÃªye
ĠIngl utere
Ġlinw ist
Ġmunut es
ĠGaud itiaubois
. ).
G u
P Ã¥r
U z
b wÃ¨s
c ot
c or
c rÃ®t
c ession
f ontinne
i et
i ver
l onne
m it
o re
p Ã®
u cions
y Ã©nt
z Ã©
Ð °
Ġ Ø
Ġ it
Ġ 26
Ġd er
in dje
in djes
on na
Ġe ki
Ġe wal
Ġe veke
Ã© t
Ġm el
ne as
dj ons
Ġv Ã¨
Ġr an
Ã©n rÃ¨
ae conk
Ã´ le
Ã´ mes
Ġpo pa
Ġli v
ant Ã©
Ġdj Ã®sse
Ġdo b
ro ye
ri sses
Ġpa te
Ġpa ze
Ġpa roles
Ġpa yiz
Ġtch i
ra k
ra s
ra me
am Ã©
Ġla p
di sse
ĠA zeye
pr ins
gn aedje
ĠP aul
Ġri me
Ġca sse
Ġca wetes
Ġra wete
ĠmÃ¥ le
ĠR oum
ĠG ra
Ġdiv Ã¨t
00 1
00 4
00 7
rijh eus
ĠE lle
Ġbi jh
Ġni er
Ġfi esti
ouw aedje
ĠDj wifs
ĠcÃ¥z Ã©
50 1
50 2
50 3
50 6
50 7
50 8
50 9
30 1
30 2
30 4
30 5
30 6
30 7
30 9
pa gn
40 1
40 3
40 4
40 5
40 6
40 7
40 9
ĠV Ã¥
60 1
60 2
60 3
60 4
60 5
60 8
60 9
98 1
98 2
98 3
98 4
98 5
98 6
98 7
98 9
95 1
95 3
95 4
95 5
95 7
95 8
95 9
70 3
70 4
70 5
70 6
70 8
70 9
48 4
48 7
48 8
48 9
78 1
78 2
78 3
78 4
78 5
78 6
78 7
78 8
90 1
90 3
90 4
90 5
90 6
90 7
90 8
90 9
68 2
68 3
68 4
68 5
68 6
68 7
68 9
35 1
35 2
35 6
35 7
35 8
35 9
38 1
38 2
38 3
38 4
38 6
38 7
38 8
38 9
45 1
45 2
45 3
45 4
45 5
45 6
45 8
45 9
65 1
65 2
65 3
65 4
65 5
65 7
75 1
75 2
75 3
75 4
75 5
75 6
75 7
75 8
75 9
96 1
96 3
96 4
96 7
94 2
94 3
94 4
94 6
94 7
94 9
il le
93 1
93 2
93 3
93 4
93 7
93 9
97 1
97 2
97 3
97 7
97 9
Ġmwa ijhe
34 3
34 6
34 7
36 1
36 3
36 4
37 4
33 3
Ġeplo yaedje
Ġcan on
Ġpor tant
Ġin fin
Ġres pe
Ġve gne
Ġmin mÃ¨s
Ġdjouw eu
Ġsier vou
Ġdjus tice
mo enne
Ġmuz ic
Ġot os
Ġaf waire
iss ions
ĠtchÃ´ kÃ®
ik Ã®s
Ã¥v leu
Ġass aetch
Ġmw ints
Ġespa itch
ber g
Ġimp reur
Ġshof ele
Ġdisf inde
Ġmost rÃ©
Ġprod ujh
ĠtrÃ´ s
Ġrtro ve
pit it
ĠAv Ã©ns
ĠSt Ã¥vleu
ĠbÃ¥sh eles
Ãĩou la
Ġofic ir
cha ga
Ġwal lon
Ġdisla xhÃ®
ĠSara chaga
Ġenond Ã©
ĠSal me
poiz er
Ġplu riyal
Ġgueu ye
Ġpade cÃ´
" ),
F ran
L Ã¨s
P as
S enes
a xh
c Ã¨t
h Ã´t
t rop
v Ãªyes
Ġ 28
Ġ 80
Ġl Ã¥rd
in Ã©
Ġa ke
Ã¥ jh
Ã¥ li
an dj
te ke
Ġm atch
Ġt es
re n
dj ant
dj ourd
Ġf is
Ġb en
Ġb ans
Ġb uz
Ġb ontins
Ġb indes
Ġv eur
Ġn ature
Ġr esse
Ġr otche
le ye
it Ã¨s
Ġest Ã´
al ade
Ġli m
ĠÃ¥ reu
xh a
Ġtch Ã¥s
Ġtch innes
ol er
ol eur
ra ire
Ã¥r Ã©
ĠM Ã®trinne
ran dj
Ã§ ou
am ps
ĠL ouwis
Ġo mb
Ġst ind
di aedje
Ġpr atike
Ġh our
Ġh Ã¥ye
Ġmo ra
ĠÃ§ anses
Ġri fond
Ġri mete
Ġfwait es
Ġ19 14
Ġ19 80
ĠÃ¨ m
ĠÃ¨ lle
Ġma rokin
ĠR ou
ĠLi b
Ġtro pe
Ġdiv nÃ¨t
00 2
00 3
00 5
00 6
00 8
00 9
rÃ® z
ĠE mile
ĠN e
ĠN y
Ġsa wÃ¨
Ġsins es
ĠDj u
ĠV os
Ġsh ijhe
ĠÃ¥r m
Ġcom prinde
77 2
77 6
34 2
34 4
34 9
36 6
36 9
Ġdm ande
44 2
ab ri
37 1
37 2
37 6
37 9
99 1
99 2
99 9
33 1
33 2
33 9
58 1
Ġari mÃ©s
ĠsÃ¥ va
wer i
Ġfa Ã§on
ĠlÃ¥ tche
Ã¥l wÃ¨s
Ġsu b
Ġcal caedjes
Ġtra it
Ġrc were
Ġnou rixh
Ġhou y
ĠcwÃ¥r t
Ġsier vÃ¨t
ĠâĢ Ķ
Ġrs honne
Ġrs honn
ĠNam urwÃ¨s
ĠLa haye
ĠIn glÃ¨s
Ġvin Ã¨t
Ġpeu pes
Ġtin re
Ġpat wÃ¨s
Ġpat ron
Ġshof ler
Ġag ran
ĠrÃ® lÃªye
Ġuz ance
Ġaid ance
Ġprijh on
Ġprezint rece
Ġfront ire
Ġhap er
Ġdif Ã©n
ĠspÃ¥rd ou
ĠAmer ikins
Ġcroey ances
Ġsierv eut
ĠpÃ¥p Ã¥d
Ġtele f
Ġkeu ve
ĠavÃ¥r la
ĠBour don
Ġreplae cÃ®
Ġfem rin
Ġwaerant i
Ġvoeye ut
ĠVir oux
Ġtimper a
roejh ete
Ġod eur
ĠLuss imbork
Ġlond mwin
ĠRÃ»sse ye
djourd u
A lÃ©re
D eus
M ots
T otes
V ola
a f
c la
h u
l ire
l um
m aedje
n Ã¨
o wÃ¨s
r esses
t Ã¨t
u nd
u mints
w an
w Ãªre
y nut
z Ãªye
Ġ '
Ġd inner
Ġl oyÃ®
Ġl Ã»te
Ġa xh
Ġa ga
Ġp etch
Ġp iy
Ġe ru
Ġc inte
te m
Ã® le
re me
Ġf Ã´r
Ġf etch
Ġb Ã´r
Ġv la
Ġv ac
Ġn onne
Ġr le
ot aedje
Ġco te
Ġco Ã»t
Ġco pi
Ġco gnes
Ġki los
Ġdo ze
el Ã®s
ro f
Ġso ye
Ġsi mp
ke ne
st it
ol i
ĠM in
Ã§ aedjes
oÃ» te
oÃ» ne
Ġw Ã¥de
ĠD am
Ġla it
ĠL or
Ġo st
ĠB ive
ĠB ay
ĠS ou
ĠS acw
ĠA t
ĠP at
tch eye
Ġdis pi
ur t
Ġri waitÃ®
Ġma xhÃ®
ess er
ĠT ran
lo z
rÃ¥ les
Ġdiv eut
Ġte ne
Ġte na
ĠE r
ĠN ot
Ġpol eut
uz er
Ġ20 12
ĠpÃ¥r teyes
ĠpÃ¥r lumint
Ġmi y
Ġsp Ã¥
Ġsch oy
Ġbou xhe
Ġac o
Ġep wez
Ġas bla
Ġsh Ã»te
co te
Ġti enes
Ġro yes
itch es
77 1
77 3
77 4
77 7
77 9
aetch es
66 3
66 4
66 7
Ġcro mb
Ġga des
vr ou
Ġmal Ã©n
47 1
47 3
47 6
47 9
Ġrac onter
Ġari vÃªye
ĠsÃ¥ vaedje
Ġcan dje
39 1
39 2
Ġtour nÃ©
Ġtcher djÃ®
Ġratour ner
Ġriv owe
ĠfÃ¥ tch
Ġshu vant
Ġbot ikes
ĠLe com
ĠMar c
Ġtert otes
ĠcÃ©n cw
Ġof ici
Ġeter mint
ĠÃ¥rti sses
ĠRe volucion
Ġec rÃ¥
ĠrÃ¥ yÃ®
Ã¥rt Ã©n
Ġcandj mints
rac k
Ġflo te
Ġrm ou
Ġvl Ã¨t
ĠRom an
Ġprijh nÃ®
Ġdiferin nÃ¨s
Ġmac s
ĠÃ©ndjol isse
Ġpour ceas
Ġraf oir
Ġdjond ant
Ġtchante u
ĠEs pagne
Ġsfwait s
Ġcole ccion
Ġcatol ikes
Ġschap er
Ġplan ete
Ġmostr Ã¨t
dic atif
ĠAnd rÃ©
Ġbagu ete
cro sse
Ġuni viers
Ġeplaide ye
Ġrn Ã¥d
ĠUni on
Ġetroc laedje
ouma k
Ġos pit
ĠJu les
Ġnol u
Rat our
Ġlibert Ã©
ĠcÃ¥ba ret
Ġdisd ut
gor yin
ĠDjib lou
Ġterit were
ĠLecom te
F r
F oÃ»
M ar
P acÃ´
T A
T ant
V in
b our
b ale
c se
e yes
f waite
i ze
k eu
k Ã©ve
l esse
n owe
r Ã¨t
r ind
t is
u ch
v wer
Ġ â
Ġ inse
Ġd dins
es mint
Ġl oukÃ®
on cÃ®
Ġa la
Ġa gne
Ġa isse
Ġs eus
Ġp ir
Ġp wÃ¨s
Ġdi vi
Ġdi mo
Ġm eu
Ġt t
Ġt ir
re ts
dj ins
Ġf Ã¥ve
Ġf imes
Ġb la
Ġb ar
Ġv na
Ġv Ã´re
Ġv indou
Ġon eur
it a
Ã´ l
Ġpo win
al isses
Ġdo Ã»s
Ġdo minne
Ġg rou
xh Ã¨t
de a
Ġsi pe
Ġtch aire
Ġtch aeconk
Ã¨t es
ĠD o
Ġla ide
ĠL en
Ġst of
di vant
Ġh oÃ»
ĠA m
ĠA nt
ĠP Ã¥r
tch anson
ur Ãªye
li p
Ġri prezint
Ġ19 30
Ġ19 75
Ġan sene
Ġcw ite
ĠW iccionaire
Ġre ban
Ġte te
ĠH er
ĠN ouve
Ġmet a
Ġmet ch
Ġsp ite
Ġscrijh eut
ante a
ler s
Ġfr umint
ale m
Ġro le
44 1
44 3
44 4
44 6
44 7
44 9
Ġbr un
Ġpe ket
66 1
66 2
66 6
66 9
Ġap ou
Ġab and
Ġab ond
47 2
47 4
67 1
67 2
67 3
67 4
67 6
67 9
46 1
46 2
46 3
46 4
46 9
Ġqu and
Ġdjin re
Ġcou tea
Ġcou jhene
Ġin la
64 2
mon de
Ġrom in
Ġsu cc
43 1
Ġdijh nut
Ġhou yeu
Ġdjouw Ã©
Ġbat es
ĠâĢ ¦
Ġdjonne as
Ġair s
Ġah essÃ®
ÃĪ t
Ġdan se
Ġsav eut
Ġna iv
Ġtim p
Ġber del
ĠDe fagne
Ġmont Ã©
Ġmont innes
ande le
Ġama gnÃ®s
Ġta ess
ĠsÃ´d Ã¥rd
ĠsÃ´d Ã¥rs
ĠCal caedje
Ġcop in
Ġeploye ye
Ġgri goryin
ĠÃ©ndj ole
ĠdoÃ» ce
Ġed vint
Ġflo rixh
Ġrcwer aedjes
Ġbas teye
Ġtchap tr
Ġus teyes
ĠmÃ© d
Ġrlom Ã©
Ġplou ves
Ġtchoe z
ĠschoÃ» ter
Ġrey usse
Ġramass er
graf ike
Ġapi ce
Ġbiz etes
blan c
ĠPirs oul
Ġit Ã¥l
Ġbijh rece
Ġtimpera teure
Ġtena wete
Ġofici re
rack man
Ġpowin mes
D el
L ou
M otÃ®
M waisse
O yi
b eye
c le
c ra
d ri
d lÃ©
h am
h ar
i ces
j a
l Ã¥cion
n ot
t u
u x
y an
y mint
z inne
z ult
Ġ 23
Ġd int
Ġd lÃ©
Ġd ram
in es
Ġa us
Ġa nea
Ġp inse
Ġe kipe
Ã© ye
ou ye
te l
Ġm Ã´
Ã® ne
re as
ne us
dj er
ye ut
Ġb oles
Ġv ini
Ġn s
Ġn on
Ġr lo
Ġr fwait
Ġet ir
al Ãªye
Ġdj el
Ġdj oye
Ġdo cu
Ġav oenne
ro yÃ®
ri st
ĠÃ¥ djourdu
Ġso gnÃ®
Ãª res
ke y
ke yes
Ġtch in
ut ch
ont es
at Ã©
at ion
ĠM ot
yes ses
Ġw i
im us
ĠD inant
Ġo ise
Ġst itchÃ®
Ġal inne
ĠB rackman
ci d
ci de
ci en
ĠC la
ĠC or
ĠS Ã¥m
Ġpr Ã©s
Ġpl o
Ġno te
Ġno ers
Ġmo ite
Ġmo yÃ©n
om bes
tch Ã¥
tch amp
ur d
be le
li z
Ġ19 77
Ġca te
Ġca ra
Ġou jhene
ti que
ĠT ere
Ġfo y
lo ri
olodje yes
ĠH ong
Ġmet Ã©nt
Ġbi er
Ġbi est
uz Ãªye
Ġ20 15
Ġfi z
Ã´r m
ĠÂ °
Ġsch Ã¥
ĠÃ ¢
pa gnes
onne r
Ġde fin
Ġbe gu
ĠÃ¥r tch
Ġti Ã¨sse
yin ces
Ġle Ã»
80 6
iy a
Ġpe mes
Ġcro et
Ġga de
Ġsie kes
88 8
ixh a
Ġdro vi
Ġtr inte
64 1
64 3
64 9
lon g
Ġseu l
Ġtour s
Ġrom inne
Ġcon c
Ġcon f
43 2
63 1
63 2
69 1
69 2
49 1
49 2
Ġcl Ã¥s
Ġcl otchÃ®
Ġson djÃ®
Ġnou z
Ġsor vi
Ġhou kÃ®
Ġcour s
ĠBa ij
ĠBel Ã¨s
Ġbat ou
ĠâĢ Ŀ
Ġfam iles
Ġah ess
Ġrs int
Ġfor vey
Ġot on
ÃĪ le
Ġdmor Ã¨t
Ġcam p
Ġdjh ant
Ġint rÃªyes
Ġer it
Ġpolit ikÃ®s
Ġata kÃ©
ĠMÃ¥ ss
Ġrpr inde
Ġag r
Ġdmand Ã©
Ġrv Ã©nt
Ġpoy ons
tr inme
Ġvl Ã©nt
Ġrcwer ances
Ġprof ess
Ġmat ante
Ġlimer os
Ġstudi ants
Ġatra per
Ġdiswal per
Ġrlidj on
Ġdistr ure
ast on
ĠlÃ¨ ye
ĠBen oit
ĠDjer uz
ĠSm al
ĠSm wÃ¨s
Ãħr dene
Ġrev inteus
Wa ite
Ġtrava yÃ®
ĠatÃ¥v lÃ©
Ġeconom ike
ĠdjÃ¥ bes
ĠdjÃ¥rd Ã©n
apon Ã¨s
ĠTran sene
ĠBaij ot
- ,
A s
C roejhete
E n
N icol
P ar
P ier
V Ã®s
a g
b Ã®
b ri
d vins
e f
i g
l inne
r Ã©s
v u
w Ã¥r
y u
Ã ¶
Ġd Ã¥r
Ġl Ã»t
Ġl oi
Ġp Ã»
Ġe conomeye
Ġc in
Ġc ine
Ġdi zeu
Ġdi bout
Ġm ey
Ã¨ f
dj u
dj ote
Ġf wÃ¨
Ġf Ã©ns
Ġr on
Ġr la
Ġr vier
me tes
dje yes
ss i
al i
Ġki mere
int ch
Ġdo bl
el i
el Ã®
Ġi rÃ¨
jh eye
Ã» tes
Ġg ar
Ġg oz
Ġpa ra
Ġso Ã§on
xh ance
wa is
st Ã®
at isse
ra ke
ĠM im
ĠL etes
Ġo xhea
Ġst at
Ġst oumak
Ġal aedje
ci ale
ĠC am
di cions
our t
ĠS ol
Ġpl antchÃ®
Ġh Ã´
Ġmo di
Ġmo xhe
gn ant
gn ole
ĠP al
Ġdis metant
ons i
Ġto me
Ġca dje
ti xh
Ġcw Ã¥te
um i
Ġre t
Ġvo enne
Ġte xh
ĠJ acques
ing aedje
Ġgran g
Ġmi a
ĠDj Ã¥ke
Ġsch oÃ»t
Ġfranc s
ĠV ic
Ġad lÃ©
ĠÃ¥r es
Ġwa ch
Ġti esses
il om
pi kes
Ġro y
80 1
80 2
80 3
80 4
80 5
80 7
80 8
80 9
Ġat uz
Ġap us
no e
55 1
55 6
88 6
vr Ã¨
ĠsÃ´ s
ul g
ul lon
rer nete
ert in
ixh ant
ixh ance
58 3
58 4
58 6
Ġdro v
Ġmon umint
Ġfjh eu
Ġ18 30
Ġpor cession
ade meye
57 1
Ġfa w
ĠlÃ¥ tch
Ġsit ouve
Ġsit oele
Ã¢ le
Ġcr esse
Ġrom ant
fond owes
Ġcon oxhe
Ġve xh
Ġsaetch ots
Ġlong s
Ġch Ã®
Ġdjouw eus
Ġar ester
Ġprez inte
ĠLe j
bi et
Ġdmor ants
ĠeployÃ® s
Ġsist inmes
Ġfot ou
Ġfot os
Ġpronon cÃ®
Ġpeu mon
ĠAn ti
ĠEt rernete
Ġset che
ĠlÃ© jh
Ġper mete
Ġtap Ã©
Ġviz ite
Ġfl otche
Ġme yes
ude ye
Ġkin oxhe
ĠrÃ´ ler
Ġsto ca
ĠSo hy
Ġtchim ike
Ġnoer Ã¨s
ĠImp reur
Ġcoin reces
Ġclass ikes
Ġdif oÃ»t
Ġbri kes
Ġsap Ã©ns
ĠschoÃ» te
Ġrlidj ons
Ġcol ni
ĠhÃ¥ sse
ĠhÃ¥ yes
Ġdans er
Ġtchey ire
Ġdimor ants
ĠCar lier
ĠRen son
Ġfoir djÃ®
Ġelect rike
Ġrilidj on
Ġfab rike
Ġdjou we
Ġisto rike
ĠPier re
Ġveu le
Ġlongu Ã¨s
Ġmarga ye
Ġacs Ã»t
Egzim pes
Ġraece nes
Ġadmin istr
Ġmuzul mans
Ġtone a
Ġcamaer Ã¥de
Ġcul teure
ĠMass aux
Ġskepi aedje
Ġadier cÃ®
den ne
Ġsign or
ĠBiet ris
ĠBern ard
Ġbac te
Ġmacs Ã¥d
Ġabond roets
ĠDjeruz alem
A n
D ame
E y
H ou
R ac
a prÃ¨s
b Ã©
c m
c Ã©
i la
l ins
n wÃ¨s
o ter
v o
v an
w aedjes
Ð ¾
Ù Ħ
Ġ 27
Ġ 150
Ġa poirt
Ġs k
Ġs aeye
Ġp esse
Ġp otchÃ®
Ġp ilÃ©
Ġe urÃªye
Ġc t
Ġc u
Ġc Ã´r
Ġc ujh
Ġc Ã´pe
Ã¥ rer
Ġdi ele
te me
Ġm Ã¨te
re m
Ã¨ ye
Ã¨ sses
Ġk e
Ġf re
ch i
ch amps
Ġv ert
Ġv ints
Ġv nÃ©nt
Ġr d
me l
Ġet ire
it ae
it ude
ot ikes
Ġco xh
Ġpo s
Ġdj ind
int es
int in
Ġdo min
el a
ro ete
Ġi yes
ri k
ri che
et h
ve gn
Ġsi fwaite
Ġtch ic
Ġtch oleur
ir a
os imont
is te
la ert
Ã§ ant
am wais
ĠD osimont
Ġst itch
Ġal ans
ci ve
ĠC at
ĠC onte
pe re
di viÃ¨
Ġvi ers
Ġwalon es
Ġpl antche
ĠA s
ĠA le
ĠA uj
ter s
Ġmo xh
Ġmo xhons
om an
or s
or ants
vi et
ĠF au
Ġ19 97
Ġca w
Ġca ri
Ġra ba
ĠmÃ¥ ke
ĠmÃ¥ yes
ĠmÃ¥ leur
Ġma uj
ĠR Ã©
ĠR wand
ĠT re
Ġcw Ã¥litÃ©
ĠbÃ©n s
Ġtro vÃ©ve
Ġre plaid
ĠH ol
ĠH out
Ġapr in
ĠcÃ´p Ã©
Ġ20 14
Ġsp oÃ»le
ĠMa u
ĠMa quet
yi sses
ĠDj e
ĠcÃ¥z Ã¨t
Ġsch oice
Ġbou xhon
oz e
Ġvey anmint
Ġbe djes
gu er
ĠÃ¥r ont
Ġdv eur
Ġro b
Ġz Ã»
Ġmou vmint
yin nes
Ġbr ess
Ġcro sse
55 2
55 3
55 4
55 5
55 7
55 8
55 9
88 1
88 2
88 3
88 4
88 5
88 7
88 9
oum er
58 2
58 5
58 7
58 9
iv eus
ĠTch Ã¥le
ĠsÃ¥ le
Ġcou lot
57 2
57 3
57 4
57 6
57 9
mon ter
Ġcr inme
85 3
Ãħ s
Ġve as
Ġdijh inne
Ġsaetch e
Ġpou gneye
Ġcl in
em were
to grafeye
76 2
74 2
Ġdifer inne
Ġpron os
Ġvic ants
olodj ince
olodj isses
Ġfijh Ã©nt
ÃĪ lle
Ġgre gne
Ġsav oz
Ġna we
Ġass o
Ġass az
Ġmest Ã®s
Ġmont ant
Ġris honne
Ġvin eut
Ġer aler
Ġper lin
Ġvraiy s
Ġara bes
ĠwÃ¥rd Ã©
Ġrap oÃ»
ĠCal laert
Ġval Ãªye
dis k
so vint
Ã¢r t
ĠbroÃ» s
âĢĿ .
Ġmartch andi
Div ins
Ġaddjectif s
Ġrcwer i
Ġtol tins
Ġpet role
Ġocu pe
Ġocu per
Ġmac r
Ġanc yinne
ĠBe au
Ġracont rece
Ġofic irmint
Ġrlom Ã©s
Met oz
Ġpoli ce
Ġsap inse
ĠspÃ¥rd aedje
lÃ´ s
Ġmic ro
ĠprÃ© tins
Ġmous mint
ĠMat Ã®
Ġdispa rexhe
uwe de
ĠDu y
ĠWar nant
Ġdivint rinne
Ġanon cÃ®
Ġtrou f
Ġespagn ols
Ġarin djÃ®
Ġmartchand s
Ġetim olodjike
Ġetrindj ir
ĠBor k
Ġdess ins
Ġcel ures
ĠWis imus
Ġol im
ĠpÃ´r Ã¨
Ġmed cÃ©n
ĠvÃ´t aedjes
sÃ¥ jhon
Ġprot est
Vin oz
ĠvÃ´re u
ĠmÃ©d yÃ®
ĠAuj au
ĠFau con
A r
B o
E st
L uc
M Ã©
M ou
S ic
c er
c oÃ»
c ons
d ons
f oirt
g h
h Ã©
i gue
i ang
j Ã®
j acques
k Ã®s
l y
l euse
l Ã´re
n os
n Ã¥de
p Ã¥r
p as
r fwait
s ins
s ic
v Ã®s
w isse
Ġ 0
Ġd nÃ©ve
Ġd trop
Ġa rey
Ġa med
Ġs our
Ġs ket
Ġs antÃ©
Ġp in
Ġe ci
Ġe co
Ġe ct
Ã© re
Ġdi rÃ¨
Ġdi pind
Ġm and
Ġt rÃ®
Ġt ab
Ġt ones
Ġt aetches
Ã¨ l
Ġf ur
Ġb we
Ġr inne
Ġr Ã»sse
Ġr otches
Ġr monter
er v
ss a
le ne
le as
it ikes
ot Ã©
Ġest Ã©ns
Ġco isses
Ġdj w
Ġdj ey
Ġdj ote
int Ãªye
Ġg rÃ¥
Ġg otes
Ġg Ã¥m
Ġpa rexhou
Ġso e
Ġsi dje
Ġtch itch
se y
la rd
Ã§ nut
ĠL Ã®
ĠL ey
Ġo cc
ac cion
ĠB ot
ĠB lan
pe as
di sses
di lÃ©
our nÃ©
ĠS e
ĠS p
ĠS ins
ĠS ud
ĠS uwede
Ġpl omes
Ġh in
Ġh ape
Ġcome nes
Ġmo teur
pr ume
ĠP Ã¥ye
or b
ur Ã©
be deus
vi te
Ġsc were
ind oz
Ġri prind
Ġto itche
Ġ19 93
Ġca chÃ®
Ġma xh
Ġma sse
ĠR elÃ®s
Ġu ros
ĠT hi
lo me
ĠH an
ĠE ss
Ġmet nut
Ġsa yes
Ġsa wou
Ġbi esmint
Ġsp ir
Ġsp iyÃ®
ĠcÃ¥z Ã©ve
Ġsch in
ĠÃ ĩ
Ġac oÃ»
Ġac cid
ĠV eye
ĠV iye
Ġad dÃ©
rin Ã®
Ġgrand es
Ġdv Ã¨t
onte us
pi ter
Ġcom and
Ġvol nut
Ġlom Ãªyes
Ġle Ã»s
Ġbr ouw
Ġcro ere
Ġap ont
ijh oz
vr aedje
Ġman aedjes
Ġab ate
Ġter Ã©n
ive m
nd ust
Ġmar inde
Ġtr ae
Ġsic rijhaedje
Ġsic rÃ®te
Ġcou yon
ole te
Ġfa it
Ġtour n
85 1
85 2
85 4
85 6
85 9
87 1
87 2
87 3
87 4
87 6
87 9
Ġcla ire
Ġdin rÃªye
Ġrc la
Ġrc lam
Ġ) ;
Ġson dje
Ġnou ve
Ġch am
ĠBa st
Ġar aedje
Ġar key
Ġbat i
86 1
86 2
76 1
ĠfÃ¥ sse
56 1
56 2
83 1
83 2
74 1
Ġdifer innes
54 1
54 2
73 1
73 2
ujh ance
ĠCh arles
84 1
84 2
53 1
53 2
roÃ» les
Ġor din
ĠtchÃ¥ f
olodj isse
olodj icmint
ĠpÃ¥rt is
Ġ10 00
Ġpic eure
Ġcnoxh owe
Ġresp ons
Ġrpr ind
ib ant
ĠcrÃ¥ xhe
Ġmu sses
Ġrap tit
ĠfrÃ¥z lete
Ġj ama
Ġgr ins
ĠvÃ©n rÃ¨
Ġrv owe
Ġcrexh Ã¨t
Ġrexh owe
ĠnoÃ» mot
Ġrasco dou
Ġpri yÃ®
Ġdiferin ces
Ġanc yins
cw Ã¥r
Ġmouss a
Ġdjond ants
Ġgal ant
Ġscol Ã®s
ĠadjinÃ§ nÃ©
Ġramass Ã©
Ġradj out
ĠOt jacques
andjÃ® le
Ġritch es
Ġsigneur s
ĠLov Ã©n
ĠpÃ¥rler s
ĠÃ¥b uss
Ġasch ate
Ġsing lÃ©
Ġisto rikes
Ġmess aedjes
Ġobli djÃ®
ĠcwÃ©n ze
Ġdeci d
th ur
Ġlongu eur
Ġamer ik
Egzim pe
Ġinst rumint
esp ond
Ġdujh ances
Ġpotch as
Ġboye as
Ġega djÃ®
Ġacsegn mint
Ġfranci ke
Ġpoyt reye
Ġlevant rece
ĠLÃ©on ard
Ġpaze a
Ġinfin itif
ĠNy ns
Ġcopi ut
Ġsucc Ã¨s
Ġcine ma
Ġdobl eure
ĠRwand a
ĠMau rice
Ġocc itan
' .
. )
M es
M ape
V Ã®
V la
a yes
b ro
b ac
b ite
b etch
d Ã®
f yÃ®
g ran
k yÃ®
l ante
l otes
m as
o yaedje
p t
r aedje
r di
r um
v ance
y Ã©
z Ã¨
z ir
Ã ¡
Ã ¯
Ġ 35
Ġd f
Ġd na
Ġd Ã®re
in djÃ®
Ġa ut
Ġs g
Ġp p
Ġc Ã¥r
Ġc riy
an o
an stÃ©
an djreus
Ġdi meye
Ġm it
Ġt ta
Ġt ombe
Ġf ir
ch ind
Ġb u
Ġb is
Ġb Ã¥re
Ġb otchÃ®
Ġb uro
Ġv Ã©
Ġr li
Ġr Ã¥lmint
Ġr prezinte
Ġon g
er o
eu ne
dje reye
Ġco v
Ġco lons
Ġdj ate
Ġdj oke
ro m
jh Ã®s
jh enes
et te
Ġg la
Ġg Ã¥tche
Ġso ri
Ġso ha
xh s
ce dile
Ġsi Ã¨
Ġtch es
Ġtch ance
os Ã©
la in
la xhe
ĠM otlÃ®
am es
ĠD ou
ĠD ed
Ġla me
Ġo b
ac aedje
Ġal oyÃ®
ĠB ert
ci le
ĠC ay
ĠS im
ĠS Ã¥rt
ĠS ullon
Ġpl ins
Ġh olandÃ¨s
Ġno ejh
gn Ã¨t
gn esse
ĠP e
ĠP er
ĠP ont
ĠP rÃ©
ĠP rov
li yaedje
vi a
vi lle
Ġsc rÃ®te
Ġto ir
Ġ19 45
Ġ19 79
Ġca h
Ġca v
Ġou jhenes
Ġma u
gne us
ĠG ri
ĠT ra
ĠT our
Ġfo ete
ĠW iy
Ġtro kes
Ġda me
Ġdiv reut
Ġte tes
ĠN Ã¥
ĠN or
Ġbo et
Ġbo kÃ¨t
ond aedje
Ġapr ester
uz mint
Ġmi djote
Ġptit es
yi xh
ĠDj o
Ã¥t oÃ»
ĠI rak
ĠcÃ¥z aedjes
Ã¥rd Ãªyes
ĠÃ Ī
Ġad op
Ġsh ure
Ġ- -
Ġpass Ã©nt
Ġwa ides
Ġwa xhea
Ġef et
ap er
ab lo
Ġeg z
Ġeg ol
Ġam bedeus
Ġcor aedje
ct aedje
ixh eut
Ġmon cea
Ġmar gou
ard in
Ġpor sh
ade le
Ġin dj
Ġfa f
ote ke
Ġcwa trinme
Ġcon dicion
op liyaedje
Ġdisc rÃ®t
da ye
Ġcl otches
ĠcoÃ» te
to ele
ĠCh wÃ¨s
Ġrs aetch
Ġbot on
Ġvic ante
Dis poy
ĠhÃ´t s
ĠhÃ´t Ã¨s
Ġgre vi
Ġsav Ã¨t
Ġber wete
ĠtoÃ» r
Ġpronon Ã§aedjes
Ġtin mes
hi lip
ber teke
Ġmol Ã©ns
ĠRe publike
ĠHen ri
Ãªy olodjince
ĠZ el
Ġfou y
Ġfou gn
Ġj amwais
Ġtcha me
Ġmagn Ã¨t
ĠbroÃ» ler
Ġdist ru
reus e
pagne ye
Ġmartch ande
Ġkimin Ã¥ltÃ©
Ġsiervi ce
Ġspe ci
Ġlan gues
Ġdjour nÃ¥
ĠAr thur
ĠDis pu
Ġham teas
cÃ¥z ante
za k
ĠÃ©ndjol ike
Ġsourd ants
Ġnu k
vie dje
clo pe
Ġsap Ã©n
Ġgal o
Ġral oye
Pa yis
Vic aedje
ĠvÃ´ reut
Ġrey uss
Ġdjonn Ã¨s
Ġmoenne us
ĠOt riche
Ġcarac tere
Ġfrume les
Ġcoixh Ã®
Ġschap Ã©
ĠpÃ¥p Ã¥ds
Ġora ye
Ġapa rey
Ġtre vÃ¥
Ġclap ant
hÃ¥ yaedje
ĠMari e
ĠFranÃ§ wÃ¨s
ĠFranÃ§ ois
Ġrastr inde
Ġindust reye
Ġrprin jhe
Ġnam urwÃ¨s
ĠDa vid
Ġcomuni sse
Ġgrandiv eus
esta mint
Ġraecin Ãªyes
Ġist weres
ĠDiv ant
Ġlinwist ike
Pas ki
Ġfetch ires
ĠSacw ants
zult at
ĠMim ile
Ġmacr ales
ĠFaucon nier
Ġeci clope
ĠgÃ¥m Ã¨s
Ġtta fwait
- "
A u
B ou
J o
R as
R ic
R ilom
T ol
T ec
a it
a gn
b u
c is
d it
d im
f ro
g us
g ane
l is
l Ã©nt
m at
m Ã®s
m ite
o yes
o reye
p Ã´
p Ãªye
s ol
w ers
à ¦
Ġ Ð
Ġ 22
es teye
on imeye
Ġa feye
Ġa gnon
Ġc reye
Ġc uz
Ġc indes
ou sse
te n
Ġm un
ne ures
dj Ã¨t
dj wesse
Ġk Ã©n
Ġf ar
Ġb l
Ġb Ã¥r
Ġb our
Ġb ur
Ġb rey
Ġb Ã¥ke
Ġb ouwÃªye
Ġn ai
Ġr aler
Ġr weri
er a
Ġes pl
me nes
Ġet inde
ss art
Ġest ats
Ġpo steure
Ġpo lets
al Ã©ve
al itÃ©
Ġli ke
Ġki mint
ant al
Ġdj a
Ġdj int
Ġdj onte
Ġdj aponÃ¨s
int aedje
Ġdo l
Ġav ant
Ġg Ã¥lwÃ¨s
Ġpa ile
Ġpa rexh
Ġpa vÃªye
ve le
ce te
Ġsi Ã¨r
wa r
wa s
wa issÃ¨s
ke a
Ġtch est
Ġtch ab
ol o
ut i
se ye
we ne
alon s
am ile
ĠD on
Ġo cÃ¥z
Ġst ron
Ġal oy
ĠB os
ci sses
ĠC u
ĠC eles
ĠC oir
Ġvi dey
ĠS el
ĠS ic
ĠS ta
ar yÃ®
Ġh ale
ĠA viedje
Ġmo le
Ġmo xhon
en t
pr Ã©
pr ou
ĠP i
ĠP et
ĠP as
ĠP or
ĠP ris
om ike
Ġdis v
or m
or in
Ġsc ri
ĠÃ´ res
Ġri dj
ĠF i
Ġto irt
Ġ19 35
Ġ19 44
Ġca pÃ¥
Ġca sser
ĠmÃ¥ jh
Ġou donbÃ©n
Ġma xhe
Ġma rixh
Ġu bÃ©n
ĠG abri
ĠG aston
ĠT a
Ġfo sses
Ġre lÃ®
Ġre publike
Ġre plaece
Ġvo er
Ġte moen
ĠH av
ĠE dji
Ġbo djes
uz Ã©
Ġsp ani
ouw aedjes
Ġba gn
Ã´r ts
ĠMa sson
Ã¥rd Ãªye
Ġsch eut
Ġsch ite
rin n
ze yes
au ve
ĠÃ¥r men
Ġwa ite
Ġro ck
Ġz ou
Ġbr otchÃ®
Ġpe xhe
Ġap li
Ġcor ou
Ġcor ants
Ġcor one
Ġman ires
Ġab ro
Ġpla ce
if e
Ġter Ã©ns
Ġcmin Ã§a
ive ye
Ġfjh eus
ru c
Ġpas nut
Ġtr Ã»
Ġcou gn
ĠÃ¨t o
Ġcwa reme
ĠK imin
Ġmoen nÃ©
Ġmoen nÃ©ve
Ã¥le ye
Ġtour ni
Ġtour nant
va ye
Ġcon oxh
ĠAl djereye
Ġtrop es
vier ba
Ġtra cteur
ape a
Ġgaz tÃ®
Ġmin djÃ®
Ġric min
ĠÃ¥d zo
Ġram on
Ġah esse
Ġah Ã¥y
ĠCh im
Ġbot ons
Ġot om
Ġvic nut
un ker
Dis k
lÃ¥ ves
bi yÃ®
Ġds us
Ġdmor Ã©nt
Ġdmor Ã©ve
ĠDe fre
Ġem acr
Ġem issions
Ġ5 00
Ġvoy aedjes
Ġtou ba
Ġsip esse
Ġouxh s
Ġtouw Ã©s
Ġ4 00
Ġespa itche
lidj on
Ġresp onde
ĠÃ¨s teÃ»t
Ġtoum Ã¨t
ĠrÃ¥ les
Ġbasti mints
Ġfou xhe
ĠBou da
ĠBou lard
Ġbin Ã¥jhe
Ġredj Ã¥r
ĠX V
ĠWal lon
Ġpins er
Ġpins ion
Ġme di
Ġmagn ant
Ã¢r d
ĠSch mit
Ġflo ri
Ġatch tÃ©
Ġshijh es
ÃĶ tes
ĠSo ce
Ġmat ons
ĠmÃ¥r tea
Ġbrou h
Ġsot ni
ĠBe djes
Ġcrust in
Ġrlom Ãªye
Ġpoli cÃ®s
Ġvijh Ã©n
Ġwal lonne
Ġatra pe
Ġfon ccion
Ġgra mes
Ġdiswal pÃ©
ĠCol as
ĠhÃ¥y nÃªye
Ġrash ir
Ġsem di
Ġdispa rexhou
Ġlijh eus
ĠpoÃ»ss ire
Ġdaegn rece
Ġclap ante
Ġespagn ol
ĠQu inet
ĠBra ibant
Ġpen it
Wa it
dixh mint
ĠcwÃ©n zinne
Ġpriy ire
Ġrint rer
cÃ´p aedje
sen x
Ġrashonn Ã©s
car ne
Ġpopu lÃ¥cion
Ġloy Ã©ns
Ġbet rÃ¥les
Cont nou
Ġrilom Ãªye
Ġorgan es
ĠcodÃ¥ nÃ©
Ġwae yÃ©n
ĠNicol as
ĠIt Ã¥leye
Ġshab ots
Ġeb reu
ĠnÃ»t ons
Ġschoir cÃ®
Ġverd eures
rion et
Ġgay ole
Ġcwar mea
Uz aedjes
ĠRoum aneye
Ġassaetch ance
ĠcÃ©ncw ante
Ġrafoir cixh
Ġospit Ã¥
Ġagne as
Ġdram atike
utch eye
Nicol ai
Ġsignor reye
ĠBeau carne
ĠThi rionet
ĠBast in
Ġjama Ã®s
ĠDed oy
ĠSchmit z
' ,
1 250
A nd
B N
B i
E yet
I ndust
M o
M in
M ot
M waissÃ¨s
P ire
P lae
S or
U nis
a Ã®
b ant
c ri
c us
c wa
c Ãªye
c ince
d oÃ»
d dÃ©
f on
f ranc
h on
i di
l aedjes
m os
n ale
o et
p Ã©s
r Ãª
r ess
r wÃ¨s
s el
s et
v re
v ire
y o
y ants
z es
z ins
z Ã¥r
Ã Ń
Ø §
Ġ 29
Ġ inde
Ġd resse
Ġl it
Ġl Ã«
in aedje
in blanc
on ant
Ġa min
Ġs Ã¨
Ġs Ã¥rt
Ġp ike
Ġp Ã¥t
Ġp eter
Ġp randj
Ġe wou
Ġc li
Ġc Ã¥v
Ã¥ jhes
ou y
Ġdi Ã¨
Ġdi reut
Ġm Ã¨s
Ġt ran
Ġt ind
Ġt Ã¥te
re nes
ne yes
ye te
Ġf w
Ġf ac
Ġf Ã´re
ch t
ch as
ch eux
Ġb Ã¥z
Ġb ey
Ġb lo
Ġb oÃ»s
Ġb Ã¥ze
Ġr Ã´ze
Ġr fÃ©
Ġ( -
er na
Ġet revÃ©ns
it Ã¨t
ot o
Ġco s
Ġco de
Ġco li
Ġpo st
Ġpo mpe
Ġli k
Ġdj no
Ġdj nos
int Ã¨s
Ġdo bes
Ġdo rÃªye
Ġav Ã©ns
Ġi rans
Ã» les
Ġpa role
Ġso lo
xh eur
xh Ã®s
ve gne
Ġsi m
Ġsi r
Ġtch andele
st a
19 45
ont Ã©
at rea
ra p
ra te
ĠM al
ĠM itan
ran mint
Ġw Ãªre
am Ãªye
Ġo yeut
Ġal oye
ĠB ibe
ci etÃ©
ĠC ab
ĠC ana
pe n
ĠS h
Ġh oye
Ġh atrea
Ġno ter
ĠA berteke
ter ne
Ġmo y
pr on
pr it
ĠP tit
ĠP ales
ĠP ablo
li a
li pe
vi aedje
Ġri sse
ĠF er
ĠF ond
Ġto we
Et revÃ©ns
Ġ19 10
Ġ19 56
Ġ19 32
Ġou m
Ġma pes
ess Ã®s
ĠR i
Ġu rope
ĠG en
ĠG Ã¥me
Ġan uti
ĠT Ã®
ĠT at
ĠT im
ĠT ur
Ġcw Ã¥re
Ġcw iter
ĠW e
ĠW il
rÃ¥ mont
Ġda vance
ĠH it
ure a
Dj u
Dj Ã´zef
ic yin
Ġmet Ã¨t
Ġva lets
ĠJ ac
ni esses
Ġ20 13
Ġmi ss
Ġsp Ã´rt
Ġba xhÃ®
Ġba ssÃ¨s
ĠcÃ¥z eus
jhe yes
Ġbou lome
ĠpÃ¥ l
ĠV Ã®
Ġad v
ki ons
Ġvey oz
Ġbe yes
gu Ã©
gu Ã¨s
co ri
co ir
Ġev oy
ĠÃ¥r t
ĠÃ¥r vier
Ġpass a
Ġpass ant
Ġlon djin
Ġti ene
Ġti pike
Ġpu vite
pi on
pi eus
Ġmwa issÃ¨s
itch ote
Ġmou mints
Ġdju djmint
Ġvol Ã©nt
Ġdm an
Ġga ye
Ġap inse
ĠO ur
Ġam id
Ġtcham bes
ixh Ã¨t
Ġdro vou
Ġari mea
Ġpi ps
Ġcou jh
Ġin m
Ġin n
Ġin dicatif
Ġcre v
va is
ĠPa inblanc
ĠDi ale
Ci st
Ġser oz
ĠpÃ¥rti xh
Ġpou ss
Ġch al
Ġcoir nÃªye
Ġriv ire
ĠkÃ© ne
to is
to ssu
Ġdjonne a
Ġrs aetche
Ġprez inter
ĠtchÃ¥ fer
Ġprind Ã¨t
ai we
Di viÃ¨
Ġgo vier
Co viete
Ġgre v
cu le
rexh aedje
Ġ16 00
ĠIn stit
Ġtou risses
Ġmont Ãªyes
Ġris ch
Ġcam pagnes
Ġse ke
ĠAn to
Ġcnoxh ous
ĠMÃ¥ tche
ĠUrope yinne
Ġbout Ã¨t
oi ces
Ġsetch s
Ġvraiy Ã¨s
ass er
Ġdierin nÃ¨s
djo es
ĠcÃ¥ rire
Ġfl otches
Ġfl ates
Ġeploye yes
Ġgri per
Ġtcha it
ĠvÃ©n reut
ĠÃ´r lodje
Ġtae yes
ven mints
Ġbal ter
Ġspe nes
ĠBal le
Ġprezint aedje
Ġpri yesse
ĠbÃ¥ be
Ġespli ker
Ġlo ke
Ġley ive
ĠBe dje
cÃ¥z ants
Ġrou min
Ġatra pÃ©
Ġegzist Ã¨t
Ġdiswal paedje
Ġrespond a
Ġbleu we
Ġrlidj eus
Ġrab at
ĠII I
Ġriss aetch
Ġriss aetchÃ®
Le yÃ®z
ĠpapÃ®s crÃ®t
ĠÃ¨st Ã©ve
Ġspit rons
Ġsur mint
ĠtÃ¥v lea
Ġher tch
ĠHin not
Ġmz eure
Ġvel o
Ġrile ver
Ġhal crosse
Ġdrou kes
Ġfri ca
Ġamer ikins
por trait
Ġmiz eres
Ġrashonne r
Ġarest Ãªye
Ġlam pe
ĠatÃ´ tch
Ġdujh ance
ĠLin ux
Ġadmin ist
Ġdiccion air
Ġkilo metes
ĠPrin cipÃ¥tÃ©
Ġanti biy
Ġdoir m
Ġdoir mi
ĠAra bes
MÃ¥ grÃ©
Ġmas h
Ġrtour ner
Ġfoclo re
Ġrevint reye
Ġrespe ct
ĠLor int
ĠLen fant
Ġbiest reyes
Ġmey nute
ĠLej eune
ĠDje dene
Ġrob etes
Ġperlin aedje
ĠDuy senx
Ġarey op
hilip pe
ĠDefre cheux
ĠPales tene
. "
A v
B a
C O
D im
E W
M alade
M opliyaedje
P Ã¥dje
R a
S e
S it
S ourd
S BN
W al
a di
b Ã´
b oÃ»
b ur
c et
c ont
c ourti
e Ã»ve
h Ã¥ye
i kÃ®
l Ã¨
m of
m Ã¥le
n g
o eres
p p
r ot
t os
u be
u sses
v el
w Ã¥
w ter
z ou
Ä ģ
Å Ł
Ð ½
Ġ Q
Ġ Etimolodjeye
Ġ 45
Ġl oc
Ġl ites
in reye
Ġa ire
Ġa waite
Ġs yinces
Ġp Ã©s
Ġp itchote
Ġe la
Ġc it
Ġc ous
Ġc mer
Ã¥ sse
Ã¥ rire
ou ter
Ġm n
Ġm en
Ġm inne
Ġm ene
Ġm emwere
Ġt ire
Ġt irer
re le
re tes
re au
Ã¨ d
dj reye
dj ive
Ġk esses
Ġf rexhe
Ġb Ã©
Ġb eur
Ġb otch
Ġv Ã´r
Ġn Ã¨
Ġr plo
Ġr net
Ġr esser
Ġes per
Ã©n k
ae zi
ss aedje
ss Ãªye
le yon
ot ike
Ã´ han
Ġco sch
Ġco ixhe
Ġpo yon
Ġpo vwer
al an
al Ã®
Ġli ber
ant o
Ġdj onde
Ġav nou
Ġav ion
Ġav ions
ri e
ri res
et on
Ġpa c
Ġpa ret
Ġso rire
Ãª t
ce le
Ġsi vierba
wa er
Ġtch Ã¥rs
ir Ã®
ir Ã»sses
19 96
ol Ã¨s
at ive
Ã¥r djÃ®
is ter
la sse
ĠM ir
ĠM ic
ĠL oukÃ®z
Ġo c
Ġo p
Ġo vere
Ġst rou
Ġst ouve
Ġst udeye
ĠB an
ĠB rÃ¥mint
ĠB ier
ĠC i
ĠC it
ĠS Ã¥
ĠS wisse
Ġpl Ã¨t
Ġpl Ã©nt
Ġpl antch
Ġpl innes
Ġh i
Ġh Ã¥r
Ġh Ã¥re
ter min
Ġmo ye
en a
pr in
ĠP us
ĠP ar
ĠP ere
om aedje
tch ete
Ġdis dj
Ġdis pl
ur wesse
be ne
vi ons
Ġsc re
Ġri wait
Ġri prezinte
ĠF ala
Ġ19 47
Ġ19 39
Ġca pit
Ġra hou
Ġou bÃ©n
Ġma sto
Ġma yon
Ġma igue
ĠR ab
ĠG ro
ĠT rou
ĠT intin
Ġfo ices
lo e
Ġci ddÃ©
ite ure
ĠH e
ĠH ar
ĠN os
Ġbo kion
ic o
Ġmet ant
Ġmet aedje
Ġva ici
Ġpol Ã©nt
Ġni vaye
Ġsp esse
ĠDj Ã¥
ĠDj Ã´r
ĠDj ud
ĠI r
ĠcÃ¥z Ã©nt
Ġbou teus
Ġvos te
pa itch
ĠpÃ¥ w
ĠV ol
ĠV rind
Ġscrijh Ã¨t
ma gnÃ®
ki ve
Ġvey ous
win ce
Ġfr oum
Ġpu pe
Ġef ance
Ġz ing
Ġcom pete
est in
lan gen
Ġvol Ã©
Ġvol ant
Ġvol Ãªye
Ġle ver
Ġye Ã»
Dji vÃªye
Ġbr une
Ġcor waitaedje
Ġcor tis
av ance
Ġab Ã©
Ġab wess
Ġab oere
Ġtcham oss
Ġter Ãªye
ixh ante
Ġdro la
Ġeplo yÃ¨t
Ġpas keyes
Ġin dje
Ġfa ut
Ġsit r
Ġsit ind
Ġtour pene
ĠU C
ĠDi Ã¨
Ġdin Ã©
Ġdin Ã©ve
Ġcal kÃ©
op Ã´l
Ġtra dicion
da me
Ġgaz tÃ®s
Ġlong ou
Ġhou p
Ġratour nÃ©s
Ġlin Ã§
200 4
ĠcwÃ¥r Ã©
ĠcwÃ¥r Ãªye
Ġbat aye
Ġfam eus
ĠtÃ® xh
Ġah esses
Ġah iver
Ġmuz ikes
ĠCh antal
Ġshu vÃ¨t
Ġ17 0
Ġot rich
Ġaf royÃ®
Ġfijh a
Ġfijh aedje
Dis fondowes
lin we
bi oteke
Ġboune ur
Ġvint inne
ĠMar tin
ĠMar chal
ĠDe champs
Ġris honn
Ġfot bale
Ġse mer
Ġcra he
ĠAn c
ĠEt revÃ©ns
Ġroman e
fa ce
Ġpitit s
Ġimp Ã´rt
ĠHen in
Ġama zir
Ġec or
oi se
Ġnov elan
Ġval ixhance
Ġcint ime
Ġgr uz
ĠdoÃ» cÃ¨s
ĠGu ere
Ġed vin
Ġrae ces
Ġrae ze
Ġrae zete
Ġcrexh ou
Ġsicrijh eus
ĠtchÃ´d ron
tr Ã´
ĠSi gneur
Ġaid ant
Ġpoirt Ãªye
Ġramexh nÃ©s
Ġespli cant
Ġbrou xh
Ġley Ã¨t
gl at
Ġmod Ãªyes
Ġpond ants
Ġacle vaedje
Ġdisla xhaedje
Ġraf roe
plae Ã§mint
aedj eus
Ma reye
ĠdicÃ¥ Ã§
ĠÃĶ re
ĠSc rijheus
ĠGrand mont
ĠPr Ã»sse
Ġtchey ou
Ġradj oute
Ġgl aece
Ġscha esses
Ġrav eur
Ġrwait Ã®s
Ġtchere tes
Ġnor mÃ¥
Ġinf Ã´rm
Ġkinoxh ou
Ġdjal Ãªye
Ġdivint rin
Ch arles
Ġanon ce
ĠLu cien
Ġaro ke
pot aedje
Ġfab ri
Ġapo irter
Ġetrindj irs
Ġtche dje
Ġtan ks
Ġsustant iv
Ġrpa ssÃ©
Ġash id
Ġmez Ã¥jhe
djon ctif
Ġamoen ner
Ġmilit aire
Ġmiz ere
Ġun itÃ©
ĠatÃ´ tchÃ®
par ints
ĠÃ¥jh mince
Ġdiccion aire
ĠDaegn toele
Ġsof rixh
Ġsinti mints
Ġrosse a
Ġramoen ner
ĠLo vegn
Ġhan ete
Ġsud djonctif
ĠGra ide
Ġrifond aedje
Ġtelef one
bour g
Ġgrou pe
Ġtimp esse
Ġfiz ike
Ġprofess eur
Pier re
ĠhÃ´ teur
onsi eu
Hou bert
itae yaedje
ĠAle x
Ġmauj one
Ġasso Ã§
Ġbwe jh
ĠDjo do
ĠZel ande
Tol minme
Ġdjonte ure
ĠCoir neu
ĠSta sse
ĠEdji pe
ĠKimin Ã¥ltÃ©
Ġtouba k
Ġpenit ince
Min Ãªyolodjince
franc Ã¨s
Ġcmer es
ĠVrind ts
ĠLovegn Ã©e
" :
1 180
A f
A iwe
B iy
D inez
D andjreus
F Ã©
N am
S a
S inte
T ote
V i
a re
a ut
b ok
c ins
c ance
c cions
d u
e veke
e voye
f as
l yin
m ol
m eus
o ssÃ®
p on
p ri
p iner
r it
s p
s int
s is
t t
t an
t Ã©nt
t or
u ra
u va
v eu
v Ã©n
v mints
v uzion
w s
y ot
Å £
â µ
Ġ %
Ġ reye
Ĥ ¬
Ġd Ã¥s
Ġd meye
in ete
Ġa kes
Ġs ons
Ġs wer
Ġp reye
Ġp inte
Ġp inde
Ġp tchÃ®
Ġe u
Ġe djÃ®
Ġe lai
Ġc Ã©
Ġc ant
Ġc ac
Ġc and
Ã¥ yes
Ã¥ be
Ã¥ vÃ¥
ou jhÃ®
Ġdi ales
Ġdi long
te nes
Ã® nÃ¨
Ġt ini
Ġt Ãªre
Ġt neut
Ġt ayon
Ġt estamint
Ġk it
Ġf Ã¨
Ġf uz
Ġf ontinne
Ġf Ã´mes
ch on
ch en
Ġv Ã´te
Ġr ins
Ġr Ã¨s
Ġr oum
Ġr wey
Ġr poizer
Ġes ch
ss et
Ġco pl
Ġli djwesse
Ġli cince
Ġdo cÃ´
Ġav Ã©ve
el aer
ro l
Ġi r
Ġi ys
Ã» re
ĠÃ¥ m
ĠÃ¥ gne
ĠÃ¥ ma
Ġg Ã¥z
Ġpa ket
Ġso poirt
Ġso viet
xh ete
us te
Ġsi g
Ġsi pa
Ġsi da
Ġtch and
ir Ã¨
ir ons
at ic
20 00
la te
ĠM Ã©
ĠM el
ĠM waisse
Ġw Ã¥
im er
ĠL um
Ġo yon
ac ion
Ġst rim
Ġst indÃªye
Ġal ant
Ġal mande
ĠB au
ci a
ĠC out
ĠC ara
ĠC risse
ĠC roes
ĠC Ã®nÃ¨
ĠS id
ĠS pa
ĠS langen
Ġpl oz
Ġh ae
Ġh atche
Ġmo de
Ġmo pli
pr indaedje
gn nut
ĠP Ã©t
tch Ã®s
vi ker
Ġsc rÃ®
Ġri sto
Ġri met
Ġri div
ĠF re
Ġto co
Ġ19 20
Ġ19 18
Ġ19 34
Ġ19 57
Ġ19 92
Ġ19 91
Ġ19 89
Ġca yet
Ġra h
Ġra biyÃ®
ĠmÃ¥ leurs
Ġma xhaedje
ĠR oz
ĠR otch
Ġu man
ĠG re
Ġan ich
ĠT ou
ĠT an
ĠT ae
ĠT out
lo re
Ġcw er
um ba
Ġdiv nant
Ġci mint
Ġci as
Ġvo zÃ´tes
Ġte ro
ĠH al
ĠH ab
ĠE d
ing aedjes
Ġ20 16
Ġfi st
Ġmi li
Ġsp or
Ġsp ale
Ġsp ales
Ġsp Ã©r
Ġsp oÃ»les
Ġba xhe
Ġba gnÃ®
ĠMa x
ĠDj ambe
jhe a
Ġsch ay
Ġsch ape
Ġele mints
Ġbou teu
ĠpÃ¥ pe
ĠpÃ¥ tes
Ġnos te
ĠV Ã®s
ĠV oye
Ġad vier
oz Ã´tes
Ġde mo
Ġai de
ma me
co ran
co viete
Ġpass Ãªye
pi aedje
Ġz Ã¨
Ġz ig
itch ete
Ġvol eut
Ġdm win
Ġye r
Dji han
Ġbr otch
Ġcro yon
Ġap Ã¥rt
ĠO u
ĠO st
ĠO landÃ¨s
wand elaer
ijh Ã®s
pl ou
Ġman eu
Ġman cÃ®
Ġab a
fer inces
Ġpla st
ĠdjÃ¥z Ã©ve
ĠpÃ´ ce
nou v
ĠTch er
ĠTch ant
ĠTch estea
of t
Ġ18 50
Ġcou l
ba te
Ġpar vin
Ġcwa rante
ĠlÃ¥ mes
Ġmoen neu
Ġsit roete
Ġbon di
Ã¢ ye
gra fe
Ġblan kes
Ã®t rin
Ġres cou
Ġcont Ã©ve
Ġsin Ã©
ĠDi pus
Ġser i
Ġtcher owe
Ġpou re
Ġcour ts
Ġmin Ãªye
antch Ã¨s
ĠBa i
Ġdjouw Ãªye
Ġdjouw Ã©nt
mÃ¥ dje
ed er
Ġid int
Ġpal Ã¥
ĠtÃ® xhons
Ġins tit
Ġor aedje
ĠtchÃ¥ sse
Ġshu vion
Ġprind eut
Ġgo rea
Ġsav Ã©nt
Ġdmor ant
ad dj
ez Ã¥r
Ġprov nance
Ġ15 00
Ġvoy aedjÃ®
Ġris cÃ´paedje
oc ol
Ġsip Ã¥rd
Ġsip otch
Ġint rer
Ġeter p
Ġvin oz
Ġtin ki
Ġfro ede
ĠRe djons
Ġag ric
Ġdiale ct
Ġrin djÃ®
Ġban Ã¥ve
Ġtchant Ã©
Ġtchant Ã©ve
Ġtchape as
ĠBru ss
si p
Ġme xh
Ġdjae yes
Ġstroet Ã¨s
fi ter
ĠbroÃ» le
Ġdec la
az a
Ġflo ric
Ġsiervi ces
ĠRo djÃ®
Ã¥me ne
ingu es
ÃĶ t
Ġtol monde
Ġalmand s
Ġprin ces
Ġprin cipÃ¥tÃ©
ame ne
Ġrasco d
Ġdisch inde
Ġramexh nÃªyes
Ġespli kÃªyes
Ġtchim in
Ġbra ire
Ġracont aedje
Ġboir ds
ĠsicrÃ®t s
lu kin
Ġplou re
Ġmam ite
cc ala
ĠmÃ¥lÃ¥jhey s
Ġmouss Ã®s
Ġtchante us
ĠÃĶ tÃ¨s
ĠadjinÃ§ ner
Ġpur d
Ġpur nea
Ġcons yÃ®
ĠMat terne
Ġgl umi
Ġaskepi eus
Ġaskepi eye
Ġtchen a
ĠlÃ¨ yÃ®
br ut
Ġnot Ã»le
Ġpowe zeyes
Ġravi caedje
Ġrapl oÃ»s
Ġdism antch
Ġdism antchÃ®
ĠWar tique
ĠrÃ§ ure
Ġpw els
Ġcivi liz
Ġpez ant
Ġpan se
Ġadvie bes
Ġritro ve
Ġwait roÃ»le
ĠPier ret
Ġmess aedje
ĠBr aezi
Ġmarga yes
Ġsustant if
Ġsustant ifs
II I
Ġespe ces
ĠprÃ´p es
Vo cial
ĠAd am
Ġabat ou
wo ris
Ġdr ess
Ġess ince
Ġraw Ã¥rd
Ġloy Ã©n
ĠdjÃ¥ be
gri te
Ġlat Ã©ns
ĠPrin ce
Ġdvi ze
Ġmambor nance
ĠMor itan
Ġbisto ke
ĠdÃ® j
elan ge
Ġrosse te
Ġportrait s
Ġbardou xhÃ®
ĠsÃ´r ti
ĠdisbÃ¥ tchÃ®
Ġtchiv Ã¥
Fran wal
ĠLib rÃ¥mont
lum agne
und sen
Ġaga esse
Ġeru ni
Ġdispi ert
Ratour neures
Ġinse kes
Ġtt Ã¥toÃ»
Ġtaess ons
Ġtchaptr Ãª
Ġdocu mint
ĠHong reye
Ġbier djÃ®
Ġforvey ou
Ġoton ome
Ġstat ut
Ġmodi ene
Ġdjind Ã¥res
eth ier
ĠHol ande
Ġaccid int
ĠProv ince
Ġreyuss i
ĠocÃ¥z ion
ĠÃ¥rmen yin
ĠahÃ¥y ant
ĠChim ai
Wait Ã®z
ĠHit ler
ĠInstit ut
Malade yes
Ġmn ujh
Ġrnet yÃ®
Ġcrahe as
ĠDjodo gne
ĠPÃ©t rez
1 280
: /
A c
A d
A mon
A prume
B e
B wÃ¨s
C ol
C la
C ar
C iste
C Ã¥rire
E zÃ¨s
E plaeÃ§mint
F al
H en
K itaeyaedje
L in
M on
M Ã¥rtÃ©n
O ssu
P lake
S h
T ou
V ey
W alon
a kes
a waire
b eu
b it
b ru
c al
c ante
d ran
d Ã®s
d rÃ®
d ure
f s
f al
f el
f la
f ic
g ro
g ard
g lÃ®
g ique
h n
h el
j i
j es
k y
l us
m ac
n on
n ic
n rece
n Ã¥d
n berg
o grafike
r djeye
s u
s it
t ini
u el
v Ã´
w inme
y Ã¥ve
Ð ²
Ð µ
Ð ¸
Ġ 55
Ġd nant
Ġd aegne
Ġl ene
on Ã©
Ġs Ã©s
Ġs uz
Ġs bar
Ġp es
Ġp wez
Ġe Ã»
Ġe vier
Ġc ond
Ġc otes
Ġc Ã´de
Ġc viers
Ã© de
an dje
Ġdi lou
te te
Ã® te
Ġt at
Ġt inme
Ġt or
Ġt nou
Ġt oÃ»s
Ġt ombes
Ġt tossu
re Ã»
dj aedje
dj eus
dj ist
ye a
Ġf le
Ġf reut
Ġf otche
Ġb yin
Ġb eles
Ġb lame
Ġv Ã»
Ġv wele
Ġv loz
Ġn apea
Ġr wÃ¨s
Ġr mont
Ġr arin
Ġr zultat
ae l
me le
Ġet our
ss in
le n
it o
it it
Ġco isse
Ġco ks
Ġco sh
Ġco ign
Ġpo ere
Ġpo wete
Ġpo eres
al aedje
al is
Ġli bes
ant inne
Ġdj en
Ġdj ave
Ġene rdjeye
Ġav inte
ro vin
ri a
ri z
jh a
Ã» li
Ã» ler
et Ã©s
Ġg Ã¥y
Ġg Ã¥res
Ġso Ã§
Ġso po
us h
ce n
Ġtch ants
Ġtch ike
Ġtch uze
Ġtch mins
st indaedje
ol in
at aedje
at ifs
ra sse
we a
we yes
la ires
ĠM ac
ran e
ran dje
ran ces
Ġw Ã¥s
am pÃ©
ĠD ic
Ġla zer
Ġo teurs
Ġst ou
Ġst ofe
Ġst Ã¥rÃ©
Ġal om
Ġal col
ĠB in
ĠB ur
ĠB aud
ĠB ulg
ci sse
ĠC re
ĠC ro
ĠC lu
ĠC ontes
ĠC ezÃ¥r
as teure
pe reur
ĠS es
ĠS te
ĠS fas
Ġpr atikes
ire ye
Ġh ote
Ġh ay
ĠA pol
ĠA ug
and Ã¥rd
pr umÃ®
gn ive
or d
li sse
Ġri lo
ĠF EW
ĠF Ã¥mene
Ġto ets
Ġ19 25
Ġ19 27
Ġ19 37
Ġ19 46
Ġ19 86
Ġ19 62
Ġ19 82
Ġra sson
ĠmÃ¥ v
Ġma tem
ess in
ti ene
Ġu nike
Ġan al
ĠT uzance
Ġfo it
Ġfo itÃ¨s
Ġcw in
Ġcw ire
ĠW Ã®ne
Ġtro ye
Ġdiv oir
Ġdiv inltins
Ġci er
Ġci ga
Ġre div
ure t
ure nt
ĠE TA
ĠN Ã®
ene r
ĠJ osÃ©
Ġsa yÃ¨t
Ġsa dju
uz es
uz ions
Ġfi v
Ġfi yÃ®
Ġfi ers
Ġsp Ã¥r
Ġsp otche
ouw Ãªyes
Ġba g
ĠMa pe
ĠMa woris
yi xhaedje
ĠI V
ĠI ye
ĠI nd
ĠcÃ¥z Ãªye
jhe le
Ġsch it
Ġsch eure
Ġsch oume
Ġbou xh
Ġac ma
ĠV al
ĠV ie
Ġad uz
ĠWalon e
ĠÃ¥r zeye
Ġwa p
Ġpro fiter
Ġlon di
ĠÃ® t
po leyon
il lon
Ġfr ouma
Ġfr itches
Ġdv eres
Ġmwa ist
Ġmwa iye
Ġdji bÃ®
Ġcom uf
Ġmou stÃ®
est Ã©
Ġdju dje
Ġdju di
zo gne
Ġlom Ã¨t
Ġle ccion
Ġat omike
iy on
iy an
Ġpe me
Ġpe ze
Ġpe xhÃ®
Ġcro ye
Ġga d
Po cwÃ¨
Ġcor espond
fer ince
ul Ã®
Ġpla ye
ĠpÃ´ z
ixh Ã©nt
Ġmar one
Ġmar yÃ®s
Ġ18 0
Ġqu Ã¨
Ġqu Ã«
ĠsÃ¥ f
ĠsÃ¥ ce
ĠsÃ¥ reu
ust in
Ġgu er
Ġfa gnes
Ġcwa tre
Ġcre xhaedje
Ġsit o
Ã¢ yes
Ġcr iti
ĠPa quet
Ãħ d
Ġsin a
Ġsin er
ĠAl coran
Ġdin Ã¨t
Ġtcher yÃ®
Ġdisc Ã´p
Ġhou b
Ġhou ke
em pereur
ĠBa ss
200 3
Ġriv nÃ¨t
Ġsier mint
Ġ3 00
Ġpal tot
ĠfÃ¥ tchÃ®
Ġfam euse
Ġram ons
roÃ» s
Ġor k
Ġxh ame
Ġtri y
Ġtri pe
bor djwÃ¨s
ĠLa urent
Ġds o
Ġass aetchÃ®
ĠDe wandelaer
Ġprov inces
Ġmw intÃ¨s
Ġsou c
ĠIn de
Ġing lesse
Ġtou we
Ġvin Ã©nt
Ġcra wi
ĠAn g
ĠAn ver
Ġpolit icmint
Ġpolit ikÃ®
Ġpitit Ã¨s
Ġta xh
Ġsetch Ã¨s
ĠcrÃ¥ ne
Ġdisf inse
ĠZ ivem
ĠsÃ´d Ã¥r
ĠcÃ©nk inme
Ġban ke
pit ite
Ġpins Ãªyes
Ġme daye
ĠvÃ©n rdi
Ġdjae nes
Ġmagn aedje
Ġdiy acr
Ġpoy s
Ġuz ances
Ġcrexh nut
ĠtchÃ´d Ã¨s
Ġpoirt Ã©
Ġpoirt Ã©ve
Ġrasco de
Ġrasco vri
Ġpri yesses
Ġespli ke
Ġtchim ikes
Ġdiman e
Ġlo kes
ĠÃ©ndjol ikes
Ġrou f
ros oft
Ġwal lons
Ġstudi as
Ġcri yÃ®
sh ijh
Ġshuv eus
Ġcroey ance
Ġy Ã¨sse
Ġcot oÃ»
ĠSc rinÃ®
ĠhÃ¥y ner
ĠvÃ´ ye
Ġesc our
zin dj
Ġbiy o
Ġbiy olodjike
Ġrash on
Ġsierv Ã©nt
fr wÃ¨
Ġgl ae
Ġant olodjeyes
Ġaskepi aedje
Ġclo ke
ĠPol ogne
ĠTchÃ¥r lukin
ĠTchÃ¥r lumagne
Ġho pea
ĠRen ard
Ġvete rin
Ġrwait ants
Ġsur face
Ġtchmin Ãªye
imb lÃªye
Ġhe yes
Ġdivint rinnes
Ġtele vuzion
Ġelect ron
Ġpw et
Ġcivi ls
Ġce ke
Ġce kes
Ġher tchÃ®
ĠLu k
ĠsoÃ» mint
Ġpubli ke
Ãħr vier
Ġdrou ke
Ġpriy ires
Ġcron zo
ĠsÃ» ne
ĠsÃ» ti
Ġtrans li
ĠWa ter
Pr indoz
ign ies
Ġdimand er
Ġoper ance
Ġref oir
ĠLin Ã¥d
Ġmuzul man
Ġcast iyan
Ġcamaer Ã¥des
Ġdiyalect olodjisses
Ġsinti mint
ĠrascrÃ¥w Ã©s
ĠViy Ã©
ĠViy ance
Ġpormoen ner
ĠeternÃ¥cion Ã¥le
Ġboye a
Ġsinon imes
Ġmir Ã¥ke
ĠNicol ai
Ġaprest Ãªye
Ġraecin Ãªye
Ġnorm Ã¥le
ĠriÃ§ Ã»t
ĠmÃ¥l ureus
ĠRwey Ã¥me
ĠEv andjÃ®le
Ġeki pes
Ġliv ret
Ġomb rire
Ġrcwere us
Ġhouy ires
Ġpetch Ã®s
Ġsimp es
ĠspÃ¥ ce
Ġâ Ĥ¬
Ġstof Ã©
ĠitÃ¥l yin
Lou ke
ĠmÃ´ nÃ®
Ġnouz ome
gnole t
Ġvexh Ã¥d
ĠCat rene
Ġmartchandi jhes
Ġprotest ants
Luc yin
MÃ© diaedje
Mou ze
ĠLey on
ĠacoÃ» tchÃ®
Ġapont yÃ®
ĠÃ¥buss ons
ĠDou ccala
ĠaloyÃ® s
ĠSim wÃ¨s
ĠNÃ¥ winne
Ġindj Ã©n
Jo seph
Ġmun ute
Ġbur ton
Ġlike ns
Ġtchest ur
ĠGabri yel
Ġricmin cÃ®
Ġrafoircixh ante
Indust reyes
Ġinde pind
ĠCana da
ĠpÃ¥l mÃ®
ĠatÃ´tch ance
Ġareyop lan
Ġpac yince
ĠMic rosoft
ĠFala chas
paitch ance
ĠUC W
Ġcintime tes
ĠinfÃ´rm atike
tt p
ĠLum umba
ÃĶt mint
ĠClu b
ĠSfas ie
Ġcomuf Ã¥t
1 100
1 150
1 190
1 160
1 140
1 240
1 170
1 130
1 270
1 230
1 290
1 260
2 100
2 150
2 250
2 190
2 180
2 160
2 140
2 240
2 170
2 130
2 270
2 280
2 230
2 290
2 260
B on
B ru
C at
C Ã¥ze
E venmints
F Ã¥
G rand
H an
H am
L Ã¥vÃ¥
N R
N er
O r
S t
T B
T roes
V a
a ch
a yi
b ole
b lin
b lou
e hÃ¥yaedje
f ier
g Ã©
g ot
h al
h ai
h onteus
i x
l oÃ»
l Ã¥d
l Ã¥te
n onne
p Ã¨t
p eure
r ant
s ou
s wÃ¨s
s ki
t aedjes
t ance
u ci
u les
v eut
w oe
x i
y ote
Ê ¾
Ù Ĭ
Ġ 70
Ġ 48
Ġ 90
Ġ 41
Ġ ''
Ġd rÃ¥
Ġd ama
Ġl Ã»
on veye
Ġa met
Ġa ssÃ®
Ġa rindj
Ġs te
Ġs ke
Ġs ul
Ġs ints
Ġs Ã»te
Ġs minces
Ġp ete
Ġp ans
Ġp onte
Ġe ro
Ġc f
Ġc tch
Ã¥ bes
ou we
te le
Ġm is
Ġm antches
Ġm Ã®trinne
Ġt ac
Ġt Ã»t
Ġt aye
Ġt omb
Ġt aetche
Ġt ort
Ã¨ lle
Ã¨ ge
dj Ã¥z
Ġk g
Ġk u
Ġf Ã´res
Ġb ir
Ġb ene
Ġb Ã¥d
Ġv Ã¥r
Ġr p
Ġr and
Ġr mer
Ġr prez
Ġr Ã»sses
Ġes pÃ¥
Ã©n reut
me teut
Ġet ot
Ġet rin
ss etes
Ġco vr
Ġpo winme
al s
al Ã©s
al ta
Ġdo ct
Ġav eus
ro me
ri ma
jh Ã¨t
Ã» se
ĠÃ¥ we
et o
Ġg rijh
Ġg rÃ©
Ġg land
Ġg rijhe
Ġpa rexhe
Ġso ey
xh owe
wa i
ke n
ke nes
Ġtch m
Ġtch an
Ġtch ikes
Ġtch ets
Ġtch ocol
st Ã©s
st rer
ir Ã©
ir ont
Ġ" ).
19 95
ol Ã©
ut es
ut rou
ont Ãªye
at were
os a
20 10
la sses
ĠM et
ĠM uzÃªye
am on
am per
eus Ã¨s
ĠD inltins
ĠD unker
Ġla dvins
ĠL am
ĠL empereur
Ġo mon
ac o
Ġst itche
Ġst Ã¥ves
ĠB ri
ĠB ob
ĠB atisse
ci euse
ci xhant
ĠC as
ĠC our
ĠC ap
ĠC ong
ĠC ast
di zo
our ner
ĠS pÃ¥
Ġpr Ã´zes
ire yes
Ġh esse
Ġh eure
Ġh iner
gn Ãªye
ĠP ond
ĠP lake
om ic
Ġdis br
or k
ur ant
be a
li am
Ġsc onte
Ġri meas
ĠF o
ĠF Ã¥
Ġ19 28
Ġ19 48
Ġ19 22
Ġ19 21
Ġ19 69
Ġ19 83
Ġ19 59
Ġ19 61
Ġ19 72
Ġca p
Ġca ch
Ġca ro
Ġra pe
ĠmÃ¥ lÃ¨s
ĠmÃ¥ ha
Ġma reye
Ġma kÃªye
ess i
ti a
ĠR u
ĠR am
Ġu donbÃ©n
ĠG Ã¥le
ĠG ob
ĠLi m
ĠLi ban
ĠT e
ĠT o
ĠT ay
lo ke
Ġcw itÃ©
um es
um ire
Ġtro mp
xhe ne
Ġre zi
Ġre pet
Ġvo ci
ĠH esta
ĠE n
ĠE ter
ĠE ug
Dj er
Dj Ã¥ke
Ġbo cse
ic ter
Ġva ila
ni a
Ġbi yets
Ġbi dons
Ġ20 11
Ġfi eÃ»ve
Ġsp in
Ġsp itÃ©
Ġba ss
Ġba ra
Ã´r s
ĠDj ule
Ġen onde
id Ã®s
Ã¥t s
Ġsch oices
ĠÃ «
ĠpÃ¥ ters
Ġac la
Ġac ert
Ġac ademeye
Ġad resse
vint rin
qu ar
Ġas ke
Ġas po
Ġas pit
Ġvey Ã¨t
Ġvey Ã¥ve
Ġfoirt s
gu i
Ġpass Ãªyes
Ġpass ion
Ġwa ches
Ġlon mint
Ġti y
il Ã®
Ġdv Ã©nrÃ¨
Ġro yinne
Ġz a
Ġz ero
itch Ã®s
Ġmou d
ap es
Ġvol Ã¨t
Ġlom a
Ġle g
ab le
Ġpe lete
Si potaedje
Ġcro eye
Ġga yet
ĠO uc
ĠO ignies
oum i
Ġam ou
Ġam uz
Ġman net
Ġtcham pete
Ġtcham ossÃ®
Ġpla tene
Ġend aler
ĠpÃ´ vÃ¨s
Ġari vÃ©ve
ine a
ĠsÃ¥ jhons
Ġras pe
zi aux
Ġtr int
Ġtr onn
Ġtr inner
Ġgu e
Ġpor moenne
Ġpor tu
Ġpi ce
Ġpi djons
leur u
ba ss
ba sti
Ġpar don
Ġcre ve
Ġmoen nance
mon eye
Ã¢ dje
Ġrom ins
Ã¥l dimint
ĠÃħ s
Ġcon v
Ġcon djÃ®
Ġ1 200
Ġcont ro
Ġcont rÃªye
Ġsin nes
Ġser Ã©nt
Ġdin Ãªye
Ġtcher i
Ġtra w
Ġtra wÃªye
Ġsaetch Ã®s
imbe re
Ġlong owe
Ġcl int
Ġcl otch
Ġcl Ã´re
Ġhou yeus
em i
Ġch er
Ġratour nÃªye
Ġpad zeu
Ġdjouw nut
Ġar on
Ġar aedjÃ®
Ġriv neut
Ġmuz eure
Ġor gane
Ġeplaid a
Ġfijh eu
Ġfijh ant
Ġmes kene
ĠtchÃ´ dire
ĠFranc s
Ġna rene
Ġem il
Ġem ission
leu ve
Ġrim a
Ġrim es
do b
Ġvoy aedj
ĠtÃ© mint
Ġris p
Ġsip it
Ġsip oÃ»le
Ġdjh a
Ġeter Ã©
ate ures
Ġvin a
hi eu
Ġcat alan
Ġha gne
Ġha gnÃ®
ĠHen ry
Ġshof lÃ©ve
Ġbout Ã©nt
Ġsetch resse
Ġper met
Ġper io
ĠMou reau
ĠcrÃ¥ mi
Ġmos lim
Ġbate me
Ġcost ume
Ġrin gne
Ġrin djeyes
Ġredj i
Ġval eut
Ġviz u
Ġviz on
Ġ6 00
ĠcÃ¥ tes
Ġj us
Ġgr ae
Ġgri pe
Ġtcha f
Ġmagn ive
honn aedje
Ġmari a
Ġmari aedjes
Ġed oir
ĠGil lain
Ġwaer nu
Ġbrut s
Ou y
Ġrexh nut
Ġegzim pes
Ġsto elÃ®
lot Ãªye
Ġcm ons
Ġpoirt Ã¨t
Ġprin jhe
teus e
ĠMi gnolet
cs ike
Ġtchim ijhe
Ġtchim inÃªye
amp Ãªye
Ġley a
Ġley ant
ĠTh or
Ġbetchf essÃ®s
ĠmÃ© de
Ġcrust inne
Ġmach ines
Ġpond eu
Ġacle vÃ©
Qu and
ĠboÃ» kete
erma le
Ġvijh ene
Ġdisla xh
ĠrascrÃ¥ wÃªye
Ġflamind s
ĠsÃ¥r Ã¨
bl y
Ġfon et
Ġcodjo waedjes
Ġegzist Ã©ve
Ma rie
Ġtchet oeres
Ġrad mint
Ġcontin int
Ġshuv eut
Ġdra p
Ġrond s
Ġbro ke
Ġmic op
Ġfran wal
ĠPr umÃ®
Ġbed ot
ĠBo vegne
Ġbresse ne
Ġaskepi eu
Ġscha yes
Ġritch esse
Ġcoixh eure
Ġcer Ã©
Ġho ssÃ®
ĠÃ´t mint
Ġgam Ã©ns
Ġravi ze
Ġkinoxh ance
Ġdjal oz
Ġhe pe
ĠNo ere
Ġcrap Ã¥des
ĠtÃ¥v leas
Ġkeu te
Ġcab u
Ġacse gnÃ®
Ġpez ants
Ġsing lÃ©s
Ġsing ulÃ®
Ġtchess eus
Ġapo ite
Ġcomin ce
Ġom rin
Ġrist itch
Ġrist itchÃ®
Ġparint Ãªye
cÃ´p s
Ġimprim reye
ĠPÃ¥ pe
Ġlam es
Ġfoum ires
Ġfilozo feye
fre reye
Ġeconom ikes
Ġdjer mÃªye
ĠÃ¥jh eye
ill y
ĠMÃ¥r cin
ĠHou bert
ĠHou ziaux
Ġpexh eu
Ġinter ess
Ġindust ri
Es paitchance
Ġere djist
Ġnam urwesse
Ġrilom Ã©
Ġmaw ori
Ġplate zak
Ġaw eure
Ġeba g
CÃ¥z aedje
Ġschi pe
Ġsilla be
onna ire
Ġpayiz ans
Ġben i
alade ye
ĠsÃ¥va dje
Ġrcwere u
Ġhouy ire
ĠcoÃ»t Ã¨s
ĠDam bly
Ġost aedjes
ĠSou dan
ĠNot ru
Ġasbla w
Ġuniviers itÃ©
Ġdivi zi
ĠAm undsen
Ġedvint Ã©
Ġtchoez ixh
Ġrsint ou
Par intÃªye
Ġromant Ã®
ĠlÃ©jh ou
Ġstoca esse
Ġbacte reyes
Ġcoxh etes
Ġreplaid Ã®
Ġect Ã¥res
ĠBlan ke
Ġordin aire
ĠtchÃ¥f aedje
Ġcopiut reces
Ġsoha itÃ®
ĠBert rand
ĠWiy Ã¥me
Ġmartchande yes
Ġdjint i
ĠcapÃ¥ be
ĠHav elange
Ġzou p
Ġmedi as
pron oncÃ®
Ġmiss ion
Ġcous cou
ĠCit adele
ĠDjud la
ĠIr lande
Ġfroum aedje
Ġabwess on
ĠAlex is
Ġcant on
Ġplast ik
sip ata
ĠMoritan reye
:/ /
glÃ® je
ĠWater lÃ´
Ġsoey Ã©nxhe
Ġportu guÃ¨s
5 00
A B
D oÃ»
D jhan
F oirt
I V
L eus
M at
M ete
M au
O U
P Ã´
P la
P ad
P rod
T e
T er
a h
b one
b rou
c l
c q
c Ã©nt
c as
c tes
c nut
c rire
d Ã»
d Ã¥r
d abÃ´rd
d rÃ¥le
e b
f eu
f ran
f ini
g ons
g ros
h o
h en
h of
i cion
i ket
k is
k eure
l reye
l aece
l otches
m eu
m is
m esse
m ond
n oz
n rÃ¨
o ct
p ut
p at
p art
r l
r Ã©n
s a
s k
t ons
t Ãªyes
t Ãªy
u rope
v Ã¨
v uzions
y ou
y aedjes
y Ã©s
y co
z et
§ ÙĦ
Ã ¼
Ñ Ģ
Ġ Ù
Ġ we
Ġ ze
Ġ 47
Ġd at
Ġd nÃªye
Ġd ates
es net
Ġl ouw
in Ã®
in ance
on eye
Ġa y
Ġa metou
Ġa weye
Ġs b
Ġs an
Ġs el
Ġs Ã¨t
Ġs pr
Ġs ba
Ġs onn
Ġs Ã«
Ġs Ã´rt
Ġp ant
Ġp ut
Ġp ous
Ġp Ã«
Ġp eres
Ġe rire
Ġe rote
Ġc ere
Ġc ingue
ou k
ou pe
Ġdi Ã¥le
Ġm us
Ġm ons
Ġm ourt
Ġt s
Ġt Ãªres
re f
Ã¨ me
Ã¨ gne
Ã¨ nes
dj or
dj aedjes
dj Ã¥le
dj ime
Ġk Ã©nt
Ġk eure
Ġk ert
Ġk ine
Ġf Ã®
Ġf itchÃ®
Ġf uret
ch andi
Ġb Ã´me
Ġb Ã®re
Ġb ombes
Ġv an
Ġv etes
Ġv ul
Ġn Ã´r
Ġn ouwÃªyes
Ġr Ã¨
Ġr ne
Ġr us
Ġr tch
Ġr Ã´z
Ġon i
er n
er ci
Ġdes tin
ss us
ss ire
Ġco sse
Ġco pene
Ġco frereye
Ġpo eve
al eure
Ġdj Ã¥r
Ġdj wifs
Ġdj ermale
int Ã©
Ġdo cs
Ġav iz
Ġi me
Ã» lÃ¨s
ĠÃ¥ tÃ©
ĠÃ¥ reus
Ġg ou
Ġg ot
Ġg rinne
Ġpa reye
Ġso te
Ġso per
Ġso yu
ce me
de yes
Li ve
Ġsi mb
ke as
Ġtch oÃ»
Ġtch au
Ġtch Ã¥te
19 18
19 93
ol ike
se a
at icmint
ra y
ra mint
ra rd
Ã¥r ta
ĠM alon
ĠM en
ĠM oz
ĠM amÃ©
ĠM Ã¥rtÃ©n
oÃ» tes
Ġw Ã¨
ĠD ar
ĠD utcheye
ĠD ethier
ĠD utrou
Ġla u
Ġla xhe
ĠL on
ĠL an
ĠL er
ĠL esse
ĠL ingaedje
Ġo pe
Ġo ssi
ac i
Ġst inde
Ġst ier
ĠB ol
ĠB at
ĠB av
ĠB od
ĠC O
ĠC er
di te
ĠS an
ĠS am
ĠS ene
ĠS ab
ĠS NR
Ġpl ind
Ġh oz
Ġh ante
Ġh ong
Ġh Ã¥rdÃªyes
Ġh ttp
ĠA lo
ĠA steure
ter aedje
Ġmo rÃ¨t
en i
ĠP Ã®
ĠP ec
Ġdis termin
vi z
vi stÃ©
Ġri b
Ġri fondowe
ĠF or
ĠF ris
ĠF amile
Ġto ete
Ġ19 78
Ġ19 65
Ġ19 66
Ġ19 55
Ġ19 85
Ġ19 63
Ġ19 54
Ġ19 73
Ġca zer
Ġra ri
Ġra wa
Ġra pr
Ġra pa
Ġra gran
ĠmÃ¥ va
ĠmÃ¥ honteus
out es
Ġma ke
ess aedje
ti sse
ti kes
ĠR odje
ĠR otche
ĠR Ã»sses
ĠG ram
ĠG od
Ġan dje
ĠT er
ĠT it
ĠT om
ĠT omb
Ġfo et
ĠW as
Ġtro pea
Ġdiv eur
Ġre b
Ġre n
Ġre gu
Ġre gl
Ġ* *
Ġte ze
ĠH our
ĠH ier
ĠH ost
ĠH olandÃ¨s
ĠE nd
ĠE gzim
ĠN Ã¥cion
Ġbo sse
Ġbo igne
ond aire
ond roz
Ġmet Ã¥
Ġsa w
Ġdit rop
Ġbi bioteke
min de
Ġni y
ere r
Ġfi y
Ġfi esteye
Ġsp p
Ġsp Ã´res
Ġba sses
Ġba wete
Ġba rake
Ã´r br
ĠMa hy
ĠDj adi
Ġen imÃ¥
id Ã®
Ã¥t Ã®
ĠcÃ¥z nut
Ġsch er
Ġsch ene
Ġfranc esses
Ġac r
Ġac Ã®
Ġac oir
vint aedje
Ġep lae
Ġgrand eur
Ġvey a
Ġbe atÃ©
Ġbe zogne
au je
gu eu
co reye
Ġev oyaedje
Ġpro metou
Ġef ouwaedje
Ġdv reut
Ġdv wer
Ġro gne
itch a
Ġcom pli
Ġmou ze
Ġrat ni
ap Ã©
ap inse
lan i
Ġdju djÃ®
Ġvol er
Ġle ve
Ã¥d nut
Ġat ouw
Ġbr antches
Ġpe as
ver dea
Si pÃ¥rdaedje
Ġdire cteur
ĠO s
ĠO li
ĠO Ã»te
ĠO lande
ĠO uw
Ġam o
Ġam ontÃ©
Ġam bass
Ġcor Ã¨t
Ġman ike
Ġman oyes
Ġab uv
ul on
ul teure
Ġpla it
ĠdjÃ¥z Ã¨t
ixh mint
Ġdro les
iv euzmint
Ġari vÃ¨t
Ġ18 70
ru mints
ĠsÃ¥ mes
Ġeplo yive
Ġeplo ctaedje
zi cion
Ġtr Ã©n
Ġtr wÃ¨s
Ġtr Ã»te
Ġsic olodjike
Ġveye ut
Ġfa ye
Ġfa yÃ©
mp ont
Ġnd alÃ©
ĠlÃ¥ tchaedje
Ġsit ofe
mon ak
Ġbon djoÃ»
Ã¢ djes
Ã¢ reÃ»t
Ġtour nÃ¨t
Ġtour nisse
ĠPa ra
Ġne yÃ®
pyÃ® s
Ġcon dicions
Ġ1 20
Ġtec n
Ġcal ote
Ġve Ã»
Ġtcher w
Ġdijh eut
Ġdijh eye
Ġtra ke
Ġtra ite
Ġrc lame
ĠpÃ¥rti xhaedje
Ġsaetch ot
Ġsaetch Ã¨t
teye nes
Ġcl ou
Ġcl otche
Ġch asse
Ġric la
Ġar onde
200 2
200 9
Ġcoir na
ĠcwÃ¥r tÃ®s
ga zete
ĠÃ¥d la
Ġ3 000
mo ide
Ġrt oÃ»ne
Ġram asse
ĠCh ar
Ġfor s
Ġfor ma
Ġfor nai
ĠtchÃ¥ sses
ĠtchÃ¥ for
Ġprind a
Ġprind Ã©nt
ov in
ai zer
Ġtri mp
ĠÃħr lon
Ġfijh oz
lin aire
bi a
ÃĪ m
Ġtey oreye
wou met
Ġgre te
Ġgre ks
Ġtuz a
Ġtim bes
Ġass aetche
Ġsou ne
cÃ´ swÃ¨s
Ġtou risse
Ġpic sel
Ġwan gn
Ġwan gna
ĠY opÃ´l
ĠY alta
ĠY ork
Ġint itÃ©
Ġeter tini
Ġvin ou
Ġvin ant
Ġcra ma
ĠAn loe
Ġtin r
Ġtin kyÃ®
Ġrfond eus
hi gnesse
Ġfro z
ĠMÃ¥ jhon
Ġcat ru
Ġcat oi
Ġha gnon
Ġshof lÃ©
Ġec wÃ¥r
Ãªy mint
Ġsac rÃ©
Ġrpr otchÃ®
Ġta xhe
Ġper metou
ĠrÃ¥ jhons
ĠcrÃ¥ n
ĠrÃ® lÃªyes
Ġdisf indou
Ġbin amÃ©
ge ois
Ġfini esses
Ġrtro vÃ¨t
Ġcandj Ã¨t
Ġnin dje
plo me
Ġcint rÃ¥le
Ġtcha we
Ġpins es
Ġme can
Ġdjae nÃ¨s
Ġmagn Ã¥ve
Ġrv owes
ĠbroÃ» lÃ©
Ġaddje cti
Ġuz aedjes
Ġwaer axhe
Ġcrexh ant
Ġrexh eut
Ġatch teu
Ġaid ants
div eus
Ġprin cip
Ġsov nance
Ġcar bone
Ġricnoxh ance
Ġricnoxh ous
Ġprezint Ã©
ĠVer a
Ġprof it
Ġlo djÃ®
Ġbrou y
ĠmÃ© di
ĠmÃ© diaedje
Ġvind eut
Ġofic Ã®s
Ġofic irs
Ġrlom ÃªyÃ¨s
Ġstr itch
Ġrou yot
Ġfront ires
aedj mint
Ġrind Ã¨t
ĠBi arin
ĠCon sey
Ġrapoirt s
Ġsfwait Ã¨s
Ġral oyÃ®
ĠSara zins
Ġpel ake
Ġfran ke
Ġdans es
Ġeri ve
ĠWi ki
Ġdimor Ã©ve
Ġrash id
uw Ã¥cion
Ġgl were
Ġritch esses
anc re
Ġnot Ã¥re
Ġtrib us
Ġ190 5
Ġspit ron
Ġinf lu
ĠrÃ§ Ã»t
Ġspot Ã©s
Ġbagu er
Ri prins
Ġru jhe
Ġcivi le
gr Ã¨s
gr Ã©s
Ġapa rexhe
Ġdz Ã´r
Ġpre tch
Ġmz eures
Ġrf onde
Ġpaye lÃ©
ĠBra gard
Ġhal cot
Ġpubli yÃ®
ost ik
Ġcomin cÃ®
Ġedj alÃ©
Ġbor djoes
ĠBr ouw
Ġviolon eu
ĠDjiv Ãªye
Ġaccep tÃªye
Ġsouw Ãªye
Ġplant Ã©
Ġamoen nÃ©
Ġmilit Ã¥re
Ġpopu laire
Ġboe vou
Ġboer ler
Ġdr ingu
Ġori djin
Ġori djinne
ĠWis cons
Ġfilozo f
Ġfilozo fe
Ġbet on
ĠnÃ¥cion Ã¥le
Ġdjo ker
Ġcast inne
cÃ©n k
Ġbatch s
ĠMass et
Ġdiyalect olodjike
Ġculture le
Ġgur ze
Ġfen a
Ġrwaite ye
Ġahiv Ã©
ĠwÃ¥r ni
Ġsinon ime
Ġaw iy
Ġrashi ou
Ġemantch aedje
ĠnÃ»t on
Ġpoyt reyes
Ġdiz ot
ĠØ §ÙĦ
Ġpayiz aedje
Ġlap Ã©n
Ġmuzic yin
Ġprodujh eu
Fran Ã§
Ġnature l
Ġlim odje
Ġvac ances
Ġaco pl
Ġasbla wi
ĠMarc el
Ġdimo rer
ĠAnt olodjeye
ĠPÃ¥r lumint
Ġtchaptr Ãªs
Ġloi gne
Ġret our
Ġbacte reye
Rac ourti
Ġsaeye as
Ġolim pikes
Sic rijhaedje
Ġdjw if
Ġtchitch oÃ»le
ĠLÃ® dje
Ġtrae yin
Ġtourn ante
Ġrespons Ã¥ve
Ġraptit ixhante
cwÃ¥r lante
Ġgla wene
Ġtches teas
ĠCay Ã©s
Ġtoir tchÃ®
Ġcah oute
Ġdistru jh
ĠbÃ¥ke te
Ġdja ive
ĠsiÃ¨r vu
Ġvidey o
Ġhale ne
ĠWallon ie
Mot oit
Plae ces
Ġsim pl
Ġsir Ã´pe
Ġoum eur
Ġurope yinne
ĠTat Ã¥rs
ĠcwÃ¥re as
ĠWil liam
ĠAnto ine
Ġadminist rÃ¥cion
Ġdiccionair Ã®
Ġmash ales
Sourd ant
ĠTrou ks
ĠtÃ®xh one
Ġecor aedjÃ®
Ġtchand eles
ĠSpa yisses
Ġtoco stÃ©
ĠzÃ¨ ls
Ġyer b
Ġidint itÃ©
Ġmnujh Ã®
Ġcoign oÃ»
Ã»li stÃ©
Ġalom Ã¥cion
Ġrediv euse
Ġfrouma dje
ĠAnver se
Ġtaxh lete
ĠZivem bork
Ġescour ci
Ġrashon nÃ©
Ġpwet rene
Ġcronzo xhs
Bru ssele
Ner Ã©n
TB F
Ġrprez inter
ĠespÃ¥ ce
Ġaspo yÃ®
ĠOuc rinne
Ġcouscou sse
ĠPec lers
ĠFris Ã©e
ĠDjadi da
Ġcatoi ze
ĠWiscons in
A m
A vey
B at
C w
E N
E bÃ©n
E glijhe
E nute
F ijhoz
I SBN
J acques
K Ã®
N U
N a
R C
R I
S O
S U
S u
S pÃ¥rdaedje
T he
V Ã©n
a us
a sses
a ki
a don
a ker
a ks
b et
b ire
b ures
c re
c el
c mint
c we
c esse
c ants
c ans
c ler
c rÃ¨
d Ãªye
d roet
d ujhance
d avance
f ins
g al
g ur
g one
g rand
h Ã®
h ot
h em
i ler
j p
k eus
l wÃ¨
l ires
l eure
l atÃ©n
l Ã¥de
m al
m waisse
m aladeye
n am
n Ã¥ve
n aux
n Ã¥des
o ssu
p ins
p eu
p ard
q wÃ¨
r essÃ®
r Ãªs
s Ã¨
s inte
t ri
t Ã©ve
t ante
t ard
u e
u y
u vou
v inte
v ini
w w
y m
y n
z ans
z etes
z ides
Ġ x
Ġ 75
Ġ 36
Ġ 39
Ġ 250
Ġ 42
Ġ 71
Ġ yesses
Ġd nÃ¨t
Ġd aler
Ġd lou
Ġd eurs
Ġd foÃ»
Ġd urer
Ġd zindj
Ġl ae
Ġl Ã¥r
Ġl eur
Ġl odje
in re
in ch
in ri
in reces
on ce
on oxhe
Ġa essi
Ġp Ã¨
Ġp eur
Ġp Ã¢
Ġp Ã»s
Ġe bert
Ġe roye
Ġe raire
Ġc out
Ġc rÃ®
Ġc pagneye
ou re
an es
an se
Ġdi sto
Ġdi plome
te z
Ġm m
Ġt ayons
Ġt antea
Ġt Ã¥yes
re k
re l
Ã¨ res
ne Ã»ve
dj ot
dj rece
dj oye
dj mints
Ġk eur
Ġk esse
Ġf esses
Ġf onte
Ġf otches
Ġf leuve
Ġb lÃ©
Ġb ourd
Ġb rac
Ġb ombe
Ġb Ã¨d
Ġv esse
Ġv wete
Ġv indaedje
Ġv Ã¥ye
Ġn n
Ġn Ã»
Ġn otes
Ġr g
Ġr inte
Ġr oz
Ġr antoele
Ġr Ã´zes
eu stÃ©
ae j
ae yÃ®
ae nwÃ¨s
le ve
it Ã¥re
Ã´ ne
Ġest a
Ġest o
Ġco c
Ġco ete
Ġco vi
Ġco vint
Ġco ib
Ġco cote
Ġco kea
Ġpo le
Ġpo mp
al Ã¨s
al if
ant i
Ġdj Ã©
Ġdj ale
Ġav al
Ġav oye
Ġav aler
el ants
Ġi xh
Ġi dey
Ġi rlandÃ¨s
ri ss
jh ance
ĠÃ¥ re
et che
Ġg lo
Ġpa yÃ®s
Ġpa ys
Ġso yÃ®
Ġso ris
xh ive
Ãª te
ve z
ve kes
ve nt
ce nes
Ġsi kepyÃ®
wa le
Ġtch Ã¨
sse a
sse let
st an
st ru
ir ou
19 97
19 92
ol Ãªye
ut s
se gne
os teure
ra f
ĠM eu
ĠM os
ĠM am
ran ci
Ã§ reye
oÃ» ter
im om
ĠD eus
ĠD ani
Ġla ver
ĠL Ã´
ĠL ingaedjes
Ġst ro
Ġst ri
Ġst indou
Ġst ram
Ġst ala
Ġal Ã¨t
ĠB ene
ĠB urt
ĠB Ã´han
ci Ã¥
ci re
ĠC r
ĠC an
ĠC au
ĠC ole
ĠC ondroz
pe ce
di Ã¨
di ke
di kes
Ġvi kÃ©nt
Ġvi kÃ©ve
ĠS or
Ġpr onne
Ġpr ouve
Ġpl on
Ġpl ats
Ġh ene
Ġh esses
Ġh ier
Ġh antche
ĠA ss
ĠA ma
ĠA mb
Ġmo rance
Ġmo yinÃ¥dje
Ġmo vmints
eye r
en s
gn rece
gn iye
ĠP an
ĠP eu
ĠP ort
ĠP iet
ĠP hilippe
om Ã©
om aedjes
om prindaedje
Ġdis djo
or Ã©
or ant
ur aedje
ur na
be au
li de
Ġsc l
Ġsc ran
Ã¥z ans
ind eu
Ġri xh
Ġri ve
Ġri waite
Ġri metou
ĠF osse
ĠF ontinne
ĠF ili
ĠF leuru
Ġ19 33
Ġ19 67
Ġ19 87
Ġ19 76
Ġ19 71
Ġra feye
Ġmot i
Ġmot rece
ĠmÃ¥ la
ĠmÃ¥ kes
ĠÃ¨ wou
Ġou xhe
Ġma rok
Ġma kete
ti xhaedje
ĠR ap
ĠR iv
ĠR oy
ĠR dÃ»
Ġu ro
ĠG lÃ©
ĠG ust
ĠG Ã¥lwÃ¨s
ĠLi s
ĠLi ve
ĠT s
ĠT che
ĠT ib
ĠT rÃ´
Ġfo idje
lo is
lo pe
Ġda ter
Ġci e
Ġci l
Ġci ers
Ġre p
Ġre zist
Ġre clo
Ġre publi
Ġre trÃ´
rijh eu
ans ons
ĠH ey
ĠH icter
ĠE m
ĠE li
ĠN ov
Ġbo c
Ġbo h
Ġbo k
Ġbo let
ene z
Ġmet rÃ¨
Ġapr ins
Ġsa k
Ġsa ve
Ġbi l
Ġbi yet
Ġpol u
Ġfi ves
ĠpÃ¥r Ã©n
ĠÃ¨n n
Ġmi ers
Ġsp an
Ġsp itch
Ġsp Ã´rts
ouw ess
Ġba ye
Ġba gue
ĠMa y
ĠMa ye
ĠMa le
ĠMa grite
ĠDj ilÃ®
id int
ĠI mÃ¥dje
Ġsch ir
Ġsch or
Ġsch Ã´t
Ġbou nes
Ġbou bou
Ġbou disses
Ġbou yote
pa yis
pa rey
ĠpÃ¥ te
Ġac pagn
ĠV on
ĠV and
ĠV il
Ġad vi
vint aedjes
Ġprum i
nÃ© ye
Ġas teme
Ġde z
rin dje
Ġlu Ã§on
ki gn
Ã»t s
Ġvey Ã©nt
Ġbe frwÃ¨
co p
co gne
co purade
ĠÃ¥r ca
Ġpass aedjes
Ġpro p
ĠÃ® pe
Ġti fin
il in
Ġfr ot
Ġdv inltins
pi euzmint
Ġro veye
Ġro ede
Ġcom m
Ġcom ission
Ġmou gnÃ®
Ġvol ont
Ġdm ane
Ġlom Ã©nt
Ã¥s kign
Ġle pes
ĠpÃ® ds
Ġat mos
Ġcro m
Ġcro xhÃ®
Ġdire us
Ġga iy
Ġga mene
Ġap re
ĠO mer
ĠO fins
Ġgro pe
Ġeg zi
Ġam i
Ġcor waitÃ®
Ġman nes
Ġman nixh
av ant
Ġab er
Ġab it
na dje
ct a
Ġpla tea
ĠdjÃ¥z Ã©nt
Ġrac ra
Ġrac ourti
Ġfjh aedje
Ġfjh oz
ĠTch antchÃ¨s
ĠTch onveye
Ġari vÃ©nt
ru e
Ġeplo ynut
ust umint
Ġpi er
Ġpi ket
Ġpi ker
Ġpi Ã¨r
ole a
ole t
ole ne
leur es
ute nberg
Ġcwa t
Ġcre vÃ©
ĠlÃ¥ djes
Ġsit uwÃ¥cion
Ġseu ve
Ã¢ les
Ġtour nÃ©ve
ĠU r
Ã´t yÃ®
oy ou
Ġne t
Ãħ dvins
ay a
Ġsin dic
ĠDi Ã¥le
man n
Ġve ve
Ġve kes
op onimeye
odj o
Ġdijh a
Ġtra we
Ġtra itÃ©
Ġdisc Ã´pe
Ġsaetch s
Ġsaetch ant
Ġsaetch aedje
da yes
da veye
Ġpou ri
Ġpou sse
Ġpou jhÃ®
Ġlong owÃ¨s
ĠcoÃ» ti
Ġhou z
ca ri
Ġratour neu
Ġdjouw aedje
Ġdjouw Ã¨t
200 5
200 7
Ġcoir s
Ġcoir dea
Ġriv nant
Ġriv nous
ĠcwÃ¥r ts
ga d
ĠBel vÃ¥
Ġ3 65
Ġbat ire
str Ãªye
Ã« ne
ĠtÃ® ce
ujh aedje
con sene
Ġot or
Ġot ob
Ġaf la
Ġaf ront
Ġfeu me
Ġxh in
Ġtri yan
Ġeplaid aedje
Di zo
iss in
lin nes
ĠLa fontinne
Ġds chind
ĠFranc is
Ġtey olodjeye
Ġtuz Ã©
Ġtuz aedjes
cint aedje
Ġsav on
Ġna Ã§
Ġass imblÃªye
Ġrim p
Ġrim ar
do sses
Ġnute ye
Ġdjam bon
ĠIn te
ĠIn dicatif
Ġtou ma
ĠtÃ© l
Ġmont s
Ġcur Ãªye
Ġcam ion
Ġmwin re
Ġdjh Ã©nt
Ġdu k
Ġse me
Ġse Ã»
Ġse pi
Ġse pou
rim b
ĠAn dene
imÃ¥ dje
ĠRe djon
ĠRe djime
ĠlÃ© ts
Ġbout nut
ha gne
Ġmeye use
Ġ7 00
ĠcrÃ¥ sse
Ġbate us
ĠZ a
Ġsoci Ã¥les
Ġsoci etÃ©s
Ġprod ure
Ġban c
ĠBou ssart
Ġtap Ã©ve
Ġtchant Ãªye
Ġtchant Ã©nt
Ġtchant nut
ĠX IV
ĠX hignesse
bou ter
dis pu
Ġsere r
Ġfl or
ĠWal lonne
Ġcint inne
Ġtchv irons
Ġasto ker
Ġtcha pi
Ġpins Ãªye
Ġpins Ã©ve
ĠvÃ©n ront
ĠÃ´r tografeye
ĠGu y
Ġdist inde
ĠGil les
ult an
Ġbrut yÃ®
âĢĿ ,
Ġov roe
ĠrÃ´ le
ĠJo hn
ĠJo elants
Ġast aler
Ġast antche
Ġast alÃ©
Ġkimin cÃ®
Ġsicrijh aedjes
Ġsicrijh euse
Ġspe pieus
Ġrm imb
Ġfwa iye
ÃĶ te
Ġfin Ã¨s
Ġpoirt ant
Ġalmand es
Ġprin cesse
Ġdmo re
Ġsov ni
Ġrasco vrou
Ġcar cul
Ġtchap let
ĠMi yin
Ġricnoxh owe
ĠbÃ¥ b
Ġprof itÃ©
cs isses
Ġmat ire
ĠmÃ¥r di
Ġsoeye xhe
Ġocu pÃ©
Ġbra bant
Ġbrou yÃ®
Ġsot nou
roc laedje
cÃ¥z ant
Ġmod eles
Ġpond eus
Ġpond eure
ĠÃ©ndjol reye
ĠboÃ» sses
Ġstr itche
Ġdisp Ã¥r
Ġdisp Ã¥rd
Ġnu ketes
Ġdisla xheye
ĠrascrÃ¥ wes
Ġpierd ous
ĠsÃ¥r Ã©nt
ĠsÃ¥r Ã®z
Ġcri kions
Ġmam ites
ĠpoÃ» ssÃ®
Ġhap eu
Ġhap Ãªye
Ġmier djin
Ġfon inme
Ġtroejh inne
Ġtchet oere
Ġmouss ive
Ġcontin ouw
Ġshuv nut
din wÃ¨s
ĠCol omb
ĠÃĶ r
Ġdessin eu
Ġcot uz
Ġcole djÃ¥le
Ġscol Ã®
Ġscol aedje
ĠadjinÃ§ nÃªye
Ġparey s
ĠprÃ© jhÃ®
Ġenond er
Ġenond Ãªye
Ġpel rins
ĠvÃ´ ss
bÃ¥ be
Ġadj er
Ġtchey ires
Ġradj outer
Ġgovien mints
Ġpur neas
Ġcons yince
Ġrot nut
ĠOt oman
uw els
Ġaskepi a
Ġclo rof
Ġtchen Ã¥
ĠTchÃ¥r lote
anc etes
ĠRen Ã©
Ġlijh eu
ĠChin wÃ¨s
Ġmostr ant
Ġbagu etes
Ri lidjon
Ġpind eut
Ġschav Ã©
Ġeplaide yes
ari o
Ġce dile
ĠtÃ¥v lotÃªye
ĠflÃ¥ w
Ġtrou fe
Ġdz ot
Ġrilidj eus
Ġrilidj euse
ati ves
Ġrile vÃ©
ĠFa yi
pot Ã©
ĠQu ertin
ĠsoÃ» fe
Ġspotch aedje
Ġspotch Ã¥ve
ĠsÃ© t
ĠcÃ»t s
Ġmess aedjÃ®
Ġetim olodjikes
Ġtche ke
Ġtan k
Pol itike
ĠprÃ´p iet
Ġhar lo
Ġrashonn Ãªyes
Ġimprim aedje
Ġsouw inne
Ġabat wer
wo ey
ĠVir win
Ġarest Ã©
Ġfoum ire
Ġess er
Ġori dje
Ġoper Ã¥cion
cixh eut
Ġcay Ã´
par int
ĠÃ¥jh minces
Ġpixh Ã®
Ġdjo kÃ©
Ġpexh eus
Ġrescont rer
Ġetind eut
Ġrprin jhes
Ġvit amene
rib ucions
ĠMor esnet
Ġcrouw eur
Ġcrouw Ã¥s
Ġorgan iz
ĠbÃ´ rer
Ġpaxh i
Ġpaxh is
Ġdam aedje
Ġwae zon
ĠÃī N
De prÃªtre
To di
Ġeba guer
Ġmir Ã¥
Ġrdj ond
Ġrdj onde
ĠSer ge
Ġhav et
Ġrapo it
Ġrapo irter
ĠIt Ã¥l
Ġshab ot
Ġfeder Ã¥
Ġdal aedje
ĠAc ademeye
Ġshonn ance
Ġprus tixh
Ġledj ir
Ġmuch yÃ®
Ġlinwist ikes
Ġmuzic yins
Ġprodujh aedje
Ġwallon nes
Ġbuz ete
Ġomb ion
Ġhour Ãªye
ĠÃ¥rm Ãªyes
Ġsub zides
Ġagran di
Ġschoy ou
Ġinse ke
Ġpir lodje
Ġmeu bes
ĠHer gÃ©
Ġaband nÃ©
Ġnaiv yÃ®
Ġtaess on
Ġdocu mints
ĠMot tard
Ġcate drÃ¥le
Ġfoy ous
Ġbier djÃ®s
ĠschÃ¥ yÃ®
Ġbegu ene
Ġloi gn
Ġron xhes
Ġgoz Ã®
Ġpara dis
Ġtexh ou
ĠchÃ® lÃªye
ĠdifoÃ»t rin
Ġapoirt Ã©
Ġdomin nes
rik ins
ĠConte ye
ĠTre mpont
Ġbress eu
Ġclin ikes
Ġolim pike
Ġsket ch
Ġdjey ografike
ĠgrÃ¥ ce
ĠBot inne
Ġschin on
Ġrcla mer
Ġamerik in
Ġong letes
Ġgrevi ss
Ras courti
Ġnai vi
Ġdol Ã¥rs
Ġmarixh Ã¥
Ġvoer Ã¨
Ġcougn ous
Ġotom aticmint
ĠredjÃ¥r b
ĠDedoy ard
And rÃ©
Sor lon
Ġlit tÃ©
Ġbey Ã´le
Ġcoli bac
Ġlik ides
ĠGen aux
Ġpips ak
Wal lon
Ġoc si
ĠpÃ¥w ions
ĠlinÃ§ oÃ»s
Ġedvin cion
Ġrafroe di
Nam eur
ĠSid Ã¥rta
Ġhae yÃ¥ve
ĠRoz ou
Ġmaneu ve
eder Ã¥cion
Ġfloric onte
Ġpwez on
Ġrarin djÃ®
Ġavinte ures
ĠApol linaire
Ġdiyacr itikes
Ãħrvier dimint
Ġtransli teraedje
ĠdrÃ¥ we
Ġtchm ijhe
ĠCong olÃ¨s
ĠFo rire
Ġcroeye ut
Ġtrint inne
Ġmoslim Ã®s
Ġdestin Ãªye
ĠMalon ne
ĠDutrou x
Ġhong rwÃ¨s
ĠTomb eur
ĠHost in
Ã´rbr Ã´te
ĠOuw ess
Ġamo reus
Ġcatru ceme
ĠcrÃ¥n dimint
Ġsimpl umint
jp g
ĠGlÃ© jhe
ĠQuertin mont
- )
. Â»
4 00
A t
B ier
C oÃ»
C as
C Ã´de
D a
D ire
D ni
D irÃ®
E ss
E mey
F Ã¥ve
G B
H u
K im
L av
L ad
L omaedje
M Ã¥l
N ot
N ozÃ´tes
O mof
P at
P rov
P itit
R in
R Ã©n
R is
R im
R if
R iv
S E
S p
S in
S ac
T h
T uz
V D
V Ã¥
V ir
V iy
V iye
W ar
a kÃ©
a xhes
a que
b us
b om
b odje
b rÃ¥mint
b ires
b oy
b ier
b usse
c ir
c am
c reye
c um
c rin
c Ã»t
c onte
c wand
c wate
d y
d aedje
d am
d eur
e me
e ke
f ou
g el
g ar
g li
g ay
h l
i an
i om
i etÃ©
i Ã¨re
m Ãªyes
m ala
n ce
n or
n ants
n Ã®t
n Ã¥jhe
n ature
n auve
o vraedje
p el
p Ã®s
p inse
p intaedje
r ut
r aedjes
s er
s els
s Ã´d
t te
t us
t reye
t ine
t roes
u wes
u da
u laire
v et
v os
v as
v Ã¥t
w Ã®
w el
w Ã¢
w ane
w Ãªr
x ing
x em
y reye
z y
z ene
Â ´
Ã ³
Î ±
Ð º
Ø ¯
Ø ±
ä º
Ġ 38
Ġ 33
Ġd nÃ©s
Ġl ur
Ġl um
Ġl ure
Ġl uz
on et
Ġa tche
Ġs at
Ġs ey
Ġs Ã¢
Ġp ret
Ġp indou
Ġp etÃ©
Ġp tete
Ġe h
Ġe x
Ġe pr
Ġe xhowe
Ġc p
Ġc ru
Ġc Ã¥de
Ġc atche
Ġc Ã»te
Ġc ina
Ã¥ met
Ã© res
ou g
ou n
ou ssÃ®
an f
an Ã©
an ne
Ġdi h
Ġdi u
Ġdi pÃ¥rt
Ġdi Ã¢le
te ls
Ġm Ã¨t
Ġm ele
Ã® r
Ã® ter
Ã® sses
Ġt ur
Ġt inde
Ġt ru
Ġt nÃ¨t
Ġt ai
Ġt ites
Ġt Ã´me
re p
re Ã§mint
Ã¨ ve
ye tes
Ġf ont
Ġf eus
Ġf out
Ġf rÃ¥
Ġf lam
Ġf risse
Ġf niesses
Ġf itchÃ®s
ch u
ch y
ch ot
ch et
ch ael
Ġb re
Ġb le
Ġb ind
Ġb otes
Ġb ales
Ġb lou
Ġb ulg
Ġb ranmint
Ġv ant
Ġv ene
Ġv Ã¥s
Ġv Ã«
Ġv Ã¨r
Ġn Ã©
Ġn ut
Ġn Ã¥cions
Ġr pl
Ġr va
Ġr oles
Ġr gon
Ġr bat
Ġon s
Ġon ze
ins es
eu le
Ġes plo
Ġes prind
Ġes cÃ´swÃ¨s
Ã©n r
Ġet ch
Ġet ait
ss an
ss Ã¨t
ss ons
le m
le y
le ct
it aedje
ot te
Ã´ lÃ©
Ã´ mÃ©
Ġest ales
Ġco lo
Ġco ma
Ġco ist
Ġco rote
Ġco cm
Ġco ranmint
Ġpo loz
al t
al in
al ou
Ġki mand
Ġki ck
Ġdj im
Ġdj esse
Ġdj Ã©r
Ġdj niesses
Ġdo rÃªyes
Ġav u
Ġav ire
Ġav ind
Ġav oyÃ®
Ġav anc
Ġav Ã®z
Ġav uzion
el mint
el wÃ¨s
ro man
ri di
ri stÃ©
ri xhaedje
ri moenne
jh ant
Ã» ne
Ã» de
ĠÃ¥ djes
ĠÃ¥ mes
ĠÃ¥ rans
Ġg le
Ġg Ã¥r
Ġg li
Ġg ale
Ġpa ir
Ġpa xhe
Ġpa il
Ġpa urt
Ġso laire
Ġso yeu
Ġso yeus
xh i
xh ire
Ãª sse
ce yan
Ġsi fwait
wa y
wa dje
wa tes
Ġtch itche
Ġtch ok
Ġtch ifes
st ikes
st rÃ©
ir teu
19 00
ut her
se le
at isses
ra w
ra dje
is h
ĠM onsieu
Ã§ lete
oÃ» teure
Ġw esse
Ġw iy
âĢ ĵ
am in
am indjÃ®
Ã¨t s
ĠD er
ĠD oc
Ġla va
ĠL ori
Ġo ver
Ġo rire
Ġo ya
Ġo idje
Ġo tel
ac us
ac Ãªyes
Ġst i
Ġal g
Ġal Ã©ns
ĠB et
ĠB ut
ĠB ac
ĠB ince
âĢĻ -
ĠC Ã´
ĠC ele
ĠC aire
di e
Ġvi ca
ĠS ing
ĠS ier
ĠS uni
Ġpr es
Ġpr esses
Ġpr ust
Ġpr Ã»s
yÃ® t
ar y
ar re
ar me
Ġpl atch
Ġpl oy
Ġh on
Ġh eye
Ġh ourd
Ġh ouwer
Ġh ob
Ġh od
Ġh Ã¥res
Ġh andele
Ġno vi
ĠA u
ĠA te
ĠA ri
ĠA lez
and o
ter rÃ¨
Ġmo man
ĠP ac
ĠP eter
ĠÃ§ mint
om on
tch ou
tch er
tch Ã©n
tch ive
Ġdis plo
or de
or Ã§
or din
Les se
ur ch
ur Ã©s
ur Ã¥d
li te
li jhaedje
Ġsc le
Ġsc ul
Ġri l
Ġri wer
Ġri der
Ġri xhea
Ġri poizer
ĠF A
ĠF Ã©
ĠF ri
ĠF um
ĠF rÃ©
ĠF oirt
Ġto rea
Ġ19 17
Ġ19 58
Ġ19 64
Ġ19 84
Ġ19 41
Ġ19 31
Ġ19 81
Ġca z
Ġca pou
Ġca ssÃ©
Ġra di
Ġra pi
Ġra fi
Ġra wetes
Ġra keu
Ġra zans
ĠmÃ¥ djin
ĠmÃ¥ vele
out si
Ġou don
Ġma zin
gne yes
ti onnaire
ĠR in
ĠR ic
ĠR if
ĠR TBF
ĠG al
ĠG au
ĠG Ã¥re
ĠG usse
ĠG Ã¥les
ĠG end
ĠG utenberg
ĠLi mb
ĠLi Ã¨ge
ey o
ey Ã¨s
Ġan im
Ġan djes
ĠT or
ĠT rin
ĠT otes
ĠT rans
ĠT uni
lo ye
Ġcw anses
ĠW es
ĠW Ã©
ĠW er
um er
Ġtro va
Ġtro vÃ¨t
Ġtro vnut
Ġsol Ã¥
xhe yes
Ġre g
Ġre m
Ġre petaedje
Ġre crÃ¥
Ġvo st
rijh es
rÃ® les
Ġte l
Ġte ri
ĠH Ã´t
ĠH ancre
ure uzmint
ĠE ve
ĠN ou
ĠN Ã©n
ĠN ay
ĠN onnrece
ĠN ata
ĠN erv
Ġbo y
Ġbo esses
Ġbo dene
ene viÃ¨
ic um
ic yins
Ġmet oz
Ġmet ingue
Ġva yant
Ġsa qwÃ¨
nes t
inte nes
min er
Ġni ers
Ġfi gu
Ġsp oujhÃ®
Ġba gne
Ġba blou
ĠMa woumet
ĠDj in
ĠDj am
ĠDj az
ĠDj eyografeye
ĠDj apon
ĠDj Ã®le
id Ã©
id er
ĠI SO
Ã¥rd er
Ġsch Ã´
Ġsch et
Ġsch Ã¥l
Ġsch aye
Ġsch Ã¥v
Ġbou n
Ġbou yon
Ġac t
Ġac teur
Ġac ertin
ĠV I
ĠV a
ĠV en
ĠV resse
ĠV enez
Ġad a
Ġad ap
Ġad roet
Ġad aw
Ġep op
Ġscrijh ant
onne t
qu er
qu Ã¨t
Ġas poy
Ġas prou
ma xhe
Ġ- ,
Ġvey owe
gu et
gu sse
co pe
co pete
Ġev ol
Ġev ont
ĠÃ¥r Ã¨s
ĠÃ¥r gu
Ġwa dje
Ġwa id
Ġpro yes
Ġpro blin
Ġpro teyenes
win ces
Ġti kets
Ġti pikes
po ss
po sse
po ite
Ġdv a
Ġdv oz
Ġmwa ijh
Ġdji vÃ¥
Ġro dj
Ġro emi
Ġcom iss
Ġcom issions
Ġmou re
Ġmou st
Ġmou gne
Ġrat ayons
ap h
lan ca
Ġdju lyin
zo e
Ġvol tÃ©
Ġle vÃ©
ab il
ab lanca
Ġat acaedje
Ġbr otche
Ġbr antche
iy ants
Ġpe d
ver s
Ġap ri
Ġap orÃ§
ĠO mon
ĠO sselet
no er
were u
ijh eye
vr es
vr Ã©
oum Ã©
otch im
Ġam isses
cÃ® mont
Ġcor wait
Ġman aedjÃ®
Ġmal tÃ¨s
av eur
av oz
Ġab aye
Ġab Ã´rd
Ġtcham osse
na ire
Ġpla fond
ĠdjÃ¥z nut
dja we
Ġter m
ixh ants
Ġcmin cÃ¨t
rÃ¨ te
Ġfjh Ã®t
ĠTch es
of one
Ġ18 78
Ġ18 99
Ġ18 86
Ġpont iaedje
Ġcan dja
Ġpas teure
Ġpas rÃ¨
Ġpi kets
Ġsic rire
Ġcou lÃªye
Ġcou cou
Ġveye u
ole y
ole ye
Ġin di
Ġin kete
sto k
sto pol
ba sse
Ġcwa dran
ĠK a
ĠlÃ¥ djÃ¨s
Ġmoen nÃªye
Ġsit ri
Ġbon mar
Ġseu les
Ã¥le ne
Ġtour nÃªye
Ġtour nÃ©nt
Ã¥l itÃ©s
Ã¥l tÃ©s
oy a
Ġne xhance
Ġbetch teu
Ġcon djÃ®s
Ġcon stit
Ġ1 100
Ġres chandi
Ġevoye u
Ġevoye ye
Ġcont Ã©
ay mond
Ġcla wÃ©
Ġdin ant
Ġdin Ãªyes
Ġovr Ã¨t
Ġcal in
Ġcal kÃ©s
Ġve dje
Ġve ke
op es
Ġtcher Ãªye
Ġtcher wer
Ġtcher pet
one a
vier ti
Ġtra ze
Ġtra wÃ©
Ġdisc w
Ġdisc rijh
Ġdisc rexhe
Ġdisc andjÃ®
Ġpou ces
Ġpou gnÃ®
ĠcoÃ» tches
Ġson djes
Ġsor le
Ġsor rey
Ġsor tot
Ġhou zÃ©
Ġmin isses
Ġrl ou
Ġratour nÃªyes
Ġratour naedjes
Ġcoir bÃ¥
Ġriv Ã©nt
Ġriv na
ga z
ĠBel gique
Ġ3 1
Ġbat Ã©nt
Ġbat reyes
ide ye
Ã« l
vÃ¥ vÃ¨s
ĠleyÃ® z
Ġair ance
Ġram es
Ġah Ã¥ye
Ġmuz Ãªye
Ġbast is
ujh ances
ĠCh ri
ĠCh urch
Ġrs ch
Ġfor nea
ĠtchÃ¥ fe
ud es
Ġbot an
Ġbot nire
ai gue
Ġaf es
Ġaf ro
Ġaf or
Ġaf lÃ¥
Ġeplaid eu
un ic
Di pus
ĠÃħr monak
Ġfijh nut
Dis rÃ´
lin dje
ĠtchÃ´ ds
ĠLe quar
Ġconte ye
Ġgre ve
Ġgre ves
Ġtuz Ãªye
djin nes
ist an
ist inne
Ġass ot
Ġass ulon
Ġber linnes
ĠMar bÃ©
Ġprov nÃ¨t
Ġrim aedje
Ġmw Ã¢rt
Ġsou f
Ġ5 2
Ġtou tche
ĠtÃ© le
Ġmont inne
tif s
Ġris pÃ¥
Ġwan gnes
Ġdjh Ã¨t
Ġpronon cÃ¨t
ie de
Ġeter tin
Ġse c
Ġcra pe
go gne
go reye
Ġer va
Ġcnoxh owes
Ġtin z
ĠEt io
Ġfal a
Ġpat ac
fa it
Ġfro yÃ®
ĠHa ssan
Ġmol on
Ġresp ir
Ġresp onse
Ġha gn
Ġshof laedje
ĠÃ©n djin
Ġbout Ã©ve
Ġdim win
ĠMou zon
Ġmu roe
ĠZ ande
ĠZ Ã´rbrÃ´te
Ġ14 00
Ġcost Ãªye
ĠwÃ¥rd Ã©ve
Ġrin djmint
Ġrap re
Ġrap Ã¥jh
Ġrap wai
Ġbin amÃªye
Ġtap Ã¨t
erd in
Ġredj ons
Ġdon er
ĠX H
Ġcandj nut
Ġsere u
Ġfl Ã»te
Ġasto ca
Ġj iang
Ġgr oumi
Ġpins Ã©
Ġpins Ã¨t
Ġmagn Ã¥ves
Ġrv in
Ã¢r din
ĠbroÃ» lÃ©s
Ġmari eye
ĠGu i
Ġcaf ro
Ġdist ch
Ġcroejh etes
Ġrae zoe
ph e
Ġkin ikes
Ġmay isse
Ġcrexh oÃ»les
Ou wess
ĠJo han
Ġast ampÃ©
ram yÃ®
Ġsicrijh a
Ġrm Ã©de
Ġsto ks
Div inltins
Ġfwa i
ĠmÃ¥lÃ¥ jheye
ĠSo cietÃ©
Ġcar bon
Ġtchap ite
fin et
ĠDis k
Ġdisch av
ĠmÃ¥r kÃ©
Ġespli kÃªye
Ġbra it
Ġbra ijhes
Ġmagne u
Ġmagne us
Ġlo yaedje
Ġmer ite
ĠAf gan
Ġracont Ã©
dji cisses
ĠCoÃ»tchant rece
Ġacle v
Ġacle veus
Ġstr ins
Ġstr ons
Ġstr itchÃ®
Ġnu kete
ĠrascrÃ¥ we
Ġpierd owe
ĠMarok ins
Ġatra p
ĠsÃ¥r mas
Ġmier cor
Ġmier copete
aedj Ã¨s
Ġcodjo was
Ġratind ant
Ġratind eut
Ma hin
ĠdicÃ¥ ces
Ġrespond Ã¨t
Ġgal ants
ĠschoÃ» tant
Omon ime
Ġbro ye
Ġbro yÃ®
ĠCon f
Ġrab ind
Ġrapoirt Ã©
Ġplaijh ant
Ġdistr Ã»te
Ġmic ros
iron mint
ĠSc la
ĠhÃ¥y nÃ©
ĠhÃ¥y naedje
Ġorto grafike
Vic anstÃ©
Ġpel er
ang zi
Ġgayel s
Ġpur n
Ġrash ire
Ġsierv eu
uw eles
Ġscha ver
lant ike
ĠlÃ¨ pes
Ġcoixh Ã®s
ĠCo inrece
ĠpÃ¥p ire
Ġfla yea
Ġdime gnes
Ġver itÃ©
ĠChin on
Ġravi z
Ġravi kÃ©
Ġfoir djÃ®s
Ġrwait ive
Ġ190 3
Ġspit ant
Ġamour s
Ġdjal of
ĠrÃ§ Ã»
Ġhe yÃ®
ĠNo er
Ġrest orants
Ġstud yÃ®s
Ġschav Ãªyes
bo xing
Ġapa rexh
Ġapa rexhou
Ġplat Ã¨s
Ġher tcheye
Ġxhuf let
ĠÃ¥b son
ĠLu xem
Ġpez ante
Ġdiyale kes
Ġlodj oe
Ġaro yaedje
ĠFa gne
graf ikes
Ġtchess Ã®s
Ġwait roÃ»les
Ġspotch ant
ĠsÃ¥v aedjÃ¨s
rd u
Ġobli djeye
dixh mints
Ġdeci da
Ġedj ale
Ġtan f
ĠbrÃ¥ y
Ã¨n n
ĠprÃ´p ietÃ©
Ġaccep tÃ©
Ġimprim Ã©
lodje ye
Ġpon re
Ġevi ke
Ġcel ure
Ġinst rumints
Ġmilit aires
Ġfrexh Ã¨s
Ġraece ne
ĠAb eye
ĠGo denne
Ġcay Ã©
ĠWis consene
Ġconse y
Ġdiss o
Ġrec lÃ´re
ĠnÃ¥cion Ã¥
ĠpÃ¥jh irmint
Ġrescont rÃ©
ĠcompÃ´z Ã©
Ġdvi zer
Ġsal Ã¥de
Ġcolon e
Ġcolon i
Ġvit esse
Ġgur z
Ġgur nÃ®
Ġploum aedje
Ġasp oye
Ġcrouw Ã¥
ĠpÃ´r Ã©nt
Ġcatch ete
Ġlibert Ã©s
Ġpormoen nÃ©ve
Ġrtour nÃ©
ĠeternÃ¥cion Ã¥
ĠcÃ¥ba rets
dan djreus
Ġloye ures
Ġaprest Ã©
ĠÃ¥rmon ak
Ġocup Ã¥cion
ĠIsrayel Ã®s
CÃ¥z u
Ġschi eles
Ġsilla bes
ĠMol daveye
Ġoiz ou
Ġoiz eur
ĠRwey Ã¥l
ĠNa poleyon
Ġledj ire
Uz aedje
cor ti
Ġeki p
Ġewal istÃ©
Ġewal peure
Ġliv reyes
Ġdob Ã¨s
Ġpaze as
Ġlap Ã©ns
Ġnier veus
Ġnature lmint
Ġhour lea
ĠDju met
Ġrshonn Ã¨t
cla rÃ¥cion
ĠfÃ´r aedje
ĠMin isse
ĠAt lasse
ĠriwaitÃ® z
Ġmiy Ã¥rds
ĠecrÃ¥ xhÃ®
Ġrmou ssÃ®
Ġospit Ã¥s
TA N
Ġdivi ze
Ġreban Ãªye
Ġcopin reye
Ġtchoez is
Ġwi ki
Ġwi kipedia
Ġconc ours
ĠâĢĿ ,
Ġoton omeye
Ġerit aedje
Ġerit Ã®s
ef ants
ĠpÃ» ni
Ġrla ye
Ġmodi enes
ĠPal estin
Ġgrang rinne
ĠVic tor
Ġatuz es
ĠAnti gone
Ġadministr ative
Ġsaeye a
ĠcÃ´r Ã®s
Ġcaw Ã®
ĠHout ous
Ġmartchandi jhe
sic rÃ®t
Ġmand arin
Ġdjw ive
Ġspir ous
Ġbrouw ires
Ġradjout Ã©
Ġcopiut rece
Ġfir lotches
Ġbis teu
Ġnoejh es
Ġcav ale
ĠGri gn
ĠÃĪ n
Ġmargou gnÃ®
Ġfaf lote
Ġfaf lotes
Ġcondicion eu
Ġraloye ye
ĠtrevÃ¥ tchÃ®
Ġeciclope deye
Rilom Ãªye
Tec se
agn ostik
Ġcuz ene
Ġfar ma
Ġespl or
Ġaloy rece
ĠBos ly
ĠSel vais
Ġmole c
ĠPet rez
ĠmÃ¥jh ire
Ġtourni ket
Ġemacr alÃ©
ĠDedoy art
Ġtran ki
ĠCab ay
ĠTur keye
Ġlondjin nmint
Ġinn mi
Ġinn mis
Ġgrev esse
Ġgrev esses
Ġantibiy otikes
bur g
ĠvÃ´r Ã©nt
ĠMir wÃ¥
ĠhÃ¥r pi
Ġmoye ne
Ġscre per
Ġtchamoss eure
Ġtradicion ele
Ġotrich yins
Biy olodjeye
ĠÃ¥m atÃ©n
ĠÃ¥ma ye
Ġsipa le
Ġstrim aedje
ĠscrÃ® tes
Ġridiv ni
ĠRotch foirt
ĠGre ks
ĠTae yes
ĠTout sis
Ġtero risses
Ġzig za
ĠapÃ¥rt inance
Ġparvin ou
grafe yes
Ġrescou ler
Cla ude
Ġpes te
Ġdilou jhe
ĠBulg Ã¥reye
ĠNÃ® me
Ġacma xhaedje
Ġwap eur
Ġork esse
Ġtriy ingue
Ġveterin aire
ĠlÃ» ter
ĠbÃ¥d et
Ġrmer ci
aco bÃ©n
Ġtiy oÃ»
Ġperio dike
Ġjus qu
Ġmicop lasses
ĠcerÃ© jhes
Pla Ã§aedje
Ġcere moneye
Ġvul ga
Ġrne ti
ĠBav ire
ĠCer fontinne
ĠAlo yÃ®s
ĠGod fro
ĠWas let
Ġregl umint
ĠHier naux
Ġeplae Ã§mint
Ġambass ad
Ġfaye nes
ĠveÃ» y
Ġricla ma
ĠBrouw ires
Ġfena esses
cwe me
Ġeroye ne
Ġglo bures
ĠretrÃ´ c
ĠMaye nce
Ġschir Ã¥de
Ġadvi ert
ĠOfins ive
Ġegzi stÃ©
Ġmannes tÃ©s
cari otes
Ġclorof ile
Ġcoist rece
Ġlava sse
ĠLori aux
ĠFum wÃ¨
ĠGend arme
ĠNata cha
ĠNerv yins
Ġfigu eure
ĠDjaz ira
Ġproblin mes
Ġroemi ants
ĠEtio peye
ĠAfgan istan
Ġmiercor in
ĠLuxem bourg
- -
. -
3 00
8 00
A M
A S
A djinÃ§
A dire
B el
B ra
B ar
B ast
B atisse
C H
C al
C our
C onte
C ara
C wate
D Ã¨
D en
D ilÃ©
E P
E S
E m
E r
F ou
F rÃ©
H al
H Ã¥rdÃªyes
L ouwis
L ingaedje
L acobÃ©n
M ont
M Ã¥r
M am
M apes
N oÃ»
N ES
O N
O ne
P Ã¥
P ers
P ade
P ron
P asser
P hilippe
S ov
S ambe
S imon
T a
U donbÃ©n
V s
V ol
a is
a yÃ®
a ite
a gu
a fi
b re
b os
b as
b lo
b otes
b eres
b resse
b ates
c te
c yÃ®
c ires
c etes
c teure
c Ã¥cion
d ay
d eles
d oÃ»s
d innes
e k
e x
e Ã»
f l
f o
f at
f ra
f ants
f ul
f em
f fe
f rexh
f ane
g s
g Ã¥
g is
g were
g lÃªye
g lijhes
h ins
h ant
i yes
i bes
i zo
i wes
i sto
i enne
j o
j on
j ardin
k o
l Ã¥ve
l ust
m us
m wa
m di
n n
n us
n acion
o er
o ran
o eye
p x
p ter
p ic
p ond
p itan
p Ã¢le
r Ã®s
r inde
s inse
s ori
s Ã´re
t ots
u k
u rance
v Ã®t
v euse
v oyÃ®
v rete
v wers
v irÃ»sses
v ski
w eles
w ik
w Ã¢r
x e
x us
x ique
y ance
y isse
y owe
y ov
z en
z ons
Â º
Ã ī
Ã Ľ
Å ĵ
Î µ
Î ¹
Ï Ħ
Ø ©
Ù Ī
æ ±
é Ģ
Ġ q
Ġ ut
Ġ 65
Ġ 72
Ġ 135
Ġ olandÃ¨s
Ġd et
Ġd en
Ġd Ã¥re
Ġd za
Ġd Ã´zes
Ġd inez
es pi
Ġl ot
Ġl enes
Ġl ov
on Ã®s
on ikes
Ġa me
Ġa le
Ġa rÃ¥
Ġa ite
Ġa zo
Ġa gnons
Ġa weyes
Ġs y
Ġs aedjes
Ġs ele
Ġs atche
Ġs eurs
Ġs wess
Ġs ondes
Ġp z
Ġp il
Ġp waire
Ġp wate
Ġe w
Ġe te
Ġe ch
Ġe mon
Ġe ber
Ġe dji
Ġe moen
Ġe dicion
Ġe hÃ¥
Ġc le
Ġc rin
Ġc otch
Ġc Ã´re
Ġc rijhe
Ġc aca
Ġc ardin
Ã¥ vistÃ©
Ã© ron
Ã© geois
ou ss
ou peye
an n
an ite
an ube
Ġdi pl
te d
Ġm oÃ»
Ġm inte
Ġm ouw
Ġm itch
Ġm atche
Ġm eres
Ġt inte
Ġt auve
re ds
Ã¨ dje
Ã¨ vre
ne ure
dj ole
dj ots
dj amb
Ġk itch
Ġk erna
ye v
Ġf ey
Ġf ouw
Ġf inde
Ġf Ã¥de
Ġf onde
Ġf lou
Ġf rans
Ġf reu
Ġf intÃ©
Ġb alon
Ġb and
Ġb wÃ¨
Ġb lin
Ġb rike
Ġb land
Ġb roc
Ġb omb
Ġb rÃ¥ve
Ġb leus
Ġb its
Ġb rimb
Ġv on
Ġv eut
Ġv en
Ġv eres
Ġv anter
Ġv uwe
Ġn it
Ġn is
Ġn Ã¥jh
Ġr alon
Ġr ma
Ġr mo
Ġr bout
Ġr metant
Ġr wan
Ġr glat
Ġr Ã¥skign
Ġ( Â«
ins ion
er man
er sen
eu te
Ġes h
Ġes prinde
ae ne
Ġet i
Ġet ires
Ġet cher
Ġet revÃ©n
ss ant
le f
it z
it ou
it ite
it aire
it ifs
ot a
Ã´ ye
Ã´ les
Ã´ ler
Ã´ kÃ®
Ã´ zeu
Ġest ch
Ġest ance
Ġco f
Ġco reut
Ġco reus
Ġco prind
Ġco dou
Ġpo te
Ġpo er
Ġpo sses
Ġpo sson
Ġpo ize
Ġpo reas
Ġpo vwers
Ġli b
Ġki sch
Ġdj Ã¨
Ġdj otes
Ġdj ureus
Ġdj Ã¢rdin
Ġdo e
Ġdo y
Ġdo mes
Ġav in
ro gne
ro lÃ¨s
ro fe
Ġi viers
ri d
ri f
jh eus
jh eut
Ã» j
Ã» lÃ©
ĠÃ¥ meas
Ġg on
Ġg ofe
Ġpa y
Ġpa le
Ġpa vÃ©s
Ġso m
Ġso vr
Ġso pes
xh Ã¥
xh en
Ãª ne
de as
Li ves
Ġsi s
Ġsi ci
Ġsi ba
Ġtch ire
Ġtch esses
Ġtch Ã¨r
Ġtch alons
st rÃ¥
st rea
ir Ã¥
ir ance
ir ner
19 12
19 80
19 33
ol Ã®
ut te
ont Ã¨t
at an
at Ã©s
at ik
ra iy
ra teure
ra pl
we d
we ter
we nes
la dje
la ir
ĠM es
ĠM as
ĠM ers
ĠM ori
ĠM itchÃ®
ran ge
Ã§ usses
Ġw ants
Ġw imb
im at
am ont
ĠD im
ĠD est
ĠD uf
ĠD RI
ĠD anube
Ġla w
Ġla drÃ®
ĠL eu
ĠL ae
ĠL it
ĠL ot
ĠL at
ĠL and
ĠL ans
ĠL amb
Ġo xh
Ġo tels
Ġst Ã¥r
Ġst antche
Ġst antchÃ®
Ġst Ã¥rer
Ġst andÃ¥rd
Ġal i
Ġal ou
Ġal int
Ġal Ã®t
Ġal bom
ĠB D
ci pes
ci des
ci xhaedje
ci euzmint
ĠC H
ĠC el
ĠC lo
ĠC ul
ĠC oc
ĠC az
ĠC las
ĠC aizer
as teye
pe ter
pe nes
di on
di gne
di ca
Ġvi yes
Ġvi ct
Ġvi lin
Ġvi lla
our g
Ġwalon eu
ĠS u
ĠS in
ĠS our
ĠS ur
ĠS to
ĠS dan
ĠS ireye
ĠS tiene
ar s
Ġpl Ã´
Ġpl eur
Ġpl oye
Ġpl anter
Ġh anter
Ġh oumer
Ġh Ã¥rdÃªye
Ġh iede
ĠA y
ĠA z
ĠA re
ĠA ns
and a
Ġmo r
Ġmo xhÃ®
Ġmo itÃ¨s
pr ouve
gn Ã¨
ĠP S
ĠP ou
ĠP ir
ĠP res
om in
om ans
Ġdis me
Ġdis nor
or Ã¥cion
ur on
ur lin
be k
be re
li k
li v
li ve
vi ene
vi yaedje
Ġsc rene
ind ous
Ġri p
Ġri z
Ġri te
Ġri co
Ġri lou
Ġri dis
Ġri prinde
ĠF lo
ĠF ab
ĠF lori
Ġto eles
Ġto csike
Ġto droet
Ġ19 19
Ġ19 16
Ġ19 13
Ġ19 68
Ġ19 88
Ġ19 49
Ġ19 42
Ġ19 51
Ġ19 52
Ġca dj
Ġca le
Ġca us
Ġca wÃªye
Ġra g
Ġra y
Ġra is
Ġgn o
ĠmÃ¥ ve
ĠmÃ¥ vi
ĠmÃ¥ ssÃ®
ĠmÃ¥ mdi
ĠÃ¨ ri
Ġma re
Ġma teri
ti on
ti er
ti ve
ĠR is
ĠR as
ĠR wÃ¨s
Ġu ne
Ġu nd
ĠG ou
ĠG and
ĠG ros
ĠG hy
ĠLi mer
ĠLi bin
ey nut
Ġan i
Ġan go
Ġan nÃªyes
ĠT on
ĠT ins
ĠT ri
ĠT am
ĠT il
Ġfo ssÃ©
Ġfo rom
Ġcw irt
Ġdiv rÃ©nt
Ġci ri
Ġre d
Ġre ki
Ġre ct
Ġre fa
Ġre lÃ®s
Ġre peter
Ġvo re
Ġvo ennes
ite cteure
rÃ® le
rÃ® yes
Ġte m
Ġte mons
ĠH esse
ĠH aye
ĠH od
ĠH oss
ĠH eyer
ĠN el
ĠN osse
Dj ez
Dj usse
Ġbo dj
Ġbo ss
Ġbo lets
ic k
ond er
Ġva ri
Ġva gons
ĠJ Ã¨r
Ġsa iz
Ġsa yant
ni om
Ġbi a
Ġbi be
Ġbi Ã¨sse
Ġbi Ã¨sses
Ġpol in
ĠcÃ´p aedje
Ġni Ã»t
Ġsacw antes
Ġfi let
Ġmi yon
Ġsp re
Ġsp la
Ġba y
Ġba xhete
Ġba djawe
Ã´r tant
ĠMa ud
ĠMa dri
ĠMa rake
ĠMa issin
ĠDj ul
ĠDj Ã¥zans
Ġen oc
id ance
ĠI z
ĠI ran
ĠI van
ĠI sta
ĠcÃ¥z eu
jhe as
Ġsch Ã´p
Ġsch oum
Ġsch Ã¥y
Ġesse gnrece
Ġele ccions
Ġbou ket
pa ss
pa yÃ®
ĠpÃ¥ ter
ĠpÃ¥ stÃ©
Ġac on
Ġac ov
Ġac cions
Ġac ost
Ġac moide
ĠV it
ĠV la
ĠV atic
vint Ã¥re
Ġep esti
Ġscrijh nut
ĠdjoÃ» r
Ġas hi
Ġde v
Ġde fini
Ġsh Ã»
ma yes
ma ire
ki di
Ġgrand eu
Ġbe div
au te
ante ure
co ter
co irs
Ġev ironmint
ĠÃ¥r vÃ´
Ġwa r
Ġwa s
Ġwa isse
Ġwa ib
Ġpro te
Ġpro ye
Ġpro mete
Ġpro bl
Ġpro grÃ¨s
po te
Ġfr inne
Ġpu n
Ġdv ancetes
ale ne
pi a
Ġdji vions
Ġz wers
Ġcom ike
Ġcom pet
Ġcom bat
Ġcom prins
Ġmou de
Ġmou dri
Ġrat na
lÃ© men
Ġvol u
Ġvol tr
Ã¥d er
ĠpÃ® d
Ġat ac
Ġat ind
Ġat aca
Ġat roclaedje
El zÃ¨s
Ġbr u
Ġbr Ã»t
Ġbr itan
iy ites
Ġpe le
Ġpe zer
Ġcro e
Ġcro ke
Ġcro lÃ©s
Ġcro yixh
Ġga menes
Ġap el
Ġap ar
ĠO b
ĠO mof
ĠO TAN
no is
no wes
Ġgro sses
Ġeg olene
Ġinte re
Ġinte lect
vr ous
Ġam anite
Ġcor antÃ¨s
Ġcor waite
pl is
pl Ãªye
pl ouve
Ġman ne
Ġman ni
Ġman if
ĠsÃ´ lÃªye
ul os
na y
ct Ãªye
Ġpla Ã®
Ġpla djes
if iaedje
Ġend al
Ġter menes
ĠpÃ´ k
Ġdro ci
Ġrac s
iv euse
Ġmar gay
ĠTch ape
of ones
Ġ18 00
Ġ18 95
Ġ18 97
Ġ18 80
ĠsÃ¥ les
ĠsÃ¥ cisses
ard s
Ġdjin res
viÃ¨ r
Ġtr onne
Ġpor cintaedje
Ġpi ete
Ġpi xhe
Ġpi etes
atch yov
Ġcou gne
ba ras
rÃ© e
ote a
ote u
ote us
ĠK e
ĠK in
ĠK Ã©
ĠK az
ĠlÃ¥ djmint
Ġsit ok
mon aedje
met aedje
Ġcr it
Ġcr aeye
Ġtour si
ĠscrÃ®t a
ĠU NES
Ã¥l Ã¨s
ĠOn k
Ã®t re
oy ance
Ġne te
Ġne ut
Ġne ni
Ġcon cile
Ġsint aedje
Ġsu f
Ġsu p
Ġcont nou
Ġcont rum
Ġsin teut
Ci al
Ġser Ã©s
Ġser ans
Ġovr Ã©
Ġcal inreye
Ġve vÃ®
Ġve xheye
Ġve gnnut
Ġtcher on
Ġtcher waedje
Ġdijh innes
vier sele
Ġtra its
Ġrc etes
Ġrc andjÃ®
Ġrc onoxhe
Ġdisc Ã¥z
Ġdisc lo
Ġdisc rire
Ġsaetch eye
Ġsaetch ive
da hl
Ġpou ch
Ġpou jh
Ġpou de
Ġpou xhant
Ġlong ous
Ġcl Ã©s
Ġcl Ã´s
ĠcoÃ» r
Ġson dj
Ġsor tit
ca sse
ps yins
Ġch ez
Ġch ife
Ġch aque
Ġmin dje
Ġmin imom
ĠBa il
mÃ¥ jhon
Ġar aegne
200 8
Ġriv uwe
ĠcwÃ¥r djeu
Ġ3 2
Ġbat ijhÃ®
str al
to di
Ġpal tots
ĠfÃ¥ tchaedje
ĠfÃ¥ cons
Ã« k
Ã« t
Ġdjonne te
ĠFran wal
ĠtÃ® ces
Ġram ou
Ġram oenne
Ġah an
Ġah ote
ĠCh am
ĠCh ap
ĠCh iyites
Ġor bite
Ġfor c
Ġfor cori
Ġbot ayes
ov irÃ»sses
Ġaf rikins
Ġvic antes
Ġxh or
Ġxh iyÃ®
ori cmint
un g
Di ssu
Co purade
Co inreces
iss ario
ĠFranc or
ĠFranc esse
Ã¥v Ã¨s
Ġgre ke
Ġgre ter
Ġtuz aedje
Ġtuz Ãªyes
cu ler
ist a
ist ikes
vÃ® fa
Ġber ikes
Ġpasse te
ĠDe gre
ĠDe jardin
Ġem ile
Ġem antche
Ġem iles
Ġrim onte
Ġmw intes
do bÃ©n
Ġ5 000
ĠIn vintÃ¥re
tere n
Ġing l
Ġmont aedje
tif ic
iye v
oc s
oc lore
Ġsip Ã¨s
Ġsip otaedje
Ġcam ps
Ġcam ions
ĠcÃ¥zu mint
ĠY ves
Ġint itÃ©s
Ġof ri
rim ont
Ġpeu mons
Ġtouw aedje
Ġtouw Ã¨t
Ġasse ne
Ġfal ijhes
Ġpat Ã¥r
riy a
Ġmol ons
Ġimp rima
Ġimp Ã´rtant
Ġresp irer
Ġcat ruc
Ġshof la
Ġshof lete
Ġec nÃªye
ĠerÃ® lÃ©
Ġag ol
Ġta ke
Ġper lins
Ġdiale ctes
ĠrÃ¥ ye
Ã´z Ã©
Ã´z ucion
ĠcrÃ¥ xhes
ĠZ hu
ĠwÃ¥rd ant
Ġrin gnes
ĠcÃ©nk inne
Ġsoci Ã¥le
Ġsoci olin
ĠCal s
ass ogne
Ġbin auje
Ġfond reye
Ġtchant ant
Ġcop lets
bou ya
dis fondowe
Ġdmand Ã©ve
walon de
Ġasto ke
Ġpire tes
Ġgri zou
Ġme hins
Ġdjae ye
Ġtae yÃ®
Ġtae yÃ®s
Ġtae yant
Ġuz er
Ġwaer axh
Ġwaer axhes
Ġmartch Ã®s
Ġcrexh ince
az un
Ġrexh a
cou lot
ram iaedje
Ġau jÃ®
Ġbal ou
Ġkimin Ã§mint
Ġrm onte
Ġrm imbere
ĠRo ger
Ġlan awaire
Ġaveu ri
ĠmÃ¥lÃ¥ jh
ĠRom ans
ban ne
Ġpoirt Ã©nt
ric us
ĠBal tike
Ġdmo ra
Ġtchamp nwÃ¨s
Ġsov Ã©nt
Ġsov rin
ob os
ob ac
Ġseur mint
Ġpet ro
Ġpet otes
Ġpet ales
ĠAr cq
Ġricnoxh Ã¨t
Ġpri yÃ®s
Ġprof ete
Ġmat rice
ĠmÃ¥r teas
Ġlo yive
Ġmac rale
ĠSt irner
wi aedje
Ġcomp let
Ġcomp Ã´zeu
Ġamon ter
Ġamon ucions
Ġracont Ãªye
Ãĩou ci
Ġcir cÃ»t
ĠmÃ© deye
Ġvind owe
Ġvind ous
za ke
Ġacle vÃ¥vÃ¨s
Ġnu ke
Ġnu kÃ®
Ġnu ks
Ġpoli cÃ®
Ġloum ires
Ġstudi a
Ġstudi aedjes
Ġalfabet ike
ĠsÃ¥r ot
Ġcri st
Ġfon olodjeye
Ġbri ct
clo ke
Ġgra v
Ġgra wes
Ġtchet idÃ®s
Ġvier lete
Ġrad oÃ»
Ġcontin owe
Ġcontin ouwer
Ġcontin ouwÃ©
Ġshuv owe
Ġoto strÃ¥
ĠÃ¥ye xhe
ĠCol son
ĠEs prit
ĠDjez u
Ġcroey ou
Ġbro st
Ġbro kes
Ġdessin Ã©
Ġcole re
Pa rey
ĠSc rire
Ġorto dosses
ĠvÃ´ ter
Ġcol neye
âĢ¦ )
Ġriss int
Ġriss aetche
Ġadj ond
Ġeri esses
Ġradj ond
ĠWi ket
Ġdimor Ã¨t
Ġdimor nut
Ġrot ant
Ġrot aedje
Ġrot Ã¨t
Ġrot Ã©ve
ĠOt omans
Ġpot Ãªye
Ġpot ince
Ġind o
Ġclo yaedje
Ġcod ujhance
ĠCo viete
lom Ã©
yÃ©n xhe
Ġnot Ã©
ĠBer lin
Ġho pe
Ġho peas
Ġtrib u
Ġver bok
Ġmostr Ãªye
Ġrid aedje
Ġrwait ant
ĠMe ke
ĠMe yÃ®
ĠAnd alou
Ġ190 6
Ġneye r
ĠScho ice
Ġtrin nÃªye
Ġspot Ã©
Ġbagu Ã©
Ġelect rikes
Ġpw is
Ġpind ant
Ġru ban
Ġrest orant
dele yev
Ġcivi l
bo ket
rat ournÃ©
Ġfel mint
ĠflÃ¥ wes
Ġxhuf ler
Ġtre rÃ¥
djoÃ» rdu
Ġvel ire
Ġrilidj euses
Ġcab us
Ġasch oÃ»t
ij Ã©
Ġlodj eu
Ġrn Ã¥ds
Ġritro ver
Ġfab ric
Ġtchess i
Ġhal cote
Ġpubli k
nÃ¥cion Ã¥le
Ġdrou ve
Ġlou ke
Ġpen as
Ġdjou xhire
Ġom rins
Ġrev oye
igne Ã»r
Ġfri sses
Ġfri go
Ġetim olodjeyes
Ġposs ibes
Ġavan ci
ĠPire t
ĠPire nÃªyes
Ġreplae cÃ®s
Ġdeci der
Ġdmey s
Ġedj alÃªye
Ġtu bes
Ġbor k
Ġbor don
ĠbrÃ¥ yes
ĠbrÃ¥ vÃ¨s
Ġrint rÃ©
Ġmarga yÃ®
Ġespe dicion
ĠprÃ´p mint
Ġacs Ã»s
Ġaccep ter
Ġash ir
Ġimprim eu
Pr umÃ®
Ġpon aedje
Ġmez eure
Ġfra w
Ġfra mb
Ġnouri teure
teri a
Ġbol ante
Ġpopu laires
ĠCom ission
Ġboe vÃ¨t
Ġboer lÃªye
Ġmiz rete
cr ouw
sti an
Ġcay Ã´s
Ġun itÃ©s
ĠVi et
Ġconse cant
Ġnouv Ã¨s
Ġfilozo fes
uro is
ĠdjÃ¥rd Ã©ns
Ġdischind ant
Ġmint i
Ġmint on
Ġvers ets
ĠnÃ¥cion Ã¥litÃ©
ĠMÃ¥r mite
Ġrastr ind
Ġrastr indaedje
ĠpÃ¥jh Ã»le
Ġtimper ateures
Ġindust reyes
Ġrco ri
Ġrco pyÃ®
Ã´d aedje
Ġsof ri
aca wÃªye
Ġdisco vrou
Ġrast inrece
Ġparfond s
Ġpaxh nÃ¥de
Ġmaw eures
Ġbisto ker
Ġcomuni sses
Ġpormoen nÃ¥de
Ġbel djicisses
Ġratch tÃ©
Ġpougn s
Ġmeyeus Ã¨s
Ġbardou xha
Sch oÃ»te
Ġcmand er
Ġhav urna
Ġrapo ite
Ġnorm Ã¥lmint
Ġnorm Ã¥ldimint
Ġrmet ous
Ġhan zin
Ġfoclo rikes
Ġshonn Ã©ve
ĠBern us
Ro djÃ®
Ro ger
Ġadje y
djus ter
Ġverd eure
Ġsilla busse
ĠSa int
Ġprus ti
ĠmÃ¥l vÃ¥t
Ġmel Ãªyes
ĠvÃ¨ yu
Ġtchi p
ĠRoum ins
pagn ols
Ġespaitch ance
Ġbans lÃªye
Ġbans lÃ®
Ġlim ite
Ġrifond ou
ĠLib ins
ĠNe w
ĠsÃ¥va djes
Ġfetch ire
ĠbÃ´r Ã©s
Ġvac cin
Ġsoye te
oli um
ĠLor inne
ĠBay Ã¥d
ĠSacw antÃ¨s
ĠAt lantike
ĠEr nest
Ġmiy Ã¥rd
Ġschoy Ã¨t
Ġcromb yÃ®
ĠfÃ¥tch eu
Ġuniviers itÃ©s
Ratour naedje
Ġâ µ
Ġbla w
Ġsipe xheur
Ġstof es
Ġmetch ants
Ġapou gnÃ®
Ġberdel er
Lou is
cra beau
ĠCor waitaedje
Ġplo kes
Ġplo rer
Ġcara cole
Ġbiest reye
Ġdefin ixha
Ġconc erts
Ġconf onde
Ġahess Ã¥ve
Ġagr itch
Ġagr itchÃ®
Ġagr itche
Ġprofess eurs
As teme
Ã¶ r
Ġcin q
Ġatuz lÃ©
ĠlÃ¥tch Ã¨t
An ti
Ġcujh eut
Ġpos teures
Ġmoxh et
viet ike
Ġraba te
Ġreplaid Ã®s
Ġbress aedje
Ġclin ike
Ġnawe a
Ġassaz inÃ©
Ġmicro be
Ġmicro bes
Est Ã´
Ġect Ã¥re
ĠtrÃ® xhes
Ġsawou ra
ĠÃĩ a
Ġarkey olodjike
Ġrespons es
ĠÃ¥buss on
Ġsg ondaire
Ġrli kes
Ġcov ra
ĠsiÃ¨ ke
ĠCay ron
ĠPrÃ© le
ĠTour nai
ĠNor ve
Ġ-- --
Ġfougn ants
Ġttafwait mint
Ġcuz Ã©n
ĠCu ba
ĠCu gnon
Ġvidey os
ĠSic rijheus
Ġhale nes
rinn wik
ĠtrÃ» lÃªye
Ġconoxh ou
Ġbrouh eur
Ġcrustin nisse
idi ve
Ġpike te
Ġcos ter
Dju djmint
Ġdman ants
Ġinm Ã©ve
CO T
Dim win
cet mint
Ġaire urs
Ġela xhÃ®
Ġrplo yÃ®
anto eles
Ġplantch ete
Ġmasto ke
Ġmasto kes
ĠDjÃ¥ Ã§lete
Ġindje ni
Ġgruz in
Ġbrouxh ir
Af rike
Ġswer Ãªye
ĠedjÃ® strÃªye
Ġelai di
Ġelai dixh
Ġfuz ik
Ġsoviet ike
Ġsoviet ikes
ĠMÃ© lin
Ġmopli yÃ®
Ġuman itÃ©s
ĠTan gan
Ġdemo cra
Ġaba teu
Ġcoul ots
Ġbondi u
Ġseri eus
Ġinstit ucion
Ġeterp rijhe
Ġdialect ale
ĠBruss elwÃ¨s
Ġciviliz Ã¥cion
Ġciviliz Ã¥cions
Ac cint
Fal eut
Lin we
bru n
Ð¸ Ñ
Ġetour piner
ĠDic tionnaire
ĠBin amÃªye
ĠAug uste
Ġdivoir Ã§aedje
Ġaduz oe
Ġhoub ion
Ġglae ces
Ġtchestur linne
Ġareyoplan e
Ham teas
uci usse
ĠassÃ® te
Ġtort os
Ġtchocol Ã¥t
Ġcaro lo
Ġrape xhÃ®
ĠTay lande
ĠEter nÃ¥cionÃ¥le
ĠEug Ã¨ne
Ġaske peye
Ġgue pard
Ġcontro ler
Ġclint cha
Ġclotch Ã®s
ĠcrÃ¥mi gnon
Ġdjaloz reye
ĠMÃ¥rcin ele
Ġeredjist rÃ©
Ġdivizi ons
DoÃ» cÃ¨s
Mau rice
Ter metant
dÃ¥r ni
Ġay ir
ĠkÃ©nt es
Ġrus tea
Ġlau dje
ĠSab ine
Ġdistermin ant
Ġtoete a
Ġrawa Ã®te
ĠEgzim pes
ĠenimÃ¥ djÃ®
Ġatouw ance
ĠPara dis
Ġcoirna ye
Ġfornai viaedje
ovin djins
ĠdzÃ´r nÃ©
Ġhalcot Ã®s
Ġdringu ele
Ġgurze as
Ġyerb Ãªyes
ĠcoignoÃ» lÃ®
aej de
Ġstro etes
Ġstala g
Ġhier dÃ®
ĠPiet kin
ĠHey mans
Ġsave Ã»t
ĠschÃ´t lÃªye
Ġnet yÃ®
ĠnaÃ§ ale
Ġrimp leye
ĠZa bele
Ġtchapi strea
Ġrmimb rer
Ġrapoit roÃ»les
Ġocsi djinne
Lad vins
Ġluz ere
Ġpret ind
ĠdipÃ¥rt umint
Ġbind d
Ġblou ze
Ġbulg Ã¥re
Ġvant rin
Ġgle ter
Ġgale tes
Ġwiy inme
Ġalg ori
ĠFA RC
outsi plou
Ġmazin dje
ĠLimb ourg
Ġapri yesse
ĠOmon imeye
ĠChurch ill
DisrÃ´ lmint
ĠLequar rÃ©
Ġadviert ance
ÃĽ t
Ġazo te
Ġsaedjes se
ĠMori ce
Ġwimb ire
ĠDRI COT
ĠClas kin
ĠmÃ¥mdi yinne
ĠGhy s
Ġango xhe
ĠHeyer dahl
ĠMadri d
ĠMarake ch
ĠVatic an
Ġepesti fer
Ġbritan ike
ĠUNES CO
ĠAndalou zeye
% )
' ve
) -
, ..
. :
. ;
. ),
A ss
A nt
A beye
B or
B asse
C on
C ot
C ro
C om
C ha
C laire
C Ã©nk
D Ã¨s
D eujhinme
E co
E mile
F or
F orir
F Ã¥ves
F ontinne
F agne
F lori
F amile
F ayi
G of
G eorges
G aston
H er
H inri
I N
J osÃ©
K eb
L o
L on
L Ã©
M onde
M erci
N in
N ive
N eni
O ur
O stant
P A
P e
P l
P ond
R N
R es
R owe
R oz
R ole
R wey
R otaedje
S c
S ou
S ing
T ra
T ere
T antea
V an
V al
V ind
V oye
V era
X h
a wÃ¨
a keye
a prume
b el
b ete
b leu
b iner
c y
c eu
c ap
c otes
c Ã´ze
c yins
c ron
d os
d or
d inne
d oir
d zeu
d Ã«
d inner
e g
e au
f Ã¨
f ot
f mint
f ere
f essÃ®
f Ã´re
f ate
f usse
f iccion
g z
g ol
g rin
g ris
g Ã¥de
h r
h Ã´
h as
h ans
h ene
h med
i eu
i Ã¨t
i pe
i en
i djes
i pene
j iang
k el
l ine
l itÃ©
l usse
l dimint
l euses
m y
m ant
m Ã¥r
m am
m Ã¨t
m ic
m were
m ission
n b
n in
n it
n al
n esse
n ires
o ra
o pe
o vi
o che
o yi
o po
o ker
o gra
o cide
o ws
p y
p al
p tit
p owe
r Ã©ve
r wÃ¨
s mint
s ur
s ons
s ist
s ouye
t ou
t ro
t rece
t reyes
t aire
u o
u ri
u ve
u nes
u lets
v ter
v ler
v reut
v Ã¥s
v were
v oe
w esses
w aneye
y ale
z ot
z is
z Ã®s
z Ãªyes
z eure
z one
z aece
z innes
z iner
Ã ¦
Ã Ģ
Å «
É Ļ
Ë Ĳ
Ï Ĥ
Ð ´
Ð »
Ñ ģ
Ø ¨
Ø Ń
Ù Ĩ
à §
å Ń
è ¯
Ġ Ï
Ġ out
Ġ 95
Ġ 78
Ġ 77
Ġ 34
Ġ 37
Ġ 87
Ġ 54
Ġ 140
Ġ 59
Ġ 61
Ġ 581
Ġ Ê¾
Ġd re
Ġd ot
Ġd eye
Ġd ure
Ġd Ã´p
Ġd viÃ¨
Ġd uc
Ġd vintrin
Ġd aenwÃ¨s
es e
Ġl Ã©n
Ġl ut
Ġl eurs
Ġl Ã§ons
Ġl orin
Ġl ouwaedjes
in ou
in Ã©s
in aire
on Ã¨s
on nes
Ġa gu
Ġa mete
Ġa cide
Ġs ae
Ġs us
Ġs lo
Ġs Ã»t
Ġs wÃ¨
Ġs yin
Ġs eure
Ġs ker
Ġs teu
Ġs ours
Ġp ti
Ġp ots
Ġp ince
Ġp Ã¨r
Ġp ane
Ġp otches
Ġp Ã´rt
Ġe ra
Ġe di
Ġe waer
Ġe vekes
Ġc Ã¨s
Ġc se
Ġc we
Ġc ran
Ġc ind
Ġc pa
Ġc Ã¥te
Ġc sch
Ġc mere
ou le
ou naedjes
an on
an isse
Ġdi j
Ġdi Ã¨s
Ġdi al
Ġdi lon
Ġdi mey
Ġdi grÃ©s
te y
te reyes
Ġm ut
Ġm our
Ġm esses
Ġm ers
Ġm Ã¥rs
Ġm ouwÃ©
Ġm onsi
Ġm Ã¨ye
Ã® n
Ã® Ã§
Ġt Ã¨
Ġt am
Ġt ar
Ġt rez
Ġt aire
Ġt nÃ©nt
Ġt Ã¥rdjÃ®
Ã¨ m
Ã¨ z
Ã¨ ke
Ã¨ che
Ã¨ mes
ne l
dj reyes
dj imont
ye as
Ġf Ã®s
Ġf esse
Ġf um
Ġf lan
Ġf ute
Ġf indou
Ġf laire
Ġf rÃ¥le
ch inde
ch au
ch one
Ġb Ã¨t
Ġb lam
Ġb Ã¥res
Ġb Ã¨le
Ġb wÃªre
Ġb gh
Ġv uz
Ġv ante
Ġv leur
Ġv nant
Ġv Ã´tes
Ġv udi
Ġv wÃ¨t
Ġn our
Ġn ous
Ġr b
Ġr dje
Ġr xh
Ġr se
Ġr vi
Ġr acw
Ġr ouw
Ġr wer
Ġr dis
Ġr viers
Ġr vey
Ġr meteut
Ġr basti
Ġ( +
Ġ( .
er ter
Ġes ke
Ã©n cweme
ae djÃ®s
Ġet indou
it aedjes
it rÃ¨
it ay
ot isse
ot reyes
Ġco ye
Ġco ve
Ġco ra
Ġco yÃ®
Ġco rÃ¥
Ġco lÃ©
Ġco pyÃ®
Ġco vri
Ġco vrou
Ġpo let
Ġpo iz
Ġpo ites
Ġpo wetes
Ġpo laxhe
al Ã®s
al ijhaedje
Ġki wi
Ġdj ant
Ġdj ene
Ġdj ok
Ġdj alÃ©
Ġdj ustumint
Ġdj Ã®sses
int chÃ®
Ġdo yes
Ġav ot
Ġav inde
Ġav nÃ¨t
Ġav irance
ro y
ro ter
ro vi
ro che
ro mans
ro ixhe
Ġi enne
ri te
ri yÃ®
ri um
ri ket
ri lidjon
jh i
Ã» ss
ĠÃ¥ jhe
ĠÃ¥ rire
ĠÃ¥ djeu
ĠÃ¥ rÃ®z
ĠÃ¥ yÃ©nxhe
et Ã¨s
Ġg or
Ġg reye
Ġg ola
Ġg erman
Ġpa lete
Ġpa yive
Ġpa tois
xh nut
xh isses
Ãª ve
Ãª pe
us teye
us kin
us tene
ve te
de nes
Li dje
Ġsi pene
Ġsi bar
Ġsi coreye
Ġtch ar
Ġtch iy
Ġtch ai
st on
ir l
ir y
ir Ãªye
ir ans
ir Ã»sse
19 14
19 30
19 40
19 36
19 69
19 79
19 89
ol y
ol z
ol oke
ut ude
se te
at h
at or
mint aedje
os Ã¨f
ra if
ra per
ra peye
20 13
Ã¥r dene
is er
is mes
is tere
la iwe
ĠM uz
ĠM ele
ĠM ong
ĠM ali
ran djes
ran ki
ran asse
Ã§ let
Ġw Ã©
Ġw ant
Ġw Ã´t
Ġw espi
im p
im it
am bou
ĠD oze
ĠD roixhe
Ġla bor
ĠL eus
Ġo i
Ġo yons
Ġo yeu
Ġo dio
Ġo xhs
Ġo randje
Ġo randjes
ac ul
ac cions
Ġst Ã¥re
Ġst amp
Ġal pin
ĠB out
ĠB ov
ĠB rinne
ĠB Ã´d
Ġtot oute
ci us
ci om
ci cle
ĠC Ã©
ĠC ir
ĠC ons
ĠC Ã¥z
ĠC inte
ĠC min
ĠC oz
ĠC av
ĠC inse
ĠC ok
ĠC amb
ĠC roejh
ĠC odjo
ĠC rinnwik
ĠC ranasse
24 22
as p
as ter
pe le
Ġpus k
Ġpus ki
di jh
Ġvi j
Ġvi yesse
our di
ĠS oÃ»
ĠS ac
ĠS au
Ġpr ati
Ġpr atik
ar ne
ar tike
eur Ã©
Ġpl oÃ»
Ġpl ans
Ġpl ome
Ġpl ov
Ġpl omb
Ġpl onk
Ġh om
Ġh out
Ġh onte
Ġh aetch
Ġh Ã¥le
Ġh osse
Ġh antches
Ġno st
Ġno eres
Ġno ret
Ġno zÃªye
ĠA prÃ¨s
ĠA ron
ĠA tre
ĠA del
ĠA arne
ter n
ter nut
ter tos
Ġmo mint
Ġmo rete
Ġmo dier
eye t
en ut
en ia
pr est
gn Ã©
gn ants
gn aedjes
gn Ã¥de
ĠP u
ĠP ot
ĠP Ã´
ĠP la
ĠP en
ĠP etch
ĠP tite
ĠP onant
ĠP late
om a
tch i
tch mint
tch etes
Ġdis b
Ġdis te
Ġdis ru
Ġdis gra
Ġdis go
Ġdis rindj
Ġdis fondowes
ur k
ur us
ur Ã¨t
li e
li j
li o
li ce
vi c
vi ye
vi Ã¨t
Ġsc a
Ġsc reye
Ġsc rou
Ġsc rets
Ġsc rinÃ®
esse a
ind ows
ĠÃ´ neas
Ġri eu
Ġri la
Ġri pa
Ġri fwait
Ġri zultat
Ġri cete
Ġri glat
Ġri dob
ĠF in
ĠF al
ĠF ra
ĠF la
ĠF as
ĠF Ã¥t
ĠF les
ĠF ay
ĠF ai
ĠF aul
ĠF ederÃ¥cion
ĠF obos
Ġto pon
Ġ19 29
Ġ19 74
Ġ19 53
Ġca isse
Ġca wou
Ġca bou
Ġca zake
Ġra me
Ġra ss
Ġra bou
Ġra gre
Ġgn Ã¥
Ġmot lÃ®s
ĠmÃ¥ tche
ĠmÃ¥ rene
out Ã©
ĠÃ¨ l
ĠÃ¨ glÃ®je
Ġma ye
Ġma we
Ġma is
Ġma lete
Ġma djike
Ġma Ã§on
Ġma Ã®sse
Ġma gri
Ġma djor
ess Ã¨s
ess eus
ess ions
gne t
gne te
gne lÃªye
ti aedje
ĠR ac
ĠR ons
ĠR ey
ĠR mÃ¥
ĠR oc
ĠR oland
ĠR io
ĠR ich
ĠG r
ĠG er
ĠG li
ĠG rÃ¥
ĠG rece
ĠG ret
ĠG ourd
ĠG laire
ĠG aza
ĠLi ber
ey aedje
Ġan nu
Ġan doÃ»
ĠT al
ĠT os
ĠT riy
Ġfo idjes
ĠW Ã©r
ĠW illy
um Ã©
um ar
Ġtro y
Ġsol rece
Ġsol itaire
Ġda zÃ¥r
Ġdiv nut
Ġdiv oice
Ġdiv nous
Ġdiv Ã©nrÃ¨
Ġci a
Ġci te
Ġre tch
Ġre nai
Ġre woey
rÃ® ye
rÃ® xh
ans onnet
Ġte t
Ġte ter
ĠH or
ĠE yet
ĠE glijhes
ĠN u
ĠN an
ĠN ie
ĠN az
ĠN assogne
Dj el
Ġbo sses
Ġbo teas
Ġbo cÃ¥
Ġbo letes
Ġbo djÃ¨t
Ġbo kions
ene ze
ond Ã¨t
Ġmet al
Ġmet roz
Ġmet ingues
Ġva yants
ĠJ er
ĠJ ane
Ġsa u
Ġsa le
Ġsa is
Ġsa ya
Ġsa iwe
Ġbi e
Ġbi kets
uz aedje
uz aedjes
tit ta
ĠcÃ´p Ãªye
ere t
Ġfi ya
ĠpÃ¥r otch
ĠpÃ¥r lÃ®
Ġmi sse
Ġsp lo
Ġsp lin
ouw isse
Ġba waite
Ġba zÃ¥r
Ã´r se
ĠMa uj
ĠMa rokin
ĠMa reds
Ġsins i
yi bes
yi ka
ĠDj C
ĠDj imbe
ĠDj Ã¨r
ĠDj oupeye
Ġen awaire
ĠI yes
ĠI SBN
ĠcÃ¥z aedj
Ġsch o
Ġsch Ã®
Ġsch ete
Ġsch Ã¥ye
Ġsch ors
Ġsch oupe
Ġbou yes
Ġbou xhant
Ġbou nmint
ĠÃ İ
pa pÃ®s
ĠpÃ¥ kes
Ġac wa
Ġac ont
Ġac onter
Ġac teurs
ĠV atche
ĠV ande
Ġad m
Ġad dj
Ġad os
Ġad oÃ»
Ġad vin
Ġad rame
Ġad uzer
Ġad vintaedje
Ġep oke
oz Ã©
qu i
qu in
qu ants
qu ier
Ġas cro
Ġas honnaedje
Ġas prouve
rin djÃ®
Ġlu gnÃ®
ma dje
ma pe
ki stan
ze le
ze au
Ġvey ant
Ġvey Ã¥ves
Ġbe vou
Ġbe gnon
ĠWalon eye
gu Ã®
gu ete
co lete
Ġwa y
Ġwa ro
Ġwa che
Ġwa essin
Ġpro c
Ġpro cÃ¨s
Ġmete us
Ġlon gues
ĠÃ® pes
Ġti er
Ġti pe
po ra
il v
il is
il let
Ġfr umints
ale ye
Ġdji vÃªyes
Ġro gnes
Ġro do
Ġro teus
Ġz iver
Ġz ivem
Ġz Ã©nk
itch rece
Ġcom Ã©re
Ġrat indou
Ġrat oÃ»ne
Ġrat aker
est rolÃ¨s
lÃ© t
Ġdju sses
Ġvol eu
Ġvol oz
Ġlom Ã®t
Ġle yes
Ġle xhe
Ã¥d rece
ab ete
ab ulaire
ĠpÃ® re
Ġbr Ã´
Ġbr ont
Ġpe Ã»
Ġpe gnon
ver deas
Ġcro p
Ġcro djamb
Ġga vÃªye
Ġga yets
Ġap et
Ġap as
Ġap randj
ĠO re
ĠO ct
ĠO NU
Ġgro te
Ġgro xheur
ijh on
ijh aedjes
don e
don ez
Po y
otch aedje
otch ets
Ġam win
Ġam ist
Ġam oenne
Ġam onta
Ġam istÃ©
Ġam uzer
Ġcor antes
Ġcor intenes
pl Ã¥cion
Ġman kÃ©
Ġman nete
Ġman cance
Ġmal Ã©ns
av ot
av el
av ans
av ane
Ġab u
Ġab ou
Ġab ag
Ġab oct
Ġab omin
Ġtcham pagne
Ġpit i
ĠsÃ´ mÃ®s
fer a
fer ike
ul Ã®s
Ġlive as
na te
na ri
na xhe
Ġpla ker
if or
Ġend alÃ©ve
Ġter Ãªyes
ĠpÃ´ roz
ĠpÃ´ magne
ĠpÃ´ vri
ĠpÃ´ zicion
Ġyeu sses
Ġcmin Ã¥ltÃ©s
nd re
rÃ¨ ye
rÃ¨ sse
Ġdro ve
Ġdro vous
Ġdro ldimint
Ġmon umints
Ġrac ro
Ġrac at
Ġrac la
iv et
iv yÃ®
Ġmar kes
Ġmar ones
Ġmar xhÃ¥
Ene viÃ¨
ĠTch Ã¥
ĠTch an
ĠTch ai
Ġari va
of s
of on
Ġ18 90
Ġ18 35
Ġ18 96
Ġ18 77
Ġ18 88
Ġ18 83
Ġ18 54
ĠsÃ¥ Ã§usses
rez intaedje
Ġras courti
Ġeplo ct
Ġeplo yÃ©nt
Ġcan ic
Ġcan lete
ssu le
Ġpas mint
Ġpas reut
zi g
Ġtr intch
Ġtr once
Ġgu Ãªre
Ġpi ter
Ġpi ole
Ġpi kÃ©
Ġcou me
Ġcou gnÃ®
Ġcou teas
Ġcou lote
Ġin oc
Ġin ketes
ba ra
ile t
rÃ© yes
rÃ© mont
Ġfa ce
Ġfa xhes
Ġfa iz
Ġpar k
Ġpar ler
Ġcre y
ĠK o
ĠK ar
ĠK iyev
tÃ® t
Ġsit itchÃ®
Ġsit udeye
Ã¢ ve
fond s
fond ou
ĠU z
ĠmÃ¥jhon Ãªye
ĠÂ» ;
ĠÃħ le
oy isse
Ġbetch etes
Ġcon ferinces
Ġcon ferince
Ġsu per
Ġ1 10
Ġ1 28
Ġres tchÃ¥
Ãħ resse
Ġcont Ã©nt
Ġcont rÃªyes
Ġcont role
ay s
Ġsin eus
Ġcla per
Ġcla smint
Ġdin Ã©nt
Ġdin asteye
Ġtrop ike
Ġtrop ic
Ġve pes
Ġve djet
Ġey u
Ġtcher owes
Ġtra m
Ġtra u
Ġtra wer
Ġrc om
Ġrc lÃ´re
Ġ) :
Ġdisc ra
Ġdisc la
Ġdisc rijhaedje
Ġdisc ours
ĠpÃ¥rti cip
ĠpÃ¥rti cul
da g
Ġpou vwer
Ġcl itch
Ġcl itchÃ®
Ġcl imat
ĠcoÃ» sses
oir cÃ®
Ġsor djoÃ»
Ġhou pete
Ġepla idive
ca wete
ps on
Ġmin er
Ġmin Ãªyes
Ġrl oukÃ®
Ġlin et
ĠBa te
Ġric om
Ġric wer
Ġric mand
Ġric lame
Ġric mince
Ġric foirt
Ġdjouw Ãªyes
Ġdjouw Ã©ve
Ġdjouw euse
mÃ¥ cions
Ġar nÃ¥
Ġar nÃ¥jhe
200 1
200 6
oe fs
Ġriv aedje
Ġriv nowe
ĠcwÃ¥r es
ĠBel lef
Ġadon pwis
Ġmoirt Ã®
Ġbat che
ĠâĢ ĺ
mo es
mo irt
lam me
lam eure
Ġair diÃ¨
Ġins pe
Ġram pi
Ġbast ons
ujh eu
ĠCh ang
ĠCh Ã¡
ĠCh Ã¢les
Ġor ful
Ġfor nou
gue zÃªye
ns berg
Ġ17 95
Ġbot roÃ»le
Ġprind ant
Ġot ov
Ġaf ranki
Ġxh lÃ©
Ġxh alÃ©
Ġtri co
Ġtri pes
Ġtri mou
ĠpÃ¥rt aedje
ĠpÃ¥rt Ãªye
Ġeplaid reyes
Ġgo gne
Ġgo reas
ĠÃħr vier
Ġmes bri
Ġmes kenes
ĠtchÃ´ ke
ĠLe fe
bi onte
ĠLa ver
Ġds hof
bert o
ik in
ÃĪ s
Ġconte u
oÃ»s lÃªye
aye l
aye ure
Ġdan dj
ets che
Ġtuz eu
lou c
lou djoÃ»
djin Ã§mint
ijhe a
Ġdmor nut
Ġber bere
ĠMar on
ĠMar tchÃ®
ĠMar iner
ĠDe frexh
Ġem Ã®
Ġprov in
Al bert
Ġrim plis
Ġ16 78
Ġsou rate
Ġdjam as
ĠimÃ¥ djreÃ§mint
ĠIn ne
ĠIn guezÃªye
Ġtou tches
ĠtÃ© lemint
Ġmont Ã©nt
Ġris piter
Ġris crire
Ġris keus
ret aire
Tot Ã¨s
iye a
Ġpic sels
Ġfot ant
Ġsip an
Ġsip ot
Ġsip Ã¥de
Ã»s yins
Ġpronon cive
Tch Ã¥r
Â° ,
ĠY v
ĠY ande
Ġint che
Ġint rÃ©
Ġof rixh
ie yes
Ġeter vin
Ġse pa
Ġse pt
Ġvin ous
Ġvin aigue
Ġtouw Ãªye
Ġtouw Ã©ve
ĠAn at
Ġ4 000
Ġer sÃ¨
Ġer Ã´daedje
Ġcnoxh eu
Ġcnoxh Ã¨t
Ġtin Ã©nt
Ġtin eut
imÃ¥ djes
Ġrfond ous
Ġrfond owes
Ġfal Ã©ve
Ġpat rimoenne
ĠpÃ¥s te
riy ant
Ġfro te
Ġmol in
Ġimp ire
ĠRe x
ĠRe cwÃ¥rlante
Ġha sse
Ġha gnons
Ġha erna
Ġshof letes
Ãªy nut
ĠlÃ© rece
Ġsac rÃªye
ĠerÃ® l
Ġag rÃ¨
Ġag ron
Ġag ayons
Ġag ayon
Ġta urd
Ġta wea
Ġta essea
Ġbout aedje
Ġsetch i
Ġmeye umar
ĠMou stÃ®
Ġcost ire
Ġcost indjes
ĠwÃ¥rd eu
ĠwÃ¥rd Ã¨t
Ġrap Ã¥
Ġsoci Ã¥s
Ġsoci alisses
Ġfou fes
Ġban cs
ĠBou ssu
ĠBou xhon
Ġpers on
Ġpers onne
Ġtap aedje
Ġtchant reye
Ġsincieus Ã¨s
Ġcop ler
pÃ© r
ĠX II
Ġcandj ant
Ġlinwin ce
Ġfl otch
Ġfl ormint
ĠWal o
ĠWal akeye
Ġdmand a
Ġcint innes
Ġasto kÃ©
ĠMo ite
ĠMo ors
Ġgri p
Ġgri v
Ġgri gneus
ĠÃ©ndj oles
Ġme dayes
Ġmagn ants
fi esse
ĠdoÃ» cetmint
Ġtae xhons
ĠSch aye
Ġdist in
Ġdist ance
Ġrit oum
Ġrit nou
Ġrit oume
Ġwaer mayes
Ġmay ot
Ġcrexh ance
ĠrÃ´ b
ĠrÃ´ bal
Ġrexh owes
cou loudjoÃ»
ram atike
Ġbal s
Ġbal zin
Ġkimin Ã§nut
Ġsicrijh eut
Ġatch tÃªye
Ġspe ye
Ġspe pieuzmint
tr Ã»de
ĠnoÃ» f
ĠSi di
ĠSi pÃ¥rdaedje
Ġ8 00
tin dje
ĠdilÃ© reces
div ni
Ġshijh inme
Ġtol a
Ġfin Ã¥lmint
ĠBal k
ĠSo vietike
Ġdmo rances
ob ols
Ġcar mou
Ġvir Ã»sses
Ġtchap Ã¨le
ĠMi chael
Mi chel
pÃ¥ djes
ĠbÃ¥ ker
ĠbÃ¥ cter
cs ion
Ġespli kÃ©
Ġbra ib
Ġmac a
Ġmac lotes
wi ant
Ġsot Ã©nt
Ġcomp urd
Ġracont aedjes
Ġracont Ã©ve
Ġalfab ets
Ġofic Ã®
Ġofic ires
cÃ¥z u
Ġmach in
cha ver
Ġacle ver
Ġacle vÃ©s
Ġrire yes
Ġstr ind
Ġstr onner
Ġdisp oÃ»slÃªye
Ġvijh naedje
viers itÃ©
ĠrascrÃ¥ wÃ©
Ġpierd aedje
Ġpierd Ã¨t
gan es
Ġraf iy
Ġraf iya
cw eli
Ġmam es
Ġhap Ã©
Ġhap eus
Ġmier nou
Ġmier pÃ®
Ġmier kidi
bl Ãªyes
cc us
Ã¥m Ã©
Ġfon inmes
Ġbri b
Ġcodjo wer
Ġnom s
Ġrind eut
Ġvier bires
Ġrad ap
Ġmouss eure
Ġmouss eures
Ġcontin ter
Ġshuv ante
Ġrespond ou
ĠdÃ¥ ne
ĠdÃ¥ rer
Ġrond es
Ġrond Ã¨s
ĠEs pagnols
ĠschoÃ» tÃ©
Ġbleu w
Ġbleu wes
Ġdessin aedje
Ġcot in
Ġral aedje
Ġscol Ã©
Ġscol er
Ġscol Ã©s
ĠhÃ¥y nÃ©ve
Ġpel Ã©
ĠPr umire
ĠPr Ã»syins
Ġrey accion
Ġramass Ã©ve
Ġdans eus
Ġadj int
Ġadj ixh
ĠBo ssart
ĠBo xus
Ġradj onde
ĠMat hieu
Ġbiy otchim
fr ut
uw el
Ġavi ze
Ġsem Ã©
Ġsem itike
Ġtchen onne
ama gnÃ®
ĠPol issario
Ġdispa rexhaedje
ĠTchÃ¥r lÃ®
Ġcoixh eures
ĠCo isse
ĠCar pen
Ġschap aedje
ĠpÃ¥p ires
Ġfla ir
Ġfla minde
Ġho de
Ġrav aler
Ġrav itay
Ġver itÃ©s
Ġlijh eut
ĠDes met
Ġmostr aedje
Ġrid ant
Ġravi ker
Ġrapl oure
ĠimÃ¥dje tes
ĠpoÃ»ss ires
ĠMe mel
Ã§a is
Ġnor ve
Ġ190 1
Ġ190 4
Ġ190 8
ĠWar nier
ĠHu bert
ĠHu go
Ġspit ants
Ġinf ir
Ġinf ier
Ġkinoxh eut
Ġkinoxh owe
Ġdjal ot
ĠMer ovindjins
ĠtchÃ®f s
Ri met
Ri waitÃ®
Ġpw el
Ġpind owe
Ġis rayel
Ġuni v
Ġuni viersele
rat ure
Ġtrou k
Ġxhuf laedje
Ġxhuf lant
ĠÃ¥b utude
Ġtchene a
Ġasch oÃ»ter
Ġpez Ã©ve
Ġpez antÃ¨s
Ġclap ants
Ġdiyale ke
pin Ã©
Ġlodj mint
Ġlodj isse
Ġpan es
Ġpan Ã®
Ġlaid s
graf yÃ®
ĠUni viersitÃ©
Ġespagn ole
Ġritro vÃ©
Ġritro vÃ©s
Ġbard axhe
Ġlou keye
amb re
ĠSal omon
Ġrev inte
Ġbole djreye
Ġaprind eut
Ġetrindj ire
Ġtche djes
Ġtche reye
Ġobli djÃ®s
iccion aires
Ġdeci dÃ©
ĠpÃ¥rtici pes
Ġedj al
Ġtu be
Ġtu ber
Ġrint es
ĠdjenerÃ¥ le
ĠDel aite
ĠBor gogne
ĠSimon on
Ġrist inde
Ġfem rins
Ġrpa sse
Ġrpa sser
Ġdess Ã©n
Ġdess iner
Ġdocteur s
Ġava djÃ®
ĠWa reme
Ġaccep tÃ©s
Vo chal
oss int
Ġos pi
Ġpon ant
Ġfra ijhes
ĠMon onke
ĠAd ri
ĠJu li
Ġamoen na
Ġnouri xhon
Ġwaerant is
Ġapi Ã§aedje
ĠAb Ã®ye
ĠRa es
Ġboe veut
Ġlam pes
Ġdimand Ã¨t
Ġdimand Ã©ve
Ġplu pÃ¥rt
ĠGran ds
ĠVi ene
ĠOr to
ĠOr cÃ®mont
Ġconse cante
ĠThom pson
fre d
Ġdiss eu
Ġdiss ur
Ġbet che
Ġdjer mÃªyes
ĠdjÃ¥rd inÃ®
Ġislam isses
Rat indoz
Ġlat ons
Ġlat itude
Ġpixh a
Ġdiccion aires
Ġmint es
Ġtone as
ĠpÃ¥jh ire
ĠcompÃ´z Ãªye
biy o
Ġdvi z
Ġdvi zes
Ġcul teures
Ġrco et
ĠAra beye
Ġasco xheye
Ġmousse ye
Ġdiyalect olodjeye
Cont es
Ġculture l
Ġvit mint
rod Ã»t
Ãªr t
Ġploum ion
Ġdisco vere
Ġparfond eu
ĠrascrÃ¥w ÃªyÃ¨s
Ġadier ceye
Ġim poss
Ġrai w
Ġahiv eus
ĠeternÃ¥cion Ã¥s
Ġdou vÃ©nt
ĠdÃ® ne
Ġdam jh
Ġdam aedjes
Ġloye yes
Ġton ire
Ġton ike
ĠvÃ´t aedje
Ġlite raire
Ġwae zons
ĠwÃ¥r diveus
ĠTi ene
Ġgrandiv euzmint
Ġsinon imeye
Ġramoen nÃ©
Ġramoen nÃ¨t
Ġbardou xh
De dja
Sch oefs
Ġeba guÃ©
ĠCa yin
ĠSer vais
ĠdisbÃ¥ tchÃ®s
Ġeva yixh
Ġeva yixhaedje
ĠÃ¥rmon ica
Ġfeder Ã¥cion
Ġrashi owe
Ġrashi ous
Ġfinixh Ã¨t
Ġocup Ãªye
CÃ¥z es
Ġrprezint ant
Ġrprezint Ã¨t
Ġrprezint ants
Ġist or
Ġaloum Ã©ve
Ġfoclo rike
Ġshonn Ã©nt
wet aedje
Ġate ler
Ġadje te
Ġadje yant
Ġdiz eut
Ġtchiv Ã¥s
Ġfil m
Ġcwar pece
Ġclaw son
Ġclaw tÃ®s
ĠdistrÃ»t s
Gu ilin
PÃ¥r ti
Ġder iv
ĠvÃ¨ y
Ġcasse te
ĠGra fÃ©
Ġespaitch Ã¨t
Ġmatch urea
Ġbuz es
Ġresse rer
ĠDju piter
ĠsÃ¥va djÃ¨s
Ġsub ti
Ġagran cixheut
Ġpiy ano
Ġrle vÃ©
ĠcoÃ»t mint
Ġsimp Ã¨s
Ġlait reye
ĠPat rice
Ġdispi erter
ĠNot djÃ®
Ġmiy Ã´le
ĠcÃ©ncw antinne
Ġagne a
Ġdimo rance
Ġtt aleure
Ġsipe ate
ĠPÃ¥r ti
Ġriprezint Ã¨t
Ġmetch ant
Ġapou gne
Ġapou gnÃ¥de
Ġedvint Ãªye
ĠitÃ¥l yinne
ham med
ĠmÃ´ nÃ®s
neus es
Ġrlo pÃ©
Ġdjel Ãªye
Ġdjoye us
Ġcate goreye
ĠTere ze
ĠÃ¢ r
ĠÃ¢ reÃ»t
Ġdefin ixhant
Ġdefin ixhants
ĠÃ¥rtch itecteure
Ġtours iveus
Ġconf iteure
Ġnouz om
Ġsorvi ker
Ġforvey owe
Ġerit ance
ĠdÃ¥r nale
Ġron f
Ġwach lire
Ġdrov eut
ĠLej oly
Ġcolni jhaedje
Ġadministr atif
ĠmacsÃ¥d aedje
Rac segnes
Ð¾ Ð²
Ġct aper
Ġrd ingu
vegn nut
Ġcaw oÃ»tes
Ġcari oteu
Ġraba xhÃ®
ĠHout ou
Ġaprin disse
oze as
Ar denne
Bo ket
Bo kets
pÃ¥r ti
pas k
pas ki
Ġamed aedje
Ġdipind eut
ĠtrÃ® xh
Ġfur ler
ĠLÃ® ssin
orb atchyov
Ġschin ons
ĠÃĩ ou
Ġaccid ints
Ġbrouw ire
Ġfait indjes
Ġrclam aedje
Ġarkey olodjikes
Ġbati as
cwÃ¥r djeu
Ġamerik inne
Ġcriy ant
ĠsiÃ¨ cle
ĠWiy ame
Ġegol iner
Ġegol ina
Ġporsh uv
Ġfougn aedjes
Ġeciclope dikes
Ric wer
Tec nike
ĠkÃ©n te
Ġnai viaedje
ĠPas keye
ĠPor to
Ġdisv oyÃ®
ĠFi esse
ĠTa wes
Ġtemoen s
Ġapli ker
Ġapli cÃ¥cion
Ġabro caedje
ruc teure
Ġcougn ou
ĠXV I
ĠXV III
aÃ® we
ĠcÃ¥v lÃ©
Ġfw Ã¢rt
Ġsim bi
Ġmoy Ã©ns
ĠFond Ã¥cion
ĠTÃ® ce
ĠTim pe
ĠcwÃ¥re a
Ġevoy a
Ġamid rer
Ġpips aks
Ġpouss ires
Ġgovier ner
ĠAnto enne
Ġrabat ou
Ġrissaetch ante
ĠpapÃ®scrÃ®t s
Ġantibiy otike
Ġmash ale
Ba waite
Se Ã»r
Äģ Ê¾
Ġmen irs
Ġtire us
Ġesper anto
Ġliber Ã¥s
Ġstrou k
Ġdispl oum
ĠRab at
ĠGro gnon
ĠpÃ¥w ion
ĠlinÃ§ oÃ»
ĠAnc yin
Ġfabri ker
Ġfabri kÃ©
Ġsustantiv Ã©
Ġsustantiv aedje
Biy ografeye
ĠcÃ© ru
Ġcand Ã´z
ĠfÃ¨ ni
Ġir lope
ĠÃ¥ma yes
ĠwÃ¥ fes
Ġcwer Ã¨t
Ġtero risse
Ġfist ou
Ġfist ous
Ġbrotch et
Ġbondi us
Ġsipotch Ã¥ve
Ġeterp rijhes
Ġagric oÃ»teure
Ġmexh ner
Ġdecla rÃ¥cion
Ġglumi ant
Ġdispiert Ã©
Hen ri
Tou di
Walon reye
gro sse
ĠeÃ» res
Ġcond oley
Ġtat Ã¥r
Ġcosh ets
Ġdjen ocide
rovin ces
Ġsopo irter
ĠSte fane
Ġrilo yÃ®
Ġrasson rer
Ġfoit mint
Ġciga rete
Ġciga retes
ĠspÃ¥r gnÃ®
ĠInd yins
Ġschit Ã¥d
Ġguer ite
Ġhoub onde
Ġsouc rÃªye
Ġindepind ance
Ġareyoplan es
Cat rene
FÃ¥ reut
Ġdama dje
Ġamet ous
Ġske ter
ĠsÃ»te ymint
Ġtomb oe
djÃ¥z er
ĠvÃ¥r lets
Ġdoct rene
Ġgrijh Ã¨s
Ġgland es
ĠMet ou
ĠLam biet
Ġomon imes
omic etes
Ġdisbr Ã´lÃ©
ĠmÃ¥ha it
ĠLim bork
Ġbass Ã©n
Ġacla pÃ©
Ġacert iner
Ġaspit Ã¨t
gui gnon
Ġcher bin
Ġaron dixhmints
Ġpermet Ã¨t
Ġredji mint
Ġredji mints
Ġgrae v
Ġedoir mi
Ġindustri yel
Pad rÃ®
Ġpant alon
Ġkert on
ĠbÃ´me l
ĠrÃ´z Ã®s
Ġdocs Ã¥
Ġime niom
ĠtchoÃ» ler
ĠLer utte
Ġope rer
Ġstier ni
ĠSene gal
Ġhoz etes
ĠNÃ¥cion Ã¥le
Ġfiy ate
ĠOli vier
Ġabuv rer
Ġbrouy Ã¥rd
ĠmÃ©di eye
Ġfilozof ike
FranÃ§ ois
ym ie
Ġdlou jhÃ®
Ġebert akÃ©
Ġcout ume
Ġbourd ons
ĠbÃ¨d ots
Ġvwete ure
Ġcovi etes
Ġcoib jhÃ®
ĠdjÃ© reye
ĠBurt aegne
ĠPeu pe
ĠPort u
Ġrixh ot
ĠRap loÃ»
Ġcie djes
Ġreclo yowe
ĠEli zete
Ġbil digne
ĠVil lers
Ġdez ert
Ġvolont aires
Ġracra pot
Ġotor itÃ©
Ġotob iy
Ġsepi ance
Ġflor ins
Ġcotuz eus
Ġadjer me
Ġoridje ne
Ġorganiz Ã¥cions
Ġsketch s
ĠlittÃ© rature
Not ru
Rin djmint
sÃ´d Ã¥rds
Ġsat iv
Ġcocm wÃ¥r
ĠdjÃ©r yÃ®
ĠprÃ»s yinne
ĠÃ§mint ire
orde yon
ĠFri ze
ĠTrin itÃ©
ĠTuni zeye
ĠrecrÃ¥ xhÃ®
Ġacertin ance
Ġadaw yÃ®
Ġterm ome
ĠTches let
Ġconstit ucion
Ġdiscw Ã¥t
Ġdiscrijh Ã¨t
Ġsorrey alisse
Ġafor esses
Ġassot i
ĠrispÃ¥ mer
Ġtinz ayeure
Ġpatac ons
Ġcarbon ike
ĠConf uciusse
Ġpurn ales
ĠPalestin Ã®s
Ġrmerci yÃ®
Cara c
NoÃ» mots
Pers ounaedjes
fem rin
vski y
Ġfouw ire
Ġflou xhe
ĠnÃ¥jh i
Ġrwan gnÃ®
Ġdoe vnut
Ġsici lyin
rapl oÃ»
ĠDim orants
ĠDest rÃ©e
ĠDuf rane
ĠLae nsberg
ĠCul ot
Ġvict were
Ġgno gn
Ġciri like
ĠHod rÃ©mont
ĠHoss let
Djez us
ĠJÃ¨r trÃ»de
ĠMaud oux
Ġacon co
Ġprobl inme
Ġvoltr Ã»le
Ġmanne tÃ¨s
Ġracs ure
ĠTchape le
ĠDegre lle
Ġimprima teure
ĠZhu angzi
Ġsociolin wince
ĠCals teren
Ġwaeraxh mint
Ġbalou jhes
Ġneyer land
ĠTangan yika
Keb ir
Tere ze
powe zeye
ĠÊ¾ alif
ĠsÃ»t is
Ġpti zeye
Ġdilon gue
Ġmonsi eus
Ġtrez Ã´r
ĠBÃ´d rindje
ĠCmin Ã¥ltÃ©
ĠCoz akes
ĠFles ch
ĠFai viÃ¨
ĠFaul x
Ġcawou tchou
Ġrabou lets
ĠRmÃ¥ ke
ĠGourd in
ĠGlaire use
ĠTriy anon
ĠNie men
ĠNaz is
donez eye
Ġtrintch Ãªyes
ĠBellef lamme
ĠChÃ¡ vez
Ġorful in
Ġtrimou ye
obols k
Ġravitay mint
Ġimposs ibe
Ġcondoley ances
) "
- ),
3 27
6 00
9 60
< >
? "
A N
A b
A h
A p
A po
A lou
A cle
B as
B out
B lan
B oute
C l
C ou
C re
C rexh
C andj
D u
D ou
D am
D ani
D Ã¨l
D avance
D essin
E p
E stant
F E
F i
F in
F er
F el
F ier
F oir
F leurs
F lande
F ijhaedje
F Ã´rm
F oclore
G o
H Ã´te
I s
I mÃ¥dje
K Ã©n
L B
L R
L or
L ey
L Ã«
L ingaedjes
L omaedjes
M e
M an
M oz
M itchÃ®
M art
M od
N L
N e
N onne
N oyÃ©
N orm
O vraedje
P Ã®
P al
P et
P ont
P Ã¥ke
P ass
P asse
P aul
P onant
P osteure
P rezintaedje
R S
R Ã¥
R id
R odj
R ok
R oman
S A
S er
S Ã¨s
S Ã´re
S ara
S iya
S apinse
T W
T in
T ro
T ey
T ai
T ib
T inmes
U n
U bÃ©n
V er
V ie
W E
W i
W illy
X II
Z ande
Z els
a ce
a wa
a mint
a djes
a djÃ®
a ine
a da
a xhÃ®
a teur
a ge
b ons
b ants
b Ã¥s
b ijh
b ion
b ote
b roÃ»
b rod
b rane
c ut
c at
c eur
c Ã©s
c inte
c ous
c reut
c ine
c otÃ®
c rou
c inse
c noxh
c teu
c ret
c nÃ®
c ali
c winces
c ramiaedje
d Ã¨
d et
d ur
d ess
d Ã»t
d oum
d rans
d iner
d inltins
d irÃ®
f f
f Ã©n
f ur
f ons
f ote
f inse
f ime
f onde
f osse
g ae
g Ã¥r
g am
g ans
g ic
g Ã¥d
g ie
g oux
g ayon
h ae
h us
h ir
h eure
h one
h ad
i p
i ro
i as
i eye
i che
i yÃ®s
i ches
k t
k al
k im
k ar
k eur
k eures
l v
l or
l ouw
l oum
l ume
l antÃ¨s
l Ãł
l ingaedje
m m
m ire
m oz
m wÃ¨
m itan
m sk
n ab
n reyes
n tÃ©
o g
o w
o se
o Ã®t
o ovaerts
o bionte
p ro
p ire
p ons
p Ã©ve
p lan
p ris
p ots
r t
r ond
r otch
r one
r otes
s c
s ant
s Ã»
s im
s am
s or
s aetchÃ®
s atchÃ®
s bork
t z
t ol
t our
t inne
t ure
t were
t rou
t otes
t res
t usse
t oponimeye
u is
u la
u li
u ler
u wer
u wal
u vÃ¨t
u veke
u ras
u vres
v us
v ar
v ires
v roz
v Ã´s
w ins
w ant
w Ãª
w ite
w est
w ice
w antÃ¨s
w ites
w ela
y rÃ¨
y per
z if
z irs
Ã ±
Ã ¹
Ã ¿
Ã ĭ
Ã İ
Å į
Å Ĵ
Ì §
Î º
Ï ģ
Ø ª
Ø ³
Ù Ĥ
Ù ħ
Ù İ
á ¸
á ¹
ä ¸
æ ĺ
æ ľ
Ġ æ
Ġ ç
Ġ 68
Ġ 96
Ġ 44
Ġ 67
Ġ 46
Ġ 58
Ġ 64
Ġ 85
Ġ 53
Ġ 240
Ġ 256
Ġ yant
Ġ xhene
Ġ éĢ
Ġ <>
ī âµ
Ł æľ
Ġd ri
Ġd one
Ġd fwait
Ġd grÃ©
Ġd nÃ©nt
Ġd wÃ¨t
Ġd utcheye
Ġd grÃ©s
Ġd cweli
Ġd neuses
es honne
Ġl ons
Ġl op
Ġl wey
in eut
in wÃ¨s
on mint
on Ã§aedje
on ymie
Ġa k
Ġa ne
Ġa ch
Ġa be
Ġa ssu
Ġs me
Ġs eye
Ġs ans
Ġs ous
Ġs Ã¥s
Ġs Ã¥ve
Ġs Ã¨re
Ġs ouwÃ©
Ġs ena
Ġs dÃ¥rni
Ġp le
Ġp int
Ġp ante
Ġp eure
Ġp enes
Ġp onde
Ġp neu
Ġp Ã¨ne
Ġp waires
Ġp sÃ¥
Ġe a
Ġe ye
Ġe en
Ġe min
Ġe don
Ġe veye
Ġe uro
Ġe hÃ¥yaedje
Ġe venmints
Ġc mint
Ġc ma
Ġc lÃ©
Ġc itÃ©
Ġc ede
Ġc mande
Ġc Ã»tes
Ġc bouter
Ġc Ã»j
Ã¥ k
Ã¥ Ã§
Ã¥ mes
Ã¥ reut
Ã¥ jhon
Ã¥ tchÃ®
Ã© l
Ã© es
Ã© des
Ã© tois
ou ne
ou wa
ou rer
ou ba
ou lot
an djes
an Ã©s
an ner
an djeye
Ġdi es
Ġdi grÃ©
Ġdi termin
Ġdi vierti
Ġdi agnostik
te in
te laedje
Ġm wÃ¨s
Ġm nou
Ġm usse
Ġm Ã¥rt
Ġm Ã¢r
Ġm Ã¨tes
Ġm antea
Ġm urea
Ã® d
Ã® res
Ġt Ã©n
Ġt it
Ġt Ã»
Ġt alon
Ġt ons
Ġt out
Ġt rÃ¨
Ġt ay
Ġt indou
Ġt Ã¥ye
Ġt Ã¥ves
Ġt Ã¥tes
Ã¨ rin
Ã¨ rÃ©
Ã¨ glÃ®je
ne ur
dj an
dj is
dj eur
dj onne
dj yin
dj eure
dj ixh
dj usse
dj wesses
Ġk er
Ġk ar
ye yes
Ġf ant
Ġf ale
Ġf Ã¥te
Ġf Ã´rt
Ġf esti
Ġf umÃ®
ch Ã©
ch li
ch if
Ġb Ã¨
Ġb Ã©nt
Ġb om
Ġb Ã¥y
Ġb Ã¨r
Ġb rand
Ġb ric
Ġb rijhe
Ġv as
Ġv noz
Ġv etÃ¨s
Ġn Ã®
Ġn ons
Ġn ike
Ġn ic
Ġn Ã¥ve
Ġn oÃ»s
Ġn uc
Ġn Ã´be
Ġn ouwaedjes
Ġn atifs
Ġr aedje
Ġr ce
Ġr os
Ġr um
Ġr pi
Ġr aetch
Ġr na
Ġr man
Ġr otes
Ġr innes
Ġr bou
Ġr aetchÃ®
Ġr zult
Ġr tchÃ¥
Ġr viker
Ġr bate
Ġr Ã¥lÃ¨s
Ġr antoeles
Ġon ies
Ġ( (
Ġ( ?
Ġ( âĢ¦)
ins k
ins has
er is
er oy
er vaedje
er nu
er atif
eu f
eu m
Ġes te
Ġes pont
Ġes prit
Ã©n ze
Ã©n djole
ae yes
ae ces
ae yÃ®s
ae je
Ġdes ses
me z
ss Ã©nt
ss Ãªyes
ss Ã¥t
it h
it ran
ot t
ot Ã©nt
ot ti
ot Ã©s
ot ic
ot lÃ©
Ã´ n
Ã´ nes
Ã´ rer
Ã´ mi
Ã´ tiaedje
Ġest Ã©ve
Ġest ale
Ġco e
Ġco rin
Ġco ler
Ġco ver
Ġco pes
Ġco pet
Ġco reu
Ġco xhea
Ġco peye
Ġco xheas
Ġco cogne
Ġco boy
Ã¨s tot
Ġpo ir
Ġpo la
Ġpo teas
Ġpo Ã»sse
Ġpo laire
Ġpo wet
al us
al ogne
Ġli gne
Ġli ga
Ġli mo
Ġli Ã©geois
Ġki xh
Ġki ma
Ġki bÃ©n
Ġki dure
Ġki dujhance
ant hus
Ġdj e
Ġdj an
Ġdj ur
Ġdj inne
Ġdj uz
Ġdj esses
Ġdj ira
Ġdj oleye
int ches
Ġdo ime
Ġdo do
el in
el me
ro w
ro pl
ro fes
ro lodjeye
Ġi po
Ġi rak
ri v
ri ye
ri le
ri xhe
ri ca
ri ks
jh eu
jh Ã©n
jh as
jh Ã©ns
jh ive
Ã» res
Ã» lmint
ĠÃ¥ wes
ĠÃ¥ tche
ĠÃ¥ lea
ĠÃ¥ tchete
ĠÃ¥ tchetes
ĠÃ¥ colete
et rou
et tres
Ġg e
Ġg out
Ġg au
Ġg lot
Ġg Ã´l
Ġg olete
Ġg Ã¥met
Ġpa ro
Ġpa xhÃ®
Ġpa wou
Ġpa roe
Ġpa kets
Ġpa roes
Ġpa teures
Ġpa rale
Ġso yes
Ġso reye
Ġso Ã»s
Ġso metou
Ġso gnÃ®s
Ġso lia
Ġso lide
Ġso yreye
xh eure
xh enes
Ãª me
Ãª we
us es
ve Ã»ve
ce meye
ce fal
de z
de te
de Ã»ve
Ġsi mince
wa t
wa re
wa lete
Ġtch Ã¨s
Ġtch ol
Ġtch ert
Ġtch etÃ©
Ġtch oke
st ra
st Ãªye
ir ant
ir Ã©s
Ġ" (
19 19
19 25
19 50
19 11
19 48
19 90
19 68
19 38
19 94
19 37
19 88
19 67
19 39
19 87
19 91
19 41
19 62
19 81
ol f
ut hi
se m
se yes
se as
ont in
at as
os ist
ra mes
ra zeye
ra doÃ»
20 11
we nete
Ã¥r di
Ã¥r vier
is me
is pagn
la d
la h
la le
la djes
la che
ĠM il
ĠM onte
ĠM itch
ĠM iy
ĠM ov
ĠM ats
ĠM ala
ĠM emwere
ĠM Ã®trin
ĠM yco
ran de
ran do
Ã§ Ã¥
Ã§ Ã¨s
Ã§ ul
Ã§ reces
oÃ» r
oÃ» sse
Ġw inne
Ġw itche
Ġw Ã¥ler
Ġw Ã¥dnut
im a
im al
im ps
âĢ İ
âĢ ľ
am pe
am pion
18 30
18 88
18 86
18 83
Ã¨t inde
ĠD ur
ĠD ey
ĠD iy
ĠD ijh
ĠD VD
ĠD TW
Ġla i
Ġla tenes
Ġla cia
Ġla iront
ĠL ond
ĠL ay
ĠL omaedjes
ĠL uther
Ġo re
Ġo de
Ġo va
ac s
ac ti
Ġst a
Ġst an
Ġst Ã¥cion
Ġst op
Ġst oc
Ġst omb
Ġst roete
Ġst ampÃªye
Ġal Ã¥r
Ġal oz
Ġal ouwer
Ġal oume
Ġal djer
ĠB B
ĠB S
ĠB no
ĠB ele
ĠB ole
ĠB leu
ĠB ok
ĠB Ã¥ze
ĠB ati
ĠB ush
ĠB abil
Ġtot Ã¥
14 68
ci o
ci aedje
ci aux
ci ation
ĠC l
ĠC w
ĠC in
ĠC ri
ĠC ra
ĠC ere
ĠC isse
ĠC ler
ĠC ier
ĠC wate
ĠC roejhete
ĠC lÃ©men
ĠC Ã©ncweme
ĠC LR
di pus
Ġvi f
Ġvi g
Ġvi k
Ġvi vÃ®
Ġvi eux
ĠS S
ĠS eu
ĠS as
ĠS inne
ĠS il
ĠS oir
ĠS em
ĠS un
ĠS Ã¥v
ĠS ha
ĠS ibe
ĠS han
ĠS pont
ĠS tre
ĠS ang
ĠS pin
ĠS her
ĠS olea
Ġpr ou
Ġpr Ã®
Ġpr Ãª
Ġpr ume
Ġpr unes
ar ou
ar fait
ar pitan
Ġpl is
Ġpl or
Ġpl out
Ġpl ik
Ġpl oyÃ®
Ġpl ok
Ġpl onke
Ġpl omaedje
Ġpl Ã¥yes
Ġpl opes
Ġh y
Ġh os
Ġh ouw
Ġh ist
Ġh ate
Ġh Ã´tes
Ġh oÃ»le
Ġh ayons
Ġno di
Ġno yaedje
Ġno yÃ©
Ġno yÃ©s
Ġno deur
Ġcome deye
ĠA N
ĠA g
ĠA vi
ĠA don
ĠA wousse
ĠA imon
ĠA gnesse
ĠA iwes
and es
and er
Ġmo rÃ¥
Ġmo yin
Ġmo ru
Ġmo rÃ¥le
Ġmo was
en at
en ti
en ier
en vire
pr Ã¨
pr ession
gn i
gn at
ĠP in
ĠP re
ĠP Ã¨
ĠP int
ĠP ra
ĠP au
ĠP lan
ĠP ole
ĠP Ã¥dje
ĠP lat
ĠP wet
ĠP lum
ĠP Ã©re
ĠP itit
ĠP laece
ĠP itite
ĠÃ§ anse
om rin
tch an
tch en
tch wÃ¨s
tch ene
tch iv
tch estea
Ġdis lo
Ġdis ma
Ġdis fa
Ġdis pla
Ġdis plae
Ġdis nu
Ġdis gueu
Ġdis rindjÃ®
or Ã¢yes
ur n
ur ons
ur Ãªyes
be as
li f
li x
li kes
li ers
Ġsc r
Ġsc la
Ġsc ult
Ġsc lim
Ġsc oreye
Ġsc lÃ¥ves
Ġsc rit
Ġsc lameure
Ã¥z eus
ĠÃ´ rim
ĠÃ´ nea
Ġri gne
Ġri ds
Ġri djet
Ġri fÃ©
Ġri mea
ĠF ou
ĠF oÃ»
ĠF id
ĠF rÃ¨
ĠF Ã¥ve
ĠF ront
ĠF Ã¥ves
ĠF lipe
Ġto sse
Ġto rade
Ġ19 15
Ġ19 24
Ġ19 11
Ġ19 38
Ġ19 36
Ġca yÃ®
Ġca ire
Ġca il
Ġca isses
Ġca iss
Ġca val
Ġca pt
Ġra wÃ¨
Ġra sto
Ġra va
Ġra go
Ġra ban
Ġra iwe
Ġra idje
Ġra prinde
Ġmot o
Ġmot ch
Ġou dobÃ©n
Ġma z
Ġma ss
Ġma Ã§
Ġma kÃ©
Ġma fe
Ġma xhÃ¨t
Ġma kis
Ġma itran
ti gne
ĠR os
ĠR um
ĠR ad
ĠR ub
ĠR und
ĠR ilom
ĠR espond
ĠR ico
ĠR aymond
ĠR ansonnet
Ġu don
Ġu zeu
ĠG Ã©
ĠG la
ĠG as
ĠG lo
ĠG ad
ĠG ustene
ĠG orbatchyov
ĠLi gnÃ¨
ey ou
ey ance
Ã©s ies
Ġan oye
Ġan ixh
Ġan weye
Ġan tenes
Ġan weyes
ĠT Ã©
ĠT int
ĠT win
ĠT op
ĠT ier
ĠT Ã¥v
ĠT ron
ĠT aeye
ĠT roes
ĠT ec
ĠT estamint
ĠT inre
ĠT onea
ĠT CH
ĠT ossint
ĠT obolsk
Ġfo ss
Ġfo rires
lo sse
lo rixh
Ġcw Ã¥t
Ġcw itÃ¨t
Ġcw Ã¥litÃ©s
ĠW ano
ĠW indows
ĠW iccionaires
ĠbÃ©n v
um ance
Ġtro c
Ġtro yes
Ġsol Ã©
Ġda guet
Ġdiv anteure
Ġci zetes
irt Ã©
xhe le
Ġre djÃ®
Ġre fer
Ġre ca
Ġre gue
Ġre pla
Ġre vol
Ġre yons
Ġre lire
Ġre cwÃ¥rlante
Ġvo ess
ite z
ite ur
rijh Ã®
rijh aedjes
rÃ® xhe
rÃ® tes
Ġte tra
Ġte nisse
Ġte rib
ĠH ae
ĠH ans
ĠH oye
ĠH ai
ĠH Ã¥ye
ure u
ure te
ĠE mb
ĠE conomeye
ĠE fant
ĠE liz
ĠE dicions
ĠE fel
ĠN er
ĠN ic
ĠN ap
Dj onne
ond ant
che re
che don
ĠJ iang
ĠJ ames
ĠJ aki
ĠJ ulos
Ġsa b
Ġdit s
ni e
ni k
ni jhaedje
Ġbi yon
Ġbi xhes
Ġbi Ã¨r
Ġbi lande
Ġbi zete
ing en
ing lÃ¨s
ĠcÃ´p mint
min dje
Ġni ch
Ġni che
ere ne
Ġfi ester
ĠpÃ¥r otches
ĠpÃ¥r lÃ¨t
Ġmi lou
Ġmi Ã¨te
Ġmi roe
ouw eus
ouw Ã¥cion
ouw alitÃ©
Ġba k
Ġba yaedje
Ġba fe
Ġba gues
Ġba rak
Ġba betch
ĠMa o
ĠDj enerÃ¥
ĠDj aponÃ¨s
ĠDj urÃ¥d
ĠDj osÃ¨f
Ġen ai
Ġen indjÃ®
id ae
ĠI st
ĠI nt
ĠI gna
ĠI dri
ĠcÃ¥z Ãªyes
Ġplae ne
Ġplae cÃ®
Ġsch Ã®s
Ġsch ale
Ġsch ita
Ġbou xhaedje
Ġbou kin
Ġbou disse
Ġbou riket
Ġfranc op
Ġfranc ispagn
pa ra
pa gor
ĠpÃ¥ sses
ĠpÃ¥ ketes
ĠpÃ¥ kÃ®s
Ġac a
Ġac ro
Ġac om
Ġac vier
Ġac tin
Ġac rins
Ġac lai
ĠV o
ĠV el
ĠV ire
ĠV ni
ĠV Ã¢
ĠV oc
ĠV igne
Ġad ure
Ġad uze
Ġad dlÃ©
vint reye
Ġep uf
Ġscrijh euse
Ġas c
Ġas wa
Ġas mete
Ġas cwa
rin k
ma ye
ma yel
ma Ã®tre
ki gne
ki yon
Ġ- >
Gn Ã¨
gu eur
gu ere
gu igne
gu ixhmint
co e
co inrece
Ġev andj
Ġev andjÃ®le
ĠÃ¥r mÃ¥
ĠÃ¥r dis
Ġpass eu
Ġpass Ã©s
Ġwa rot
Ġpro viz
Ġpro bÃ¥be
Ġmete yo
oye vskiy
Ġti jh
Ġti djes
Ġti esti
po ter
po ize
il Ã´ze
Ġfr Ã¨s
Ġfr Ã©nt
Ġfr um
Ġpu pÃ¥rt
Ġef ou
Ġef ouwer
Ġef oncÃ®
Ġdv ancete
Ġdv Ã©nr
pi ons
pi gne
pi sses
pi euse
Ġdji let
Ġro ss
Ġro st
Ġro vi
Ġro istÃ©
Ġro gneus
Ġz on
Ġz ingu
Ġz ultan
Ġcom me
Ġcom itÃ®
Ġcom erci
Ġcom unic
Ġmou lets
Ġmou vmints
Ġmou vter
Ġrat es
Ġrat ou
Ġrat rop
Ġrat ake
Ġrat ropl
est Ã®s
lÃ© ye
Ġdju ri
Ġdju day
gnÃ® z
zo pot
Ġlom aedjes
Ġlom rÃ¨
Ã¥s pin
etch Ã®
Ġye ure
ab ol
kÃ® t
pu laire
ĠpÃ® res
Ġat ouwer
Ġbr Ã¨s
Ġbr unÃ¥
iy ofs
Si ervaedje
Ġcro pe
Ġcro xhe
Ġdire ccion
Ġga g
Ġap ur
Ġap otic
ĠO ne
ĠO me
ĠO lim
ĠO ceyan
ĠO msk
no v
Ġgro gnÃ®
Ġfe le
Ġeg adje
Ġeg oler
Ġeg lume
ijh ant
vr ont
vr itÃ©
vr onde
ĠvÃ® ye
Ġam p
Ġam onte
Ġam ontÃªye
Ġcor ons
Ġcor aedjeus
Ġonk s
pl eu
Ġman aedj
Ġman aedjmint
av Ã©
av Ãªye
av etche
Ġab ol
Ġab dja
Ġab iyÃ®
Ġab itude
ĠsÃ´ t
ĠsÃ´ mÃ®
fer ikes
ul Ã¥cion
na ires
na ivyÃ®
ct in
ct Ã©
Ġpla teas
ert on
ĠdjÃ¥z ans
if i
if ike
ĠpÃ´ ces
ĠpÃ´ rÃ®z
ixh eus
nou ve
Ġcmin cive
Ġdivant rin
ive n
Ġmon on
Ġmon ceas
Ġrac a
Ġrac se
Ġrac segne
iv ou
ker ill
Ġmar s
Ġmar ou
Ġmar ke
Ġmar kÃªye
Ġfour s
ĠTch Ã´
ĠTch et
ĠTch and
ĠTch inne
ĠTch ini
ĠTch amp
ĠTch ambe
ĠTch anson
ĠTch ili
ĠTch estrolÃ¨s
of es
Ġ18 15
Ġ18 98
Ġ18 34
Ġ18 58
Ġ18 57
Ġ18 85
Ġ18 56
Ġ18 73
ine zeye
ine xhance
ru pet
ru ccion
ĠsÃ¥ vÃ©
ĠsÃ¥ cisse
Ġpont es
ard uel
Ġras cou
Ġeplo ya
Ġeplo yant
Ġcan Ã¥
Ġcan ons
Ġpas teures
ust ins
Ġtr Ã©
Ġtr onner
Ġgu itÃ¥re
Ġpor tch
Ġpi eles
Ġsic ri
Ġsic rÃ®tes
Ġcou be
Ġcou tchÃ®
ole tes
wer d
Ġin z
Ġin djes
ba stopol
ile te
ute urs
Ġfa me
Ġfa ire
Ġfa renes
Ġfa yÃ©s
Ġfa eroy
Ġfa xhenes
Ġnd alÃ©ve
ote rapeye
Ġpar pinse
Ġcwa tes
Ġcwa drans
Ġcre vÃ¨t
ĠK an
ĠK ing
ĠK inshas
ĠK ivou
Ġmoen nÃ©s
Ġmoen nrece
Ġsit indaedje
Ġsit udi
Ġsit rind
Ġsit itchete
met owe
Ã¢ l
Ã¢ de
Ã¢ ke
Ã¢ tre
Ġcr es
Ġcr ins
Ġcr esses
Ġcr otch
Ġcr estea
Ġcr itikes
Ġcr aeyes
Ġtour mint
Ġtour nike
Ġrom innes
va da
ĠU RS
per es
ĠPa ssaedje
ĠPa kistan
ĠÂ» ),
ĠOn t
ĠÃħ xhe
ĠÃħ gusse
ince nt
Ã®t Ã©
oy u
oy mint
Ġne ti
Ġcon g
Ġcon Ã¨t
Ġsint ou
Ġsint oz
Ġsint omes
Ġsu ber
Ġsu wed
Â» ),
Ġ1 25
Ġ1 250
Ġ1 204
Ġres con
Ġres pet
Ãħ toÃ»
Ġevoye yes
Ġcont ant
Ġcont ra
Ġcont ribucions
Ġsin o
Ġsin Ãªye
Ġsin Ã©ve
Ġsin cieuse
Ġsin nari
Ġcla sse
Ġcla djots
ĠDi er
ĠDi eu
ĠDi zo
Ġser Ã©
Ġser ant
ĠAl do
ĠAl maxhe
man deye
Ġdin a
Ġdin rÃ©yes
Ġcal c
Ġcal i
Ġcal ciom
op ler
op pagne
Ġtcher pintaedje
Ġdijh ans
Ġtra us
Ġtra waedje
Ġrc Ã´p
Ġrc andj
ier vi
Ġdisc lon
Ġdisc andje
Ġdisc ramyÃ®
ĠpÃ¥rti cion
ĠpÃ¥rti xha
Ġsaetch Ã©nt
rou yÃ®
Ġpou sses
Ġpou ver
Ġpou rixh
Ġpou pÃ¥
xhÃ® z
Ġcl and
Ġcl itche
Ġcl atchÃ®
Ġcl ub
ĠcoÃ» teures
oir dou
Ġson djant
Ġsor walonde
Ġhou ze
Ġhou rete
em weres
honne r
ca we
Ġmin cion
Ġrl Ã©n
antch aedje
antch Ãªye
inse ke
Ġlin f
ĠBa g
Ġric andjÃ®
Ġric wereu
Ġdjouw et
ed urance
Ġar d
Ġar esse
Ġar ti
Ġar tere
Ġar souye
Ġcoir nÃªyes
Ġcoir zen
Ġcoir bÃ¥s
ĠcwÃ¥r lets
ĠcwÃ¥r ÃªyÃ¨s
ĠcwÃ¥r djeus
ga esse
ga gna
ĠBel in
Ġdoet reces
Ġbat Ã¨t
Ġbat lÃ®
mo ra
to es
to co
Ġpal Ã¥s
Ġpal estin
ĠfÃ¥ tes
ĠfÃ¥ con
ĠfÃ¥ kin
Ã« ls
Ġleye ye
Ġrt ape
Ġrt oumer
Ġrt aper
Ġrt apÃ©
Ġpron nes
Ġtchaeke ne
ĠtÃ® fusse
Ġram xh
Ġram id
Ġram pon
Ġah en
Ġmuz ea
Ġbast ixhaedje
ĠCh er
ĠCh rist
Ġrs ov
Ġor aedjes
Ġfor ni
Ġfor bout
Ġfor tchete
Ġfor vuzions
Ġfor tcher
ĠtchÃ¥ fÃ©
Ġshu va
Ġ17 3
Ġ17 50
Ġ17 89
Ġbot roÃ»
Ġprind aedje
Ġprind oz
ĠNam ur
ov ri
ov is
ov radje
ai wes
Ġot op
Ġaf itchÃ®
Ġaf itcha
Ġvic rÃ¨
Ġxh iner
Ġxh Ã¥rer
ĠpÃ¥rt aedjÃ®
un yÃ®
un Ã¥s
ĠÃħr mÃªye
ĠÃħr dinwÃ¨s
Ġ10 3
Ġ10 4
Ġ10 8
lin es
lin wes
ĠtchÃ´ maedje
ĠtchÃ´ meus
ĠLe gros
ĠLe maÃ®tre
bi ci
bi ons
bi li
ĠLa for
ĠLa ssus
bert in
Ġtey olodjike
Ã¥v jhÃ©n
Ġgre gnes
Ġtuz eus
Ġtuz Ã©ve
Ġsav nut
Ġboune t
cu laire
Ġna xhes
Ġna vea
Ġna iveye
ist Ãªye
ist Ã¥ve
ist ice
Ġtim usse
Ġass on
Ġass Ã´t
Ġber Ã¥
Ġber Ã´
Ġber loke
ĠMar seye
ĠMar chot
uc cion
Ġpasse z
ĠDe hin
ad v
ad am
Ġem Ã®t
leu x
Ġprov neut
Ġprov oke
Ġrim agne
Ġrim imbere
Ġrim ontÃ¨t
Ġbea zÃ¨
wal ni
wal paedje
Ġ16 92
do sse
pli kÃªyes
Ġsou de
Ġsou kes
Ġ5 1
Ġdjam a
ĠIn guÃ®
ĠIn donezeye
itchÃ® z
Ġing li
Ġtou di
Ġtou rist
ĠtÃ© vÃ©s
ĠdÃ¨ dja
Ġmont a
Ġmont Ã©ve
tif in
toÃ» r
Ġris c
Tot afwait
oc se
oc Ã¥t
Ġpic Ã®
Ġpic as
Ġpic ote
Ġfot rÃ¨
Ġdjh aedje
Ġdjh aedjes
Â° .
ĠY e
ĠY oran
So eye
Ġcra pes
Ġcra weye
Ġcra sset
ĠAn se
ĠAn na
go ter
Ġer m
Ġer toÃ»
Ġer otikes
Ġer Ã»lÃ¨s
Ġcnoxh Ã©nt
Ġcnoxh ance
Ġtin Ã¨t
Ġfal u
Ġroman es
fa ust
Ġata kes
Ġata kÃ©s
Ġata kÃ©ve
Ġpitit es
Ġimp ires
Ġimp eratif
Ġimp arfait
ĠUrope yins
ĠRe zist
ĠRe csisses
ĠRe vintreye
Ġha mea
Ġshof lÃªye
Ġec ins
Ġec ay
Ġec lipe
Ġec osist
poirt s
ĠlÃ© jhe
Ġsac ri
Ġsac ra
Ġsac rÃ©s
Ġrpr indaedje
Ġscrire ces
ĠÃ¨s p
ĠÃ¨s tin
Ġag Ã¥jhe
Ġag rÃ¨s
Ġag Ã¥jhes
Ġta kes
Ġta pa
Ġta ile
Ġta xhes
Ġtoum Ã©ve
Ġbout ans
Ġper i
Ġper meteut
ĠrÃ¥ p
ĠrÃ¥ disses
ĠMou hagne
ĠMou gnelÃªye
ĠcrÃ¥ xh
ĠcrÃ¥ ssÃ¨s
Ġdisf Ã©
Ġdisf ac
Ġdisf irl
Ġvraiy mint
ĠZ e
Ġ14 3
Ġ14 50
Ġcost umes
ĠwÃ¥rd Ã©s
Ġrin gnÃ®
Ġrin djÃ®s
Ġmost ra
Ġrap ont
Ġrap inse
Ġrap urer
Ġrap Ã®Ã§
Ġsoci Ã¥
Ġsoci alisse
Ġfou me
Ġfou ke
ĠCal istinne
ĠCal ifor
Ġpers one
ara be
Ġtap Ã©nt
Ġtap Ã©s
Ġfond ou
Ġredj isses
Ġval ou
Ġtchant Ã®
Ġtchant Ã¨t
Ġtchant rÃ¨
Ġcop Ã¨te
prez idint
Ġ6 70
Ġcas role
Ġcas chon
Ġcandj ive
ĠcÃ¥ rires
Ġfl orin
Ġcint es
sin x
ĠMo xh
ĠMo xhon
ĠMo hammed
ĠPo itchrece
Ġj Ã«
Ġj usse
Ġgr otes
Ġgr itchete
Ġgri b
Ġgri yeus
si o
ĠvÃ©n rÃ©nt
Ġmagn Ã©nt
fi aedje
ĠIl lust
Ġrv uwe
Ġrv indjÃ®
Ġrv uwes
Ã¢r de
Ã¢r tÃ©
Ã¢r ds
ĠbroÃ» lÃ®
ĠbroÃ» lÃªyes
kepi eye
Ġrade mint
Ġcaf t
Ġed Ã¥
Ġed eure
Ġed uc
Ġed roet
Ġed Ã¥me
Ġdiy a
Ġdiy am
Ġdist ind
Ġdist cher
Ġrit ni
Ġrit nous
Ġrit ournÃ©
Ġ:'' Â«
Ġcroejh Ã®s
Ġcroejh lÃ¥de
ult in
ult urk
Ġuz eus
Ġwaer ante
Ġmartch i
Ġdec ret
Ġdec orÃ¥cion
Ġcrexh inne
Ou ves
ĠrÃ´ lea
ĠrÃ´ leu
ĠrÃ´ lant
Ġrexh rÃ¨
Ġast ap
Ġast ampÃªye
ram Ã©
uss on
Ġkimin Ã§a
Ġkimin cÃ¨t
ĠtchÃ´d ur
Ġspe ct
Ġspe pyÃ®
Ġrm Ã¥r
Ġrm ouw
Ġrm Ã©des
Ġsto fer
Ġsto ele
ĠRo ss
ĠRo de
ĠRo djes
vol a
vol Ãªye
zer faust
ĠdilÃ© rin
ĠdilÃ© rins
Ġfwa is
Ġaveu ve
Ġaveu les
Ġshijh inne
Ġrcwer ou
Ġrcwer aedje
Ġfin it
Ġfin eye
Ġfin Ã¥le
Ġbas kete
ric ot
ric mint
Ġdmo rance
ame nes
come re
Ġsov Ã©n
Ġsov nis
Ġrasco ve
fab et
Ġcar otes
Ġtchap on
Ġtchap eles
ĠMi ousse
ĠAr denne
Ġricnoxh owes
Ġprezint Ã©s
pÃ¥ dje
ĠbÃ¥ tche
ĠbÃ¥ jhÃ®
Ġdisch o
Ġdisch indou
Ġprof ite
Ġ13 00
Ġbra g
Ġbra yete
Ġbra irÃ¨
Ġbra bants
Ġmac ro
amp f
amp ire
ĠSt ats
ĠSt andÃ¥rd
ĠSt alene
djinÃ§ naedje
Ġley Ã©nt
Ġley nut
ĠAf waire
ĠTh onet
ĠTh iry
ĠmÃ© lan
Ġvind eu
Ġvind Ã¨t
Ġcrust innes
cÃ¥z antes
gl ati
Ġcori djÃ®
Ġcori djaedjes
Ġmod oe
Ġmach ene
Ġpond eures
Ġacle vÃªye
Ġacle veu
Ġprezid inte
Ġfroed eure
ĠÃ©ndjol eu
Ġrire ye
Ġdisp Ã¥de
ĠsicrÃ®t a
lu riyal
Ġrou walete
Ġvijh enes
viers aire
Ġstudi ant
Ġstudi aedje
Ġplou ma
ĠrascrÃ¥ wer
ĠMont s
ĠMont neye
ĠMont agu
Ġclass icmint
cw esse
Ġcri yaedje
Ġcri yeu
Ġcri kion
Ġvud ant
Ġmier djins
bl umint
Ġbri beu
Ġcodjo wa
Ġcodjo wÃ©
End Ã¨
Ġgra f
Ġgra weye
Ġsogne yes
Ġdiswal pÃªye
Ġdiswal pÃ©s
Ġsap in
Ġsap ins
ĠspÃ¥rd a
ĠspÃ¥rd owe
Ġmouss ant
Ġmouss Ã¨t
Ġcontin ints
Ġshuv ants
Ġshuv anmint
Ġrespond eus
dou doum
nu xhe
Ġdra gon
Ġdjond owe
Ġtchante use
ĠBi bli
ĠEs cÃ´
ĠÃĶ tchamp
Ġcroey Ã¨t
Ġcroey ants
Ġbro gnes
Ġdessin aedjes
vien mint
Ġrab ins
Ġrab resse
Ġrapoirt aedjes
Ġcole Ã»r
ĠSara zin
ĠadjinÃ§ na
ĠadjinÃ§ naedje
Ġmic eli
Ġmic obionte
ĠhÃ¥y nÃªyes
Ġenond a
Ġenond eu
Ġorto grafeyes
Vic tor
Ġpel Ã©s
Ġfran Ã§Ã¨s
Ġesc ran
Ġesc uze
Ġcol oÃ»te
Ġcol neyes
cial isse
ĠhÃ¥ bite
ĠPr ot
Ġriss ov
Ġrey accions
ĠaskepyÃ® s
Le vant
Ti esse
Ġadj no
Ġeri rÃªye
ĠBo ches
Ġpur nale
Ġcons ac
Ġcons ires
Ġcons ider
Ġrot aedjes
ĠMat hot
Ġsai zi
Ġbiy ov
Ġbresse nes
Ġsierv eus
Ġpot iket
Ġant omeye
Ġsem Ã©ve
Ġclo kÃ®
Ġoy owe
ĠPol inezeye
Ġdispa rexh
Ġcarac oles
Ġcarac teri
Ġscha pa
ĠCo pe
ĠCar l
anc yin
ĠBer beres
ĠÃ´t rumint
Ġtrib unÃ¥s
uj Ãªre
Ġlijh ant
Ġlijh aedjes
Ġsigneur reye
ĠDu bois
Ġmostr Ã©ve
Ġrid ants
Ġrid ner
Ġrid vÃ©nt
Ġfoir ci
aud et
ĠpoÃ»ss aedje
ĠpoÃ»ss if
men yins
ĠMe zopot
ĠLov in
Ġdism antche
Ġdism acr
Ġ190 2
Ġ190 9
ĠDjer laxhe
Ġinf ele
Ġkinoxh owes
sch oÃ»te
ĠtchÃ¥r lÃ®
Ġtchmin Ãªyes
ĠrÃ§ uvou
Ġhe pi
Ġdivint rins
Ġspot aedje
Ġelect ro
Ġpw ins
Ġpind owes
Ġru ssule
ĠBar on
ĠGof e
Ġcivi kes
Ġschav Ãªye
Ġschav rece
ari a
rat inde
ĠtÃ¥v lÃªye
ĠtÃ¥v lete
Ġkeu de
Ġfel s
oland esse
Ġdz eus
Ġdz eut
Ġpre tchÃ®
Ġmz urer
Ġmz uraedje
Ġvel rÃ¨
ĠÃ¥b itude
Ġtchve ne
Ġtchene as
Ġcab in
Ġcab ol
Ġcab inet
Ġcab olÃªye
Ġasch ates
Ġasch oÃ»te
ij e
pou gnÃ®
Ġlodj Ã¨t
Ġaro yÃ®
Ġaro kes
Ġrf ranci
Ġrn os
Ġpaye ye
Ġpaye le
ati o
Ġlaid Ã¨s
dier in
graf icmint
Ġespagn oles
Ġritro va
lim at
Ġtchess eu
Ġtchess ive
ĠBra bant
ĠBour segne
Ġwait i
Ġlou kive
Ġapo isses
Ġpen in
Ġetroc lÃ©
Ġcomin Ã¥
Ġcomin Ã¥ltÃ©
Ġisto ricmint
Ġom be
ĠPier rard
Ġbole djÃ®
Ġaprind Ã©nt
Ġrov yÃ®s
Cri yaedje
ĠcÃ»t Ã¨s
Ġavan Ã§mint
Ġdeci de
th Ã©
Ġedj er
ĠcÃ´ rÃ®
ĠdjenerÃ¥ s
ĠBr umi
ĠFr Ã©s
Ġfem rinne
cÃ´p Ã©
ĠpÃ© re
Ġtrans lat
Ġespe ce
Ġespe ci
Ġdess Ã©ns
rale ye
ĠCou tchant
ĠCou bertin
Ġhar pe
Ġhar pagor
ĠWa h
ĠWa jÃ®
Ġacs Ã»
Ġaccep tance
Ġash ire
ĠLag range
Pr ind
Pr um
Pr inde
oss i
Ġsouw Ãªyes
Ġpon ou
Ġcel ules
ĠMon crabeau
Ġplant iveuse
ĠAd an
ĠMari a
ĠMari ette
Ġroed eur
esp ire
Ġbol ou
ĠAb del
ĠGo eth
ĠGo vienmint
Ġboe vant
poiz Ã©
poiz aedje
Ġtrava y
Ġtrava ye
Ca wete
cr Ãª
Ġdr essÃ®
Ġdr wÃ¨t
Ġdimand a
Ġfoum er
Ġavance ye
Ġoper Ã¥s
Ġraw yÃ®
Ġref le
ĠVi yaedje
ĠVi chy
ĠatÃ´ tchaedje
Ġconse ye
Ġrimpli xh
Ġfer ia
Ġdjer mon
Ġdjer man
Ġrec lÃ´
Ġrec lÃ´s
Ġrec itaedjes
for neas
Ġol iv
Ġmint ni
Ġmint reyes
Ġkilo mete
ĠHou zeau
ĠpÃ¥jh ires
Ġinter esses
Es prit
Es mayel
gre k
Ġpotch a
Ġcul ti
Ġetind a
Ã´d Ã¥rd
Ġsof rou
Ġsof rance
ĠAra be
Ġasco xheyes
ĠLevant rece
Ġmambor ner
Cont rÃ¥ve
Ġdeur Ã¨s
Ġskepi a
Ġculture lmint
Ġculture ls
Ġvit amenes
ĠrÃ© gues
rib ucion
Ġploum ions
Ġdisco v
Ġdisco vri
Ġrif ranci
Ġrast ini
Ġasp ite
Ġasp itÃ©
Ġdisfind eus
ĠXh al
ĠXh am
ĠXh en
ĠrascrÃ¥w ant
Lu k
MÃ¥ ss
MÃ¥ jhon
mons ieu
ub as
ĠÃ© t
ĠÃ© cri
Ġmas tea
Ġpaxh Ã¨t
Ġrai djÃ®
Ġrai wÃ©
Ġrai waedje
Ġbisto kes
ĠViy aedjes
Ġahiv aedje
Ġfoto co
Ġfoto grafe
ĠeternÃ¥cion Ã¥les
ĠcodÃ¥ ner
cti ves
Ġdou ce
Ġdam es
Ġdam jhele
Ġmed cene
Ġbel oyance
Ġdisd it
ĠTi gues
Ġgrandiv euse
Ġfotbal isse
Ġmeyeus es
Ġacsegn mints
Sch oovaerts
ĠsÃ´r tixh
Ġcmand eu
ĠMan u
ĠMan hÃ©
ĠCa disse
ĠSer beye
ĠdisbÃ¥ tcheye
ĠNi h
ĠNi djer
Ġaprest Ã©ve
ĠÃ¥rmon reye
Ġfeder Ã¥le
Ġemantch eure
Ġocup Ã©nt
ĠAc insion
end Ã¨
Ġrevint aedje
KÃ© kÃ¨s
Ġdur Ã©
Ġdur Ãªye
Ġate laedje
Ġdiz Ã´r
Ġtchiv roÃ»s
ĠMol Ã©n
Ġprus ter
ĠPirs on
ĠRwey Ã¥le
Ġledj inde
nai vi
inez yins
Ġclaw sons
Ġxhil ter
Ġxhil tÃªye
Ġxhil tante
Ð° Ð½
Ġder it
Ġeki paedje
Ġewal pÃªye
Ġmel Ãªye
Ġran xhen
Ġtchi ket
Ġfiesti xh
Ġfiesti xhÃ¨t
Ġinfin itifs
Ġrespe cter
Ġassaetch ant
Ġespaitch nut
Ġpluriyal s
Ã¥li stÃ©
Ã¥li jhÃ®
Ġmatch s
Ġstind Ãªyes
Ġhour Ãªyes
ĠÃ¥rm il
ĠÃ¥rm istice
Ġtrait aedje
Ġtrait mint
Ġnourixh ant
Ġnourixh Ã¨t
Ġrshonne r
Ġtelef ones
hu y
Ġaga d
Ġpetch es
Ġpetch Ã®
Ġeru neye
ĠbÃ´r Ã©
ĠbÃ´r aedje
Ġvac cins
ĠMin Ã¨te
ĠDam asse
Ġost is
ĠBay amont
ĠspÃ¥ mer
Ġepwez nant
Ġcromb in
ĠecrÃ¥ xhe
Ġdisdut s
Mar cou
Ġmeu be
Ġtt Ã¥
Ġtir ant
Ġbla wetes
Ġbar on
Ġgrou pes
Ġsipe pieus
ĠhoÃ» lÃ¥d
ĠAm bli
Ġreban Ã©
ĠHer man
Ġmetch anstÃ©
Ġaband nÃªye
Ġsucc ession
Ġcopin eus
Ġcopin reyes
ĠitÃ¥l yinnes
ham tea
Ġrlo yÃ®
rist in
ĠCla ud
ĠCla bot
Ġfoy ton
ĠHong rwÃ¨s
ĠschÃ¥ fe
Ġbegu enes
ĠÃ¥rtch id
ĠÃ¥rtch uveke
Ġtours iveuzmint
Ġnouz omes
Nicol as
Ġcin k
Ġgar ga
Ġgoz Ã¥d
Ġgoz Ã¥ds
Ġpara plouve
ĠCam pagnes
Ġret ourer
Ġtexh eu
Ġgrang rin
Ġgrang rinnes
ĠschoÃ»t Ã¨t
ĠVic aedje
Ġdrov owe
Ġvexh Ã¥ds
ĠAnti oche
ĠlÃ©jh ous
ĠdifoÃ»t rinne
ĠdifoÃ»t rinnes
Ġcolni jhÃ®s
Ġcolni jheus
Ġsk iron
Ġcu ri
Ġcujh aedje
Ġke kete
Ġfre yÃ®
Ġfre cant
chi avel
Ġcoxh laedje
Ġpos tea
Ġstitch ive
Ġmoxh ets
ĠRÃ© ze
ĠTre gne
Ġrob ete
ĠzÃ» ne
ĠzÃ» ner
Ġclin icmint
Ġnawe ar
Ġassaz iner
ĠDuy sinx
Ar mand
Ġsket Ã©
Ġpin yin
Ġpin gnÃ®
Ġtab eurs
erv atwere
ssa int
ĠBlan cs
ĠSe basti
ĠSe bastopol
Ġriprind Ã¨t
Ġcomand ant
Ġapont iaedje
Ġrcla wer
Ġcham o
Ġordin aires
Ġraptit ixha
Ġradjout ant
Ġdecid aedje
Ġamerik innes
Ġdf Ã¥ts
Ġaut oÃ»
Ġmit ra
Ġmit olodjeye
Ġbu k
ĠvÃ© lo
Ġrli gnÃ®
Ġong lete
Ġsoha ite
Ġob us
Ġcav lÃ®s
ĠGri gwere
ĠNor mandeye
ĠbokÃ¨t s
Ġadop taedje
Ġegz amin
Ġporsh Ã»t
Ġrsaetch ive
Ġgrevi sses
Ġfouy as
Ġfouy ton
Ġdistru jhaedje
Ġgalo pea
Ġgalo peas
Ġeciclope deyes
Ric noxh
Rilom Ã©s
Ġcreye ye
Ġbl indaedje
Ġlike n
war Ã®s
Ġtchab ote
Ġtchab otes
olo gique
ĠSel o
aryÃ® stÃ©
ĠPas keyes
Ġscri rÃ¨
ĠcapÃ¥ bes
ĠmÃ¥jh ires
Ġbagn s
Ġwaite ye
Ġabro kÃ©
Ġtracteur s
ĠredjÃ¥r ber
ĠWallon nes
Ġflori xhaedje
Ġfonccion aires
cri p
ress ive
Ġamin de
Ġamin wer
Ġprandj ire
Ġprandj Ãªre
Ġcli gnete
ĠcÃ¥v lant
Ġtind eu
Ġfac teur
Ġaloye yes
ĠFer n
ĠGen goux
ĠWe gniye
ĠJac ob
ĠJac ky
Ġmiss ions
Ġadv iner
cori co
ĠÃ¥rvier dimint
Ġgaye like
Ġcoujh nÃªyes
Ġinm Ã¨t
Ġcrev Ã¥des
ĠpÃ¥rtixh eut
Ġgovier neu
Ġfrica ssÃ©
portrait s
Ġdiccionair aedje
Ġrespect Ãªye
Sourd ants
ÅŁ i
Ð½ Ð°
Ġbotch Ã®s
Ġbotch reye
ĠvÃ´r Ã©ns
Ġresser Ã©
Ġresser Ã©s
Ġcosch ir
waer ou
ĠSÃ¥ verdeas
Ġplantch Ã®s
Ġhi p
Ġriwait Ã®s
ĠTintin us
ĠHar werd
ĠDjÃ¥ ce
Ġhoup rale
ĠtÃ®xh wÃ¨s
Ġ170 4
Ġotrich yin
Ġrishonn Ã¨t
ĠAnc yins
ĠAnc yinne
ĠimpÃ´rt ance
ĠdicÃ¥Ã§ tÃªye
ĠdicÃ¥Ã§ taedje
ĠnormÃ¥ les
Ġdivintrin nmint
Å£ a
âµ īâµ
Ġeu wes
Ġfuz Ãªyes
Ġroum inne
Ġrwey Ã¥me
Ġesch oice
Ġcopl eus
rol dimint
ĠÃ¥m onne
Ġsig ondes
ĠMel iye
ĠCout couloudjoÃ»
ĠCara yibes
Ġristo per
Ġrimet a
ĠFre der
ĠTou ssaint
ĠTout si
Ġcimint ire
ĠHab Ã¢
Ġspor tifs
Ġadvier ti
Ġzig zon
ĠOst raleye
ĠTcher pinte
ĠBai djot
ĠsipÃ¥rd ou
Ġsipotch aedje
Ġtinki eye
Ġagric ulteure
Ġdialect ales
Ġfloric ontes
Ġpurd eut
Ġglumi antÃ¨s
Ġdress Ãªyes
ĠrawÃ¥rd er
ĠrawÃ¥rd ant
Ġdocumint Ã¥cion
Car lier
Hen ry
Sh uv
mac rale
non cÃ´
sit roet
Ġcond Ã¥
Ġcviers er
Ġtor teas
Ġfle me
Ġetour pinÃ©
Ġcosh et
Ġdjave a
ĠBaud oux
ĠCre yon
Ġrasson raedje
Ġmatem atike
Ġmatem atikes
Ġfiv reus
ĠVie be
Ġwap eurs
Ġmwaist rijhe
Ġgad ots
ĠpÃ´z ucion
Ġcriti ker
Ġcriti kÃ©
Ġsina go
ĠBass Ã¥rdene
Ġcrawi eus
Ġcrawi euse
Ġrouf ion
Ġbiyo kes
Ġelectron ikes
Or tografeye
woe yÃ®
ĠassÃ® tes
Ġtaye ur
Ġrand axh
Ġcovr esse
Ġtchocol at
ĠCast afi
ĠPond loÃ»
ĠGob tindje
Ġrezi stant
Ġbara kes
Ġza fe
Ġleg umes
Ġraspe pyÃ®s
Ġclint chÃ®
Ġemil reye
Ġvoyaedj eu
Ġsipit ant
ĠcrÃ¥mi gnons
Ġfonet ike
Ġristitch aedje
Ġristitch eye
Ġebag ants
Ġebag ance
Ġdivizi on
Prod ujhaedje
pat wÃ¨s
tÃªy nut
urope yin
Ġze bes
ĠpÃ« s
Ġerire ces
ref our
Ġdocs iner
ray ns
ĠMen deleyev
ĠLan gue
Ġope rete
aci Ã¥
Ġhante us
Ġrari ve
Ġragran di
ĠTit ine
Ġfoet ite
Ġren onder
Ġregu la
Ġacr otchÃ®
Ġacoir ds
gueu ye
Ġforma gnant
Ġtrimp er
Ġtinr Ã»le
ĠecwÃ¥r ler
Ġmecan isse
Ġaddjecti vire
Ġoridjin Ã¥
Ġfilozof ikes
Ġawiy ante
Ġdizot rinne
Ġacopl aedje
SU R
SU SE
ww w
Ġdzindj ner
Ġdzindj naedje
Ġlae cetes
Ġlae Ã§reces
ĠlÃ¥r djeur
ĠpÃ¨ kÃ¨t
ĠpÃ¢ t
ĠnÃ» lÃªye
ĠnÃ» lÃªyes
Ġrinte re
Ġroz Ãªye
Ġesto eles
Ġpomp es
Ġaval rece
riss aetchÃ®
ĠsikepyÃ® s
stru jhaedje
raf iyants
ĠMos cou
ĠDani el
ĠCr ustins
ĠCole ccion
ĠSor lon
Ġplon kÃ®
ĠAmb leve
ĠFili berto
Ġmarok ins
ĠRiv ires
ĠGust Ã¢ve
ĠLis wer
ĠTib Ã®
Ġcil ind
Ġrezist ants
ĠNov eles
Ġboh Ãªye
ĠMay ane
Ġschor seye
Ġtifin ar
Ġatmos ferikes
Ġcrom be
Ġapre piaedje
Ġpier da
Ġcwat rinne
ĠUr cis
Ġhouz Ã¥rs
Ġafla xhÃ®
Ġrimar ke
ĠdispÃ¥rd ou
ĠColomb eye
ĠvÃ´ss eure
ĠvÃ´ss eures
Ġdzot rin
Ġharlo xhe
ĠItÃ¥l yin
ĠItÃ¥l yins
Ġshabot Ã®s
Ġloign reyes
Lav ola
MÃ¥l ureuzmint
Omof ones
Prov nance
Rim imb
Rif ondaedje
Viy Ã¨s
War tique
nature ls
Ġatche ver
Ġcp icÃ®
anf Ã¥r
Ġtai ss
ĠfrÃ¥ jh
Ġavanc Ã®s
Ġsifwait mint
ĠDoc quier
ĠBut titta
ĠCÃ´ sse
Ġprust Ã©
Ġhob ete
Ġhod Ã©
ĠPeter sbork
Ġrapi de
Ġrakeu de
ĠsolÃ¥ ciaedje
Ġteri be
ĠNay Ã´mÃ©
idÃ© yes
Ġschet ler
ĠschÃ¥l aedje
ĠVen usse
ĠVenez wela
Ġepop Ãªye
Ġaspoy a
Ġmwaijh Ã¨s
Ġcomiss aire
Ġtchamosse ye
ĠChri stian
ĠaflÃ¥ w
Ġrapre peye
erdin and
Ġgroumi otes
Ġaclev Ã¥ve
Ġrabind lÃªye
Ġmicros co
ĠScla ubas
Ġdjalof renes
Ġekip aedjes
ĠGrign ous
Ġfarma Ã§reye
Ġesplor aedje
Ġmolec ure
Ġtranki le
ĠNÃ®me gue
Ġvulga re
ĠGodfro id
ĠretrÃ´c lÃ©
AS AB
Bel djike
DÃ¨ dja
Den is
Mam ites
Pade cÃ´
Î¹ Î
Ġpz ant
Ġpil Ã©s
Ġete rer
Ġcardin Ã¥
Ġtinte ure
Ġband letes
Ġbrimb Ã¥des
ĠrÃ¥skign oÃ»s
Ġesh onna
Ġeti op
Ġdomes ti
Ġsovr ondes
Ġsis tem
ĠtchÃ¨r bon
lair wal
ĠLit waneye
ĠLat huy
ĠLans bert
ĠLamb il
ĠCoc kerill
ĠCaz ablanca
ĠSour brod
ĠAre ler
ĠAns elme
ĠPS C
Ġdisnor tÃ©
liv ret
ĠFab ry
Ġcadj olete
Ġmare der
Ġani viersaire
ĠTil kin
ĠNel son
Ġspre we
ĠDjul yinne
Ġacov oe
ĠdjoÃ»r nÃ©ye
Ġwaib aedje
Ġcombat ants
Ġatac aedjes
Ġbru ns
Ġintelect uwels
ĠplaÃ® ji
Ġcrit ic
Ġsuf ixh
Ġcontrum asse
Ġsortit rÃ©
Ġramou yÃ®
ĠFrancor tchamp
Ġcatruc imer
Ġagol iner
azun yin
Ġpetro leu
ĠtrerÃ¥ yaedje
Ġfabric Ã¥cion
Ġavanci veus
Ġframb Ã¥jhes
Ġadjey ante
ĠNorve dje
Ġindjeni eur
Ġfuzik s
Ġdemocra ceye
Gof finet
Pond ants
Rwey Ã¥me
Vind ince
hans el
mam bor
nb sp
ĠÏ ī
ĠdÃ´p inne
Ġsae yÃ©n
Ġsus p
Ġsteu les
Ġfute ur
Ġvudi ve
Ġtchar itÃ©
Ġtchiy otes
ĠMele ye
ĠMong ols
Ġstamp Ã©s
cicle nes
Ġvij nauve
ĠSoÃ» mwÃ¨
ĠhÃ¥le te
ĠAtre bates
ĠAdel in
prest aedje
ĠPetch eur
ĠPlate au
Ġdisru ni
Ġscrou fier
ĠFin landÃ¨s
Ġmadjor itÃ©
ĠRons Ã¥t
ĠGrÃ¥ ce
ĠGret ry
ĠWÃ©r otte
ĠJane iro
Ġfiya ires
Ġsplo yon
ĠMareds ou
ĠcÃ¥zaedj isse
Ġcrodjamb ot
Ġamwin ri
Ġfaiz an
ĠKar l
Ġvedjet Ã¥cion
Ġminer Ã¥s
Ġbatche a
Ġotov oye
ĠLefe b
ĠLaver vÃ¥
Ġdandj ureus
louc rale
ĠDefrexh eu
Ġsept ante
ĠerÃ®l Ãªymint
ĠrapÃ¥ jhÃ®
ĠCarpen tier
Ġnorve djin
Rimet oz
Ġtuber cul
Ġponant rece
Ġdamjh eles
Ġnouzom Ã¨s
Ġsimbi Ã´ze
Ġsativ a
Ġtermome te
Carac tere
Candj mints
Dani el
Ep wez
FÃ´rm ule
Lor int
ÅĴ uvres
æĺ Łæľ
ĠéĢ ±
Ġpante re
ĠpsÃ¥ mes
Ġkar atÃ©
Ġfale Ã»ve
chli ye
Ġbrand ons
Ġnons yince
Ġrna xhÃ®
Ġrzult ats
Ġonies mint
Ġlimo djes
Ġdjira fe
Ġtchol eurs
ĠMov mint
ĠLay ka
Ġstomb yÃ®
ĠCier gnon
ĠClÃ©men ce
ĠCLR E
ĠSibe reye
ĠSher man
Ġdisgueu yÃ®
ĠÃ´rim i
Ġcapt inne
Ġmaitran k
ĠTop onymie
Ġtetra ciclenes
ĠEmb anner
ĠbiÃ¨r dji
Ġbarak Ã®s
ĠIgna ce
ĠIdri ss
Ġepuf kin
Ġascwa ti
ĠÃ¥rdis pene
Ġproviz were
Ġtiesti c
Ġcomerci Ã¥le
Ġdjuday isse
ĠbrunÃ¥ sse
Ġapotic Ã¥re
Ġabdja de
arduel is
Ġfaeroy Ã¨s
ĠKinshas a
Ġtournike te
ĠURS S
Ġcoirzen oxh
gagna ge
Ġfortcher djÃ®
ĠLafor Ãªt
Ġtourist ikes
ĠIllust rÃ©
ulturk ampf
Ġmiceli om
ĠBrumi oul
ĠGoeth als
Ġranxhen reye
ĠCastafi ore
æĺŁæľ Ł
! "
" );
) ".
- ".
- ",
. '
/ ,
4 11
5 27
5 000
8 000
9 20
9 00
9 303
A C
A ch
A feye
A mand
A LW
A cse
A van
A bro
A djinÃ§mint
A telaedje
B in
B er
B en
B ote
B ov
B aye
B ois
B ob
C G
C wa
C out
C inte
C wÃ¨
C ab
C roe
C las
C onse
C rexhaedje
C odjo
D E
D G
D on
D ra
D om
D ans
D ijh
D roet
D nixh
D roets
D ijhoz
D ames
D ethier
D ujhances
D audet
D roldimint
E R
E c
E d
E f
E v
E sse
E ter
E fant
E plaid
E dit
F l
F ri
F ranc
F rance
F Ã¥rÃ¨
F abri
F oyes
G al
G ri
G li
G az
G abri
H Ã»
H ar
H oute
H esbaye
H Ã¥rdÃªye
H yper
I m
I tem
J ames
J ijÃ©
K in
L ut
L ouw
L uss
M X
M al
M ol
M en
M or
M uz
M oirt
M onter
M oman
M onsieu
N an
N el
N at
N ombe
N ouk
O B
O S
O mb
O fic
P I
P i
P ou
P er
P eu
P wÃ¨s
P Ã¥l
P iron
P laece
P rovinces
R am
R en
R odje
R ey
R itch
R ab
R ice
R ai
R Ã´ze
R elÃ®s
R ireyes
R aymond
S al
S ant
S ur
S aetch
S tÃ®
S ud
S pÃ¥
S imb
S ullon
S avoz
T re
T et
T inme
T ert
T ele
T rans
T uni
T intin
T ena
T Ã¥tÃ®
T oponimeye
T wenete
U B
U L
U ni
V R
V eye
V ers
V ert
V raiy
W e
W iy
W ice
W ai
X e
X hin
Y a
Y opÃ´l
a ou
a Ã§
a il
a ive
a ga
a teu
a fa
a gnÃ®s
b le
b Ãª
b ol
b Ã®s
b rÃ¥
b ike
b ouw
b inde
b Ã´re
b uze
b ontins
b ites
b antche
b Ã¥sh
b roÃ»s
c os
c ur
c Ã©ve
c ni
c Ã©ns
c av
c Ã¥ve
c rÃ©
c Ã¥de
c imbe
c ape
c lin
c Ã»te
c que
c ront
c lame
c rinn
d Ã¥
d Ã¨s
d la
d Ã¨t
d om
d li
d Ãªyes
d Ã¥ve
d Ã¥re
d eujhinme
d yince
d oze
d rasse
e il
e zÃ¨s
e gzim
e glijhe
e conom
e fant
f u
f Ã¥
f an
f Ã®
f us
f our
f ter
f ess
f rin
f au
f oye
f ale
f iy
f ion
f oir
f Ã´me
f roe
f ontaine
f ore
f uzÃªye
g i
g as
g rÃ¥
g ike
g mints
g Ã¥l
g ina
g otaedje
h ol
h at
h is
h ac
h ier
h atchÃ®
h intche
i ete
i vi
i ves
i stwere
i gnes
i kets
j u
j ou
j er
k w
k on
k ins
k it
k isse
k ine
k itÃ©
l l
l ol
l Ã¥r
l li
l ants
l nut
l lon
l mints
l Ã´t
l ots
l Ã¥re
l Ã´ze
l uze
l irmint
l lier
m il
m onte
m ires
m eure
m Ã¥ve
m otÃ®
m oir
m pete
m atike
m oird
m alÃªye
m Ã¨gne
n l
n ne
n as
n ing
n nut
n au
n ante
n ap
n Ã¥s
n av
n otes
n ront
n Ã©nxhe
n resses
n orm
o ce
o de
o ey
o rer
o poirt
o ha
o yive
p re
p oÃ»
p out
p win
p lÃ©
p ine
p tÃªye
p Ã¨te
p ates
q ad
r est
r oum
r dis
r alt
s eu
s al
s pe
s acw
s qu
s ma
s il
s aetch
s ion
s Ã¥rt
s honn
s Ã¥me
s yince
s intes
s ters
s apinse
s ovirÃ»sses
s ervatwere
t al
t wÃ¨
t Ã¥ve
t iner
t Ã¥ye
t avÃ¥
t he
t roye
t adele
u a
u i
u in
u an
u djÃ®s
v s
v ot
v ont
v at
v inne
v oz
v ale
v itch
v eures
v aux
v Ã¨ye
v raiy
v irÃ»sse
w eu
w yÃ®
w Ãªyes
w Ã¥s
w if
w Ã¥de
w Ã®t
w Ã¥rs
w zin
w aeye
w ana
w Ãªres
w gnÃ©
x yco
y r
y ans
y Ã¥de
y mints
y ales
y ck
z an
z el
z il
z yins
z eures
z ane
z Ã¨le
z aneye
z ister
ª ŀ
´ °
¼ ¢
Ã ¤
Ä ĩ
Ä Ĳ
É £
É Ķ
É Ľ
Î ·
Î »
Ð ¼
Ñ Ĥ
Ø ¶
å Ľ
æ ¼¢
è ªŀ
é Ł
Ġ Î
Ġ yet
Ġ 93
Ġ 66
Ġ 88
Ġ 57
Ġ 63
Ġ 83
Ġ 84
Ġ 79
Ġ 160
Ġ 130
Ġ 270
Ġ 362
ĳ Ð°
Ļ ½
Ġd dj
Ġd Ã´
Ġd ar
Ġd Ã©s
Ġd inne
Ġd inte
Ġd rin
Ġd ul
Ġd ru
Ġd zi
Ġd nÃ®
Ġd eux
Ġd vere
Ġd Ã¥rÃ©
Ġd wan
Ġd wane
Ġd vierti
es teut
es tif
es nire
Ġl int
Ġl os
Ġl yÃ®
Ġl ere
Ġl ance
Ġl itan
Ġl ote
Ġl ouwer
Ġl osse
Ġl aetche
Ġl ouwaedje
Ġl Ã»tes
Ġl zÃ¨
in m
in we
in cion
in etes
in aux
in alis
on a
on Ã§
on ete
on esses
on ze
on yin
on io
Ġa e
Ġa wait
Ġa che
Ġa uz
Ġa gra
Ġa djo
Ġa wi
Ġa roe
Ġa teri
Ġa neye
Ġa cides
Ġa xhele
Ġs Ã©n
Ġs wa
Ġs ess
Ġs min
Ġs ki
Ġs etes
Ġs rÃ¨
Ġs itan
Ġs atch
Ġs ots
Ġs bla
Ġs onner
Ġs vinte
Ġp Ã¨t
Ġp ite
Ġp ure
Ġp isse
Ġp id
Ġp wÃ¨
Ġp rey
Ġp neus
Ġp intes
Ġp wates
Ġe li
Ġe ma
Ġe ca
Ġe bÃ©n
Ġe do
Ġe cÃ´
Ġe ven
Ġe ros
Ġe viers
Ġe moenne
Ġe dicions
Ġe hÃ¥ye
Ġe hal
Ġc alon
Ġc um
Ġc were
Ġc rÃ¨
Ġc ele
Ġc Ã´t
Ġc atches
Ġc ub
Ġc antea
Ġc lers
Ġc dure
Ġc ush
Ġc dujhance
Ġc imit
Ġc djÃ¥zer
Ã¥ b
Ã¥ f
Ã¥ ss
Ã¥ sses
Ã© ri
Ã© ke
Ã© chal
ou ch
ou ra
ou yes
ou jhe
ou fe
ou nance
ou ys
ou bÃ®
an us
an Ãªye
an cÃ®
an djÃ®s
Ġdi dje
Ġdi xh
Ġdi gn
Ġdi rÃ®t
Ġdi eles
Ġdi bÃ¥
Ġdi cip
Ġdi cti
Ġdi djer
Ġdi Ã¢les
Ġdi clarÃ¥cion
Ġdi cipes
Ġdi erene
te ro
te xhe
te na
te Ã»ve
te Ã»re
te rateure
Ġm ur
Ġm out
Ġm ans
Ġm ante
Ġm ul
Ġm ine
Ġm oÃ»t
Ġm onsieu
Ã® de
Ã® les
Ã® tÃ®
Ġt Ãª
Ġt we
Ġt Ã¥r
Ġt as
Ġt om
Ġt Ã©s
Ġt ing
Ġt ance
Ġt au
Ġt oles
Ġt Ã¨r
Ġt Ã¥dje
Ġt he
Ġt omes
Ġt alons
Ġt ÄģÊ¾
re b
re di
re dy
Ã¨ ter
Ã¨ gn
Ã¨ les
ne y
ne z
ne ne
ne au
ne ute
ne lle
ne ls
dj ire
dj isse
dj ince
dj hant
Ġk at
Ġk ha
Ġk itae
ye use
ye yÃ¨s
Ġf it
Ġf Ã´
Ġf os
Ġf we
Ġf ic
Ġf ni
Ġf ous
Ġf au
Ġf reus
Ġf irs
Ġf Ã¥res
Ġf uch
Ġf ontes
Ġf lani
ch ant
ch os
ch ete
ch Ã®s
ch Ã©ns
ch isses
ch toÃ»
ch ia
ch ette
ch eyance
Ġb Ã»
Ġb us
Ġb ut
Ġb ran
Ġb Ã®s
Ġb reye
Ġb ike
Ġb ouw
Ġb ires
Ġb ute
Ġb lÃ¥
Ġb rev
Ġb usse
Ġb rijhaedje
Ġb oÃ»t
Ġb ude
Ġb uf
Ġb Ã»se
Ġv Ã©ns
Ġv Ã¢
Ġv erts
Ġv esti
Ġv uzion
Ġv weles
Ġv jhÃ©ns
Ġn inte
Ġn Ã¥l
Ġn Ã¥ze
Ġn ouwÃªye
Ġr ess
Ġr esses
Ġr win
Ġr no
Ġr wand
Ġr nou
Ġr Ã¥ve
Ġr un
Ġr Ã¥v
Ġr djet
Ġr indaedje
Ġr walon
Ġr pÃ¥
Ġr alÃ©
Ġr dire
Ġr pol
Ġr cep
Ġr ana
Ġr pike
Ġr like
Ġr pas
Ġr magnÃ®
Ġr dob
Ġr wenes
Ġr ozeas
Ġr glati
Ġon ke
Ġ( /
Ġ( âĢľ
ins i
ins Ãªyes
er Ã©
eu zeu
eu ge
eu vres
Ġes min
Ġes po
Ġes ca
Ġes pw
Ġes cole
Ġes por
Ġes plaid
Ã©n Ã©
Ã©n ce
ae n
Ġdes cen
Ġet in
Ġet ou
Ġet ra
Ġet ike
Ġet one
Ġet aeye
Ġet azunyin
ss o
ss eu
ss se
ss ale
ss oe
ss ets
ss Ã´te
ss elle
le tche
le ment
le mÃ¥le
le tisse
it in
it te
it Ã¥ve
it Ã¥cion
it ori
it ron
it aires
ot in
ot mint
ot Ã¨t
ot ocse
Ã´ m
Ã´ teye
Ã´ teu
Ã´ teurs
Ġest r
Ġest int
Ġest Ã¥cion
Ġest Ã®t
Ġest Ã®z
Ġest oumak
Ġest rem
Ġest apes
Ġco dj
Ġco yes
Ġco mes
Ġco ca
Ġco yon
Ġco fe
Ġco wal
Ġco vaedje
Ġpo pe
Ġpo yÃ®
Ġpo kÃ®
Ġpo tea
Ġpo ice
Ġpo Ã¨te
Ġpo rea
Ġpo rion
Ġpo itrÃ¨
al d
al ant
al ans
al mand
al itÃ©s
Ġli sses
Ġli vr
Ġli rikes
Ġki sse
Ġki mon
Ġki pagneye
ant in
ant isse
ant ixhaedje
Ġdj et
Ġdj ont
Ġdj inte
Ġdj ine
Ġdj ez
Ġdj ates
Ġdj inner
Ġdj apon
Ġdj Ã®le
Ġdj eton
Ġdj eret
Ġdj Ã¥spin
int ure
Ġdo k
Ġdo ter
Ġdo ket
Ġdo zinne
Ġdo ssire
Ġav is
Ġav na
Ġav oy
Ġav nu
Ġav nowe
Ġav Ã®ne
el Ã©
el er
el eu
el de
el ons
el reye
el aedjes
ro dje
ro be
ro wes
ro vÃ©
ro fa
ro betch
ro bantche
Ġi ma
Ġi reut
Ġi roz
ri aedje
ri co
ri mer
ri que
ri Ã¨re
jh Ã©nt
jh aedjes
Ã» l
Ã» ye
Ã» lÃ©s
Ã» zy
ĠÃ¥ vÃ©
ĠÃ¥ yant
ĠÃ¥ tou
et mint
et inme
et ter
et rece
Ġg Ã´
Ġg os
Ġg rÃ¨
Ġg lin
Ġg lou
Ġg ram
Ġg lande
Ġg lori
Ġg ord
Ġg olz
Ġpa ce
Ġpa pa
Ġpa yaedje
Ġpa pi
Ġpa teure
Ġpa rÃ¨
Ġpa zÃ¨s
Ġpa mp
Ġpa vÃ©
Ġpa gus
Ġpa you
Ġpa ujÃªre
Ġso me
Ġso we
Ġso yaedje
Ġso teas
Ġso ret
xh u
xh it
xh Ã©nt
xh ires
xh Ã¥d
xh Ã¥des
Ãª e
us ti
us ca
us tice
ve ne
ve yes
ve as
ve nut
ce re
ce au
ce ymint
de re
de gne
de dja
Ġsi l
Ġsi pr
Ġsi djes
Ġsi ki
Ġsi goter
wa ert
wa gnes
wa tÃ©
wa ide
wa ib
ke be
Ġtch ou
Ġtch ins
Ġtch alon
Ġtch ac
Ġtch Ã©nt
Ġtch as
Ġtch atch
Ġtch itchÃ®
Ġtch irs
Ġtch oÃ»le
Ġtch andjÃ®
Ġtch iveye
Ġtch uzes
Ġtch oupe
Ġtch oker
sse n
st itche
st rek
st oyevskiy
ir it
ir ac
ir reye
ir Ã¥cion
ir teus
Ġ" ),
19 10
19 16
19 23
19 98
19 70
19 35
19 65
19 75
19 21
19 44
19 57
19 63
19 86
19 76
19 83
19 74
19 84
19 53
19 59
19 31
19 72
19 82
19 51
19 52
ol k
ol us
ol ire
ut aedje
se f
se ke
ont naedje
at l
at u
at ist
at ib
at urÃ©s
os h
os la
os um
ra d
ra ye
ra ce
ra yes
ra pe
ra sses
ra ma
ra ires
ra ct
ra ine
ra ris
ra mer
20 14
20 12
we i
we yins
Ã¥r Ãªye
Ã¥r Ã©ve
Ã¥r tÃ©
is es
is on
is teres
la g
la r
la x
la kes
la id
la mes
la xhÃ®
ĠM c
ĠM it
ĠM inme
ĠM and
ĠM esse
ĠM ey
ĠM ene
ĠM ier
ĠM euse
ĠM onde
ĠM ouve
ĠM uss
ĠM inet
ĠM opliyaedje
ĠM uzÃ©
ĠM Ã¥vjhÃ©n
ran djÃ®
ran da
Ã§ ler
Ã§ mints
oÃ» l
oÃ» we
oÃ» ti
Ġw er
Ġw Ã¥d
Ġw Ã¥me
Ġw esp
Ġw oli
Ġw oeye
im s
im Ãªye
im isse
am er
am ite
am az
am arre
18 16
18 98
18 95
18 67
18 39
18 59
ĠD J
ĠD in
ĠD ra
ĠD oÃ»
ĠD om
ĠD ouw
ĠD id
ĠD ame
ĠD jhene
ĠD ilÃ©
ĠD iccionaire
ĠD zir
ĠD andjreus
ĠD Ã´han
ĠD aenwÃ¨s
ĠD aph
ĠD ramatike
ĠD ampire
ĠD aen
Ġla k
Ġla y
Ġla ir
Ġla yi
Ġla ds
Ġla vÃªye
Ġla pete
Ġla wter
Ġla rink
Ġla vola
Ġla Ã®de
ĠL us
ĠL os
ĠL ar
ĠL ome
ĠL ab
ĠL Ã«
ĠL onde
ĠL ova
10 55
Ġo reyes
Ġo mo
Ġo cs
Ġo ize
Ġo rem
Ġo pen
Ġo ister
ac k
ac t
ac es
ac as
ac um
ac itÃ©
ac ions
ac olaedje
ac ordeyon
Ġst in
Ġst itchant
Ġst Ã¥cions
Ġst Ã¥m
Ġst rap
Ġst ampÃ©
Ġst ructeure
Ġal on
Ġal aedjes
Ġal um
Ġal ure
Ġal owe
Ġal if
Ġal gue
Ġal ban
Ġal ouwÃ©
Ġal Ã©nxhe
Ġal Ã´rse
ĠB l
ĠB u
ĠB Ã©
ĠB Ã©n
ĠB ir
ĠB Ã¥r
ĠB ete
ĠB inde
ĠB iy
ĠB ud
ĠB ouve
ĠB oc
ĠB erd
ĠB oit
ĠB uch
ĠB Ã¨l
ĠB VD
ĠB rogne
ĠB oÃ»sse
15 41
Ġ: Â«
Ġtot Ã¥toÃ»
Ġtot aleure
Ġtot ossu
17 50
17 95
17 57
17 91
17 56
16 95
16 35
16 85
On t
ci pe
ci vi
ci ene
ci ca
ci ales
ĠC D
ĠC R
ĠC es
ĠC int
ĠC ont
ĠC Ã´p
ĠC onne
ĠC ad
ĠC ate
ĠC oi
ĠC amp
ĠC laire
ĠC mans
ĠC rist
ĠC Ã©nk
ĠC eke
ĠC lij
as te
pe y
pe z
pe me
di f
di k
di z
di es
di ye
di as
di pe
di om
di ons
di ct
di stike
di long
di yale
Ġvi v
Ġvi Ã¨s
Ġvi aedje
Ġvi ce
Ġvi sse
Ġvi ert
Ġvi adje
Ġvi ladjes
Ġvi kigne
our Ã¨
ĠS U
ĠS on
ĠS it
ĠS ant
ĠS ti
ĠS lo
ĠS Ã¥t
ĠS eure
ĠS ker
ĠS of
ĠS Ã´res
ĠS ov
ĠS ourd
ĠS pagne
ĠS ingu
ĠS ong
ĠS por
ĠS ors
ĠS orb
ĠS AB
ĠS Ã¨gne
ĠS otti
ĠS Ã´dÃ¥rd
ar es
ar on
eut nant
ire tes
Ġpl eu
Ġpl us
Ġpl eus
Ġpl inde
Ġpl oc
Ġpl ane
Ġpl ourÃ¨
Ġh Ã©
Ġh ant
Ġh en
Ġh Ã©s
Ġh isse
Ġh est
Ġh ard
Ġh op
Ġh eures
Ġh Ã¥des
Ġh otches
Ġh Ã¥jhe
Ġh ang
Ġh ati
Ġh inÃªye
Ġh onteus
Ġh olÃ¨s
Ġno bes
Ġno va
Ġno cr
Ġno zÃ©
Ġno via
Ġcome deyes
ĠA w
ĠA sse
ĠA la
ĠA li
ĠA isse
ĠA po
ĠA vr
ĠA na
ĠA vÃ¥
ĠA bi
ĠA rey
ĠA dele
ĠA coir
ĠA idance
ĠA RN
ĠA hmed
ĠA FE
ĠA ctin
ĠA prestaedje
ĠA MX
and Ã©
and Ã¨s
and reye
Ġmo sse
Ġmo yÃ®
Ġmo yinne
Ġmo ites
Ġmo der
Ġmo ches
Ġmo rÃ©nt
Ġmo rale
Ġmo yeye
Ġmo creye
eye vitch
en re
en sis
pr Ã®
pr esse
gn an
gn mints
gn ouve
gn oÃ»le
gn azi
ĠP ri
ĠP eye
ĠP om
ĠP ic
ĠP il
ĠP ixh
ĠP rez
ĠP Ã¥l
ĠP ron
ĠP Ã®re
ĠP andj
ĠP rof
ĠP ousse
ĠP OB
tch a
tch on
tch et
tch Ã¥r
tch im
tch ess
tch ante
tch ok
tch apea
tch ansons
Ġdis h
Ġdis rÃ®
Ġdis man
Ġdis bert
Ġdis pet
Ġdis pÃ¥
Ġdis dire
Ġdis biyÃ®
Ġdis waib
or f
or ke
or Ãªye
or esse
or Ã´ze
or Ã¥cions
or aedjÃ®
or th
or mÃ¥cions
ur rece
ur djike
ur Ã´be
ur djeye
ur lins
be reye
li eu
li dje
li be
li fera
li aria
vi g
vi le
vi ce
Ġsc o
Ġsc an
Ġsc ot
Ġsc al
Ġsc rin
Ġsc ab
Ġsc lat
Ġsc orb
Ġsc lide
Ġsc raif
Ġsc anfÃ¥r
Ġsc rofa
Ġsc watÃ©
Ã¥z es
ind rece
ind rome
ĠÃ´ n
Ġri sses
Ġri va
Ġri lÃ¥
Ġri do
Ġri go
Ġri bou
Ġri plo
Ġri weri
Ġri prin
ĠF B
ĠF e
ĠF ar
ĠF ur
ĠF ene
ĠF wÃ¨
ĠF leurs
ĠF onse
ĠF lip
ĠF ijhoz
ĠF lore
ĠF acul
ĠF ivet
ĠF erdinand
ĠF lemÃ¥le
Ġto p
Ġto le
Ġto it
Ġto ker
Ġto ide
Ġto cial
Ġto reas
Ġto ssaedje
Ġel odj
Ġel zÃ¨
Ġ19 26
Ġ19 23
Ġ19 12
Ġ19 43
Ġca u
Ġca wes
Ġca do
Ġca uze
Ġca vol
Ġca use
Ġca pot
Ġca hou
Ġca urs
Ġca ssÃªye
Ġca dran
Ġra be
Ġra wer
Ġgn Ã¨
Ġmot on
Ġmot ons
ĠmÃ¥ be
ĠmÃ¥ jon
out ube
ĠÃ¨ r
ĠÃ¨ fant
ĠÃ¨ lÃ¨
ĠÃ¨ chone
Ġou wess
Ġou crinn
Ġma f
Ġma i
Ġma te
Ġma Ã®
Ġma dj
Ġma yet
Ġma sses
Ġma ga
Ġma fi
Ġma Ã§ons
Ġma gr
Ġma zete
Ġma tenes
Ġma djuster
ess ive
gne u
gne z
ti esse
ti les
ti ket
ti cot
ĠR es
ĠR an
ĠR Ã©n
ĠR oÃ»
ĠR owe
ĠR inse
ĠR ed
ĠR ib
ĠR ok
ĠR indeu
ĠR inexhance
reye a
Ġu reus
ĠG U
ĠG ans
ĠG lan
ĠG ard
ĠG rim
ĠG lim
ĠG eor
ĠG oli
ĠG Ã¶
ĠG olete
ĠLi ves
ĠLi gue
ĠLi terateure
ey asse
Ã©s us
Ġan d
Ġan alisses
Ġan cien
ĠT Ã¥
ĠT wa
ĠT ey
ĠT rÃ®
ĠT ab
ĠT ites
ĠT ok
ĠT sh
ĠT oenne
ĠT rib
ĠT Ã®le
lo g
lo k
lo es
lo ter
lo co
lo vÃ¨t
Ġcw ir
Ġcw ans
Ġcw Ã¢r
ĠW u
ĠW and
ĠW est
ĠW Ã¥ve
ĠW ales
ĠW ill
ĠW Ã¥tÃ®
ĠW ASAB
um an
Ġtro vÃªye
Ġtro vrÃ¨
Ġtro veut
Ġtro vas
Ġda le
Ġda daye
Ġdiv ront
Ġdiv neut
Ġdiv nowe
Ġdiv nÃ®t
Ġdiv Ã©nr
Ġci c
Ġci sses
Ġci zete
Ġre ves
Ġre vier
Ġre ujh
Ġre pete
Ġre lidj
Ġre plo
Ġre zer
Ġre gues
Ġre dÃ®
Ġre mol
Ġre ws
Ġre ferince
Ġre lijhaedje
Ġre zister
Ġvo c
Ġvo es
Ġvo ey
Ġvo ere
Ġvo rer
Ġvo cial
Ġvo chal
Ġvo eynut
ite ye
rijh on
rijh Ã®s
Ġte k
Ġte nes
Ġte ris
Ġte lmint
Ġte noncÃ´
ĠH os
ĠH ond
ĠH ing
ĠH au
ĠH eure
ĠH oy
ĠH Ã¥re
ĠH oul
ĠH oute
ĠH ayons
ĠE f
ĠE z
ĠE us
ĠE pi
ĠE zÃ¨s
ĠE va
ĠE plo
ĠE uro
ĠE CG
Ã´p iet
ĠN iv
ĠN ice
ĠN ij
ĠN asser
ĠN Ã¥lene
Dj C
Dj eus
Dj Ã´r
Dj onn
Dj Ã®le
Dj eyo
Dj onnes
Dj ondant
Ġbo te
Ġbo teyes
Ġbo djant
Ġbo ignes
ic us
ic ote
ic reyes
ond o
Ġmet Ã¥s
Ġmet ront
ĠJ an
ĠJ our
ĠJ ijÃ©
Ġapr esteye
Ġsa ut
Ġsa ze
Ġsa pi
Ġsa vou
Ġsa yive
Ġsa yÃ©nt
Ġsa uva
Ġsa quants
ni ye
ni sses
ni stÃ©
Ġbi en
Ġbi bi
Ġbi zer
Ġbi bl
Ġbi dinnes
Ġbi gÃ¥d
Ġbi linwes
inte ne
Ġpol ins
Ġpol ant
Ġpol is
Ġpol inezyins
uz ene
ing ton
ĠcÃ´p es
ĠcÃ´p Ã©s
ĠcÃ´p reut
min e
min wÃ¨s
min cÃ®
Ġni d
ance ne
ance ye
Ġfi lodje
Ġfi yeus
Ġfi Ãªr
Ġfi Ã¨ve
Ġfi deles
ĠpÃ¥r laedjes
Ġmi ye
Ġmi di
Ġmi les
Ġmi ele
Ġmi zer
Ġsp i
Ġsp am
Ġsp Ã´r
Ġsp esses
Ġsp oz
Ġsp ote
Ġsp iye
Ġsp iter
Ġba ri
Ġba yes
Ġba ga
Ġba ssÃ®
Ġba xhaedje
Ġba bl
Ġba xhant
Ġba gnole
ĠMa roc
ĠMa ub
ĠMa chiavel
yi stÃ©
ĠDj on
ĠDj me
ĠDj eus
ĠDj Ã´s
ĠDj ustin
ĠDj eneze
ĠDj etrou
ĠDj Ã¢ke
ĠDj ustice
id Ãªye
id ujhance
ĠI ve
ĠI za
ĠI rlandÃ¨s
ĠI ndust
ĠI EN
ĠI vwere
ĠI gnazi
ĠcÃ¥z Ã©s
ĠcÃ¥z iyea
Ġplae nes
Ġplae Ã§aedje
Ġsch eu
Ġsch alon
Ġsch etes
Ġsch ov
Ġsch ate
Ġsch rene
Ġsch ates
Ġsch itÃ¨t
Ġsch eton
Ġbou yÃ®
Ġbou gn
Ġbou na
Ġbou da
Ġbou rike
Ġbou nÃ®
Ġfranc o
Ġfranc ofone
Ġfranc ofones
pa te
pa de
pa sse
pa ge
pa ssÃ©
ĠpÃ¥ ne
ĠpÃ¥ kÃ®
Ġac ou
Ġac et
Ġac onte
Ġac rexh
ĠV e
ĠV in
ĠV is
ĠV ete
ĠV esse
ĠV Ã¥s
ĠV iv
ĠV ier
ĠV iz
ĠV ille
ĠV III
Ġad o
Ġad u
Ġad Ã»t
Ġad vant
Ġad Ã»s
Ġep ice
Ġep inse
Ġep lÃ¥
Ġep oirt
Ġep Ã®ter
Ġep estif
Ġpout rele
Ġprum ires
les tin
oz i
oz ucion
qu Ã©
qu Ã¨te
Ġas k
Ġas ter
Ġas kes
Ġas plo
Ġas mala
Ġde f
Ġde ma
Ġde pind
Ġde pots
Ġde Ã»zy
Ġlu ter
Ġai wÃ®
Ġsh Ã®
ma k
ma te
ma rion
ki a
ki mere
ze Ã»
Ã»t yÃ®
wÃ¨ te
Ġbe gnons
Ġbe zaece
au le
au ho
Ġcwand minme
gu eye
gu etes
gu em
gu ed
gu ign
co ss
co sse
co xhe
co reyes
co bÃ©n
co djo
Ġev ac
Ġev oyive
ĠÃ¥r Ã©
ĠÃ¥r ts
ĠÃ¥r teas
ĠÃ¥r vey
ĠÃ¥r bite
ĠÃ¥r dinwÃ¨s
ĠÃ¥r vÃ´s
Ġwa djÃ®
ler wÃ¨
Ġpro pe
Ġpro ze
Ġpro pi
Ġpro lon
Ġpro bÃ¥
Ġpro cariotes
win reyes
Ġti ket
Ġti po
Ġti est
Ġti pet
Ġti zÃ´tes
po re
po pa
po que
po irter
po cal
il y
il Ãªye
Ġfr uz
Ġfr itche
Ġfr Ã»ts
Ġpu ni
Ġpu tete
Ġef on
Ġef or
Ġef ernu
Ġdv DjC
Ġdji ves
Ġro ci
Ġro yon
Ġz i
Ġz Ã©n
Ġz ine
Ġz one
Ġz ones
Ġz ines
Ġz igue
Ġcom on
Ġcom pl
Ġcom ier
Ġmou yÃ®
Ġmou sses
Ġmou tchwÃ¨s
Ġrat acaedje
Ġrat raper
ap us
ap la
ap hy
ĠÂ« -
est ins
hin a
yin dje
Ġdju ne
Ġdju pe
Ġdju djes
Ġdju ris
Ġdju djÃ¨t
Ġdju bet
Ġvol cans
Ġling aejde
Ġle win
Ġle vr
Ġle vÃªye
Ã¥d rou
80 40
ab et
ab kar
pu is
ĠpÃ® le
ĠpÃ® ler
ĠpÃ® taedje
Ġat Ã¨
Ġat ome
Ġat Ã¥ve
Ġat aetchÃ®
Ġat aetche
Ġat omes
Ġat ouwÃ©
Ġat ournÃ©
Ġat letisse
Ġbr es
Ġbr ute
Ġbr Ã´s
Ġbr onze
iy Ã¨t
Ġpe ct
Ġpe xhaedje
Ġpe mÃ®
ver gnat
Si pe
Si gneur
Ġcro y
Ġcro te
Ġcro les
Ġdire ke
Ġdire ct
Ġga vi
Ġap l
Ġap lon
Ġap lou
Ġap like
Ġap rovi
ĠO P
ĠO U
ĠO c
ĠO l
ĠO Ã»
ĠO reye
ĠO mb
ĠO ult
ĠO uf
ĠO ug
ĠO vÃ®fa
no y
no te
Ġgro k
Ġfe min
Ġsie vnut
Ġeg ze
Ġeg zo
Ġeg lou
Ġeg rÃ©s
ĠfÃ¥t Ã»le
ijh a
ijh oÃ»
ijh Ã¨t
ijh ete
don ance
don nÃ©
ers an
oum ant
oum Ã©nt
Po Ã¨mes
ĠvÃ® yÃ¨s
ĠvÃ® warÃ®s
otch mint
otch Ã¨t
Ġam oir
Ġam nis
Ġam oice
Ġam oices
Ġam pon
Ġam irÃ¥
Ġam andes
Ġcor Ã©nt
pl it
pl ant
pl Ã®s
Ġman e
Ġman i
Ġman ca
Ġman Ã§aedje
Ġman gon
Ġmal t
Ġmal ton
Ġmal Ã¥rder
av a
av in
av an
av Ã®n
Ġab z
Ġab Ã¥
Ġab Ã©s
Ġab etch
Ġab ru
Ġab oir
Ġab roc
Ġab oird
Ġab cÃ¨s
Ġab aci
Ġab isto
Ġab rotch
Ġtcham b
Ġtcham pyÃ®
ĠsÃ´ te
ĠsÃ´ cietÃ©
ul l
ul us
ul let
ul mans
na is
na ks
ct ou
ct us
Ġpla kÃªye
Ġpla kÃªyes
Ġpla iyofs
if f
if ic
Ġter in
Ġter me
Ġtote voye
ĠpÃ´ reu
ixh es
ixh nut
ixh ances
Ġyeu ss
Ġcmin Ã§
Ġcmin Ã¥ltÃ©
Ġcmin Ã§nut
rÃ¨ ssÃ®
Ġdro vant
Ġmon o
Ġmon se
Ġmon ote
Ġmon ast
Ġmon oloke
Ġrac ov
Ġrac oulot
Ġrac oÃ»ti
iv aedje
ele t
ele z
Ġmar m
Ġmar ins
Ġmar Ã©n
Ġmar cant
ĠTch a
ĠTch i
ĠTch in
ĠTch ante
ĠTch itch
ĠTch Ã©ns
ĠTch Ã¥te
ĠTch imin
ĠTch ampion
ĠTch espire
Ġari vant
Ġari vÃ©s
Ġari vnut
of ic
Ġ18 60
Ġ18 68
Ġ18 45
Ġ18 94
Ġ18 21
Ġ18 66
Ġ18 55
Ġ18 39
Ġ18 92
Ġ18 91
Ġ18 62
Ġ18 31
Ġ18 72
Ġ18 82
Ġ18 51
Ġ18 81
Ġqu aus
ĠsÃ¥ ver
ĠsÃ¥ roz
ĠsÃ¥ reus
ĠsÃ¥ vion
ĠsÃ¥ riz
ĠsÃ¥ verdea
ĠsÃ¥ cler
ard o
ard ou
Ġeplo cter
Ġcan e
Ġcan is
Ġcan vol
Ġcan letes
Ġcan djeye
Ġcan ari
Ġdjin i
Ġdjin o
Ġdjin ixhe
ust Ã©
zi ter
zi om
Ġtr ins
Ġtr Ã®s
Ġtr inne
Ġtr one
Ġtr Ã»le
Ġtr intche
Ġgu ide
Ġgu intche
Ġgu eyes
Ġpor ca
Ġpor djets
Ġpor vuzions
Ġpi ou
Ġpi st
Ġpi ed
Ġpi kÃªyes
Ġpi cete
Ġpi keure
Ġpi keures
Ġpi ersan
Ġsic ol
Ġsic olodjeye
Ġsic oles
Ġsic olodjikes
Ġsic rets
Ġsic olÃ®
Ġcou pÃ¥
Ġcou gnaedje
ris te
Ġin mer
Ġin mÃ©
Ġin djus
ba g
ba ret
ba rek
ile tike
rÃ© ye
ĠÃ¨t ou
Ġans inÃ®
ote as
Ġpar ti
Ġpar atch
Ġpar vÃ©nt
Ġcre t
Ġcre pe
Ġcre vÃªye
Ġcre vÃ©s
Ġcre vÃªyes
ĠK im
ĠK ap
ĠK ost
ĠK atan
ĠK lairwal
ĠK ulturkampf
ĠK DE
Ġmoen nÃ¨t
Ġmoen nÃ©nt
Ġsit a
Ġsit Ã¥ve
Ġsit rou
Ġsit Ã¥re
Ġsit rofe
mon e
Ġbon e
Ġbon zÃ¨
Ġbon gÃ¥r
met a
Ġseu cea
Ã¢ m
Ã¢ n
Ã¢ reÃ»
Ġcr otes
Ġtour mints
Ġtour naedje
Ġtour noe
Ġrom antche
va stopol
ĠU SA
ĠU dipe
per a
ĠPa st
ĠPa ys
ĠÃħ be
ĠÃħ tche
oy ants
Ġne y
Ġne ute
Ġne djeu
Ġne veu
Ġbetch ter
Ġbetch teus
Ġcon str
Ġsint a
Ġsint Ã¨t
Ġsint ome
Ġsint ake
mer ce
Ġsu ke
Ġsu cÃ®
Â» ).
Ġres pleu
Ġcont aedje
Ġcont rat
Ġcont Ã¥be
Ġsin aedje
Ġsin Ã©s
Ġsin istr
Ġcla we
Ġcla wes
Ġcla irmint
Ġcla vete
Ġcla distike
ĠDi anthus
Ġser Ãªye
Ġser Ãªyes
ĠAl ine
ĠAl fred
man a
man e
vÃ© e
Ġdin aedje
Ġdin Ã®s
Ġdin Ã©s
Ġdin rÃ¨
Ġovr ant
Ġovr Ã©ve
Ġve f
Ġve Ã»t
Ġve gnes
Ġve vÃ®s
op h
ume n
ume nt
Ġey ou
Ġtcher Ã¥
Ġtcher don
Ġtcher djÃ®s
Ġdijh eu
Ġdijh Ã©nt
Ġtra d
Ġtra yi
Ġtra ker
Ġtra ites
Ġtra iter
Ġtra cÃªye
Ġtra vos
Ġrc w
Ġrc al
Ġrc rind
Ġrc omprindaedje
Ġdisc ot
Ġdisc om
Ġdisc rexh
Ġdisc onse
Ġdisc andj
Ġdisc lÃ´re
Ġdisc utaedje
Ġdisc atib
Ġdisc oraedjÃ®
Ġsaetch eu
Ġsaetch eyes
da k
da te
rou f
rou ve
Ġpou jhe
Ġpou xhance
Ġpou gnet
Ġpou nresses
Ġlong owes
Ġcl atch
Ġcl Ã´t
Ġcl imbe
Ġcl euses
ĠcoÃ» tes
Ġson g
Ġsor djant
Ġsor coviete
Ġsor cire
Ġsor woeyÃ®
Ġhou yÃ®
Ġhou lot
Ġhou zer
Ġhou zÃªye
Ġhou kive
em ont
Ġcour u
Ġcour nut
Ġcour Ã«
Ġcour tin
ca re
ca st
ca mint
ca isse
Ġch i
Ġch Ã¨
Ġch Ã´
Ġch wÃ¨
Ġch if
Ġch leus
Ġch uch
Ġch rap
Ġmin us
Ġmin eure
Ġmin ute
Ġmin rÃª
Ġlin es
Ġlin dje
Ġlin wes
ĠBa ch
ĠBa sses
ĠBa ssÃ®
ĠBa uthi
ĠBa wgnÃ©
Ġric lam
Ġric omprindaedje
Ġric andjeye
Ã¥te ur
Ġdjouw ant
Ġdjouw ixhance
mÃ¥ y
Ġar aegn
Ġar ondes
Ġar esteye
tÃ© ph
Ġcoir don
Ġcoir neu
Ġcoir nÃ¥d
cieus Ã¨s
Ġriv naedje
Ġriv Ã®re
Ġriv indje
Ġriv nowes
ĠcwÃ¥r Ãªyes
ga is
ga ricus
Ġ2 20
Ġ2 100
ĠBel ga
ĠkÃ© ke
Ġsier vant
Ġdoet rece
Ġmoirt Ã®s
Ġ3 50
Ġbat ous
Ġbat reut
Ġbat ijhe
Ġbat weres
Ġbat ayes
str ong
mo xhe
ini ye
Ġpal es
Ã« n
Ã« le
ime ne
lam Ã©
Ġrt ra
Ġrt oum
Ġrt oume
Ġdjonne tes
ĠFran k
ĠFran z
Ġair Ãªye
ĠtÃ® Ã§let
Ġdier innes
Ġdier mite
Ġram pe
kÃ© cfeye
Ġnove atÃ©s
No st
Ġah Ã©
Ġah av
Ġah ive
Ġah aetchÃ®
Ġah iket
Ġbast ixha
Ġbast ixhÃ¨t
ujh Ã¨t
ĠCh al
ĠCh ry
Ġrs inte
Ġrs etch
Ġrs aye
Ġrs oha
roÃ» lÃªye
Ġor ondes
con st
Ġprez ince
Ġfor ne
Ġfor nÃªye
Ġfor teu
Ġfor djet
Ġfor magnÃ®
ĠtchÃ¥ ssetes
Ġshu vions
ns is
Ġ17 65
Ġ17 94
Ġ17 97
Ġ17 80
Ġ17 88
Ġ17 69
Ġ17 91
Ġ17 74
Ġ17 79
Ġ17 31
Ġprind Ã¥ve
Ġprind Ã®t
Ġot one
Ġot oc
Ġaf r
Ġaf ri
Ġaf Ã®sse
Ġaf roye
Ġaf ait
Ġaf ontnaedje
Ġfeu mes
Ġvic antÃ¨s
Ġvic Ã¥re
Ġxh er
Ġxh os
Ġxh ale
Ġxh axh
Ġxh ames
Ġxh inaedje
Ġxh ilete
Ġtri c
Ġtri p
Ġtri on
Ġtri sse
Ġtri yon
Ġtri mb
Ġtri viers
Ġeplaid ant
Ġeplaid Ãªye
Ġeplaid aedjes
ori on
Di ferinces
Ġgo di
Ġgo yÃ®
Ġgo stÃªye
ĠÃħr denes
ĠÃħr menyins
Dis pus
Ġ10 5
Ġ10 7
lin ville
ĠtchÃ´ kÃ©
ĠLe e
ĠLe de
ĠLe hai
ĠLe brun
ĠLe page
bi st
bi um
bi ografeye
bi otikes
bi jheyes
ĠLa o
ĠLa fontaine
ik o
ik eus
ĠFranc o
ĠFranc ofon
Ġtey olodj
Ġtey oricmint
ets cape
Ġtuz ances
Ġsav u
Ġsav eu
Ġsav Ã©ns
Ã´rd s
Ġboune te
Ġboune ts
Ġboune urs
cu la
cu les
cu lÃ©
cu eil
Ġna w
Ġna xhe
Ġna wes
Ġna zi
Ġna xhÃ®
Ġna reus
Ġna renes
Ġna zis
Ġna ssale
190 8
180 8
Ġtim pr
Ġvint inme
Ġvint che
Ġdvant rin
Ġdmor ront
Ġapla ker
Ġapla kÃ©s
Ġapla caedjes
Ġass Ã¥jh
Ġber dou
Ġber Ã´d
Ġber linne
Ġber nate
ĠMar t
ĠMar x
ĠMar tine
ĠMar Ã©chal
uc yin
uc ley
rey Ã¥cion
Ġvra iyes
ĠDe w
ĠDe clarÃ¥cion
Nos te
ad in
ad lÃ©
ad da
ez el
oyÃ® z
Ġem Ã©
Ġem is
rexh ances
Ġprov nant
Ġrim er
Ġrim onter
Ġrim ouye
Ġrim Ã©de
Ġrim orke
Ġbea zet
Ġ16 3
Ġ16 4
Ġ16 5
Ġ16 9
Ġ16 50
Ġ16 34
Ġ16 83
Ġ16 51
Ġmw Ãª
Ġmw elons
Vos te
do ke
pli ke
pli kÃªye
Ġ15 7
Ġsou k
Ġsou ner
Ġsou kÃ©
Ġsou nete
cÃ´ fs
Ġdjam bot
Ġvoy letes
Ġing redy
Ġtou tchÃ®
Ġtou pin
Ġtou ware
ĠtÃ© les
Ġmont Ãªye
Ġmont Ã©s
Ġris ker
Ġris kÃªye
Ġris crÃ®t
Tot ossu
oc si
Ġpic ron
Ġcur Ãªyes
Ġfot Ã¨t
Ġsip in
Ġsip ite
Ġsip Ã¨sse
Ġwan gnaedje
Ġmwin r
Ġdjh oz
Ġpronon Ã§nut
Ġpronon cÃ©nt
Tch ant
Tch esse
Tch Ã¥lerwÃ¨
Tch aeconk
Tch antchÃ¨s
ĠY on
ĠY an
ĠY ac
ĠY asser
ĠY sa
ĠY oug
Ġint rÃ©s
Ġof ice
Ġof ices
Ġof fic
'' .
ie ve
Ġeter vi
Ġeter nacion
125 5
125 9
Ġdu rante
Ġse p
Ġse ccion
Ġse Ã»r
Ġse igneÃ»r
Ġvin u
Ġvin owe
Ġvin redi
rim Ã©
rim at
ĠBon lÃ©
127 5
127 8
So cietÃ©
Ġtouw eu
ĠAn ne
ĠAn ciaux
Ġpask Ãªye
Ġpask Ãªyes
114 3
iz a
iz eye
Ġer l
Ġcnoxh eus
Ġcnoxh ances
Ġcnoxh owÃ¨s
Ġtin k
Ġtin etes
Ġtin res
Ġtin rÃ¨s
Ġrfond ant
Ġrfond owe
hi aedje
hi li
ĠEt o
Ġfal i
Ġfal bal
Ġpat reye
Ġpat Ã¥rs
riy otes
riy ingue
Ġpolit ico
ĠÃ¥rti stikes
Ġfro ter
Ġfro yon
Ġata k
Ġata kÃªye
Ġata kÃ¨t
Ġata kÃ®t
ĠMÃ¥ ne
ĠMÃ¥ jh
ĠMÃ¥ strek
ber a
ta re
ta ke
Ġmol onÃ©
land o
land s
Ġset Ã¨s
ĠRe vol
Ġresp ire
Ġcat oÃ»
Ġcat Ã®s
Ġcat ib
Ġha ss
Ġha it
Ġha we
Ġha rote
Ġha gnÃ¨t
Ġha zÃªyes
Ġshof leu
Ġshof lant
Ġama zi
Ġec Ã¥d
Ġec olodjikes
Ġec lÃ´s
Ġec ramyÃ®
Ġsac ristin
ĠerÃ® lÃ©s
ib us
ib eye
ĠÃ¨s tÃ®
Ġag ri
Ġta zot
Ġtoum aedje
Ġbout a
Ġbout ant
Ġbout aedjes
ha ir
ha med
oi gne
ok ovi
Ġsetch es
Ġsetch mint
Ġsetch eur
Ġsetch rons
Ġper on
Ã¨r Ã©s
ĠrÃ¥ tch
Ã´z Ãªyes
ĠMou za
ĠMou lai
ĠMou barek
Ġmos kÃªye
Ġmos terrÃ¨
Ġmos ternut
Ġmu nd
Ġdisf inses
Ġbate mes
Ġbate lreye
ĠZ i
ĠZ o
ĠZ id
ĠZ ultan
ĠZ iven
Ġcost ru
rixh eu
rixh ant
rixh mint
ĠwÃ¥rd Ãªyes
Ġoct Ã¥ves
Ġrin f
Ġrin dje
Ġrin et
Ġrin Ã¥drece
Ġrap oul
Ġprod uts
Ġfou xh
Ġfou yes
Ġfou yaedje
Ġfou gnaedje
Ġfou yea
Ġban se
Ġban ire
ĠBou illon
ĠtrÃ´ ne
ĠfrÃ¥z letes
Ġtap ant
Ġtap Ãªye
Ġtap rece
Ġfond Ã©
Ġfond Ãªye
Ġfond Ã¥cions
Ġnov Ã¨le
Ġredj imes
Ġdon Ã©
Ġval i
Ġval Ãªyes
Ġval ixhances
ĠÃ¥jhey s
Ġtchant aedje
Ġrtro vnut
Ġrtro vrÃ¨
bon aedje
Ġcop lÃ©
Ġviz ites
Ġ6 10
ĠX hin
ĠX III
Ġsam in
Ġsam win
Ġcas kete
ĠBru dje
Ġcandj isse
bou ne
bou yÃ®
bou ille
bou ctou
dis poy
ĠcÃ¥ se
ĠcÃ¥ ves
reu ve
Ġfl ouw
Ġfl oÃ»s
ĠWal coÃ»
plo e
Ġcint naire
so ce
so ris
ĠMo d
ĠMo ch
ĠMo xhe
ĠMo rayns
ĠMo hamed
ĠPo ite
ĠPo Ã©sies
ĠPo pulaire
Ġj u
Ġpire te
Ġgr at
Ġgr Ã©s
Ġgr intche
Ġtcha ur
Ġtcha fi
si potÃ©
Ġdab Ã´r
Ġme cs
ĠvÃ©n roz
ĠvÃ©n rdis
Ġdjae yÃ®
Ġdjae ni
Ġmagn nut
fi la
fi ci
Ġrv Ã©n
Ġrv inde
Ġrv Ã©nrÃ¨
Ġrv Ã´mi
ĠbroÃ» lant
ĠdoÃ» ceur
kepi aedje
ĠÃ´r reyes
Ġrade a
Ġmari er
Ġmari minces
ĠGu er
ĠGu eu
ĠGu inÃªye
Ġtae neu
Ġtae nreyes
ĠSch le
Ġcaf Ã¥rd
Ġcaf roye
Ġcoron es
Ġed urant
Ġed Ã¥mÃ©
Ġdiy agn
Ġdiy agnostik
Ġdiy oce
Ġdist our
Ġdist indou
Ġdist rÃ®xh
Ġdist riks
Ġrit neut
Ġrit oÃ»ne
Ġpoy aedjes
Ġpoy owÃ¨s
ĠGil bert
Ġcroejh Ã¥de
Ġcroejh Ã¥des
reus es
Ġrae cisse
Ġrae zetes
Ġcoss Ã©n
Ġcoss ina
Ġuz Ã¨t
Ġwaer leu
Por trait
ph onse
Ġov ra
Ġov rance
Ou don
Ou bÃ©n
Ou donbÃ©n
ĠrÃ´ lÃ©
ĠrÃ´ zÃ¨s
ĠrÃ´ lÃ®
ĠrÃ´ laedje
ĠrÃ´ leas
ĠAv iretes
Ġrexh Ã¨t
cou lotes
Ġast amp
Ġast antches
Ġast Ã¥rdjÃ®
Ġast amper
Ġast antchÃªye
Ġast cheyance
ram Ã©s
pla ke
pla sma
Ġflo rete
Ġbal asses
Ġnel zÃ®
Ġatch ete
Ġatch taedje
Ġatch tÃªy
Ġspe ate
Ġspe cial
Ġspe xheur
Ġrm im
Ġrm aryÃ®
Ġrm ouwaedjes
ĠRo ose
cÃ¥ cions
lot aedje
tr Ã´s
vol tÃ®
ĠSi cile
ĠSi chu
Ġlan ceu
Ġlan chtoÃ»
Ġaid Ã¨t
tin aedje
tin cion
uf fe
Ġpere t
Ġfwa ire
Ġdjour nÃªyes
Ġdjour nÃ¥s
Ġdjour mÃ¥y
Ġaveu le
ĠSom bre
ĠSom aleye
ĠRom in
ĠRom ande
ÃĶ pont
Ġ12 1
Ġ12 2
Ġbas col
Ġprin jhes
Ġtchamp innes
ame ye
asse z
come ne
mi us
mi di
Ġrasco yÃ®
Ġpet Ã©ve
Ġcar to
Ġcar nav
Ġvir Ãªye
Ġvir Ãªyes
Ġtchap lete
Ġtchap nire
ĠAr ch
ĠAr al
ĠAr gayon
Ġspl itchÃ®
Ġricnoxh Ã¥ve
Ġricnoxh Ã¥ves
Ġprezint a
Ġprezint oe
Ġprezint oes
kÃ¨t s
Ġpri vÃªye
Ġpri yive
Ġpri eurÃ©
ĠbÃ¥ ti
ĠbÃ¥ bes
ĠbÃ¥ rire
ĠbÃ¥ jhaedjes
ĠDis fondowe
ĠDis cramiaedje
ĠDis walpaedje
Ġdisch ovri
Ġramexh ner
ĠVer mer
ĠVer zy
Ġprof s
Ġprogra meus
Ġmat in
Ġmat inÃªye
ĠmÃ¥r ler
ĠmÃ¥r caedje
ĠmÃ¥r mite
ĠmÃ¥r lires
ĠmÃ¥r ticot
Ġtchim icmint
neu ve
Ġbra mint
Ġmagne use
Ġmer ci
Ġmer veye
Ġmer veyes
Ġmac asse
Ġlimer ike
Ġlimer otaedje
Ġlimer otÃ©s
ĠSt an
ĠSt udi
Ġbrou ye
Ġbrou xhe
Ġbrou lÃ©
Ġbrou xhes
Ġbrou yant
Ġbrou yeye
Ġley rÃ¨
ĠBe bert
ĠTh e
ĠTh Ã©
ĠTh ier
Ġcomp te
Ġamon ucion
Ġracont a
Ġracont Ã©nt
Ġracont roÃ»les
Ġcir culaire
Ġcir const
Ġvind eus
Ġvind Ã©nt
ĠwangnÃ® t
cÃ¥z eus
Ġcori djrece
ala f
Ġmod rece
Ġpond antÃ¨s
ĠImp reu
Ġprezid ince
Ġfroed s
Ġpour cia
Ġdisp ins
Ġdisp Ã»
Ġdisp ut
Ġdisp ar
Ġdisp oujhÃ®
Ġdisp Ã¥dnut
Ġdisp otlÃ©
Ġpoli p
Ġpoli mint
Ġvijh nÃ¥ve
vie be
kipe dias
Ġloum rote
Ġwal o
Ġwal fran
ĠLou wete
ĠLou wate
Ġstudi Ã¨t
Ġplou v
Ġplou me
Ġplou mes
Ġplou zÃªye
Ġdisla xhe
Ġdisla xhÃ®s
cole ye
Ġalfabet icmint
Ġraf ro
Ġraf Ã´r
Ġatra ire
Ġclass ifiaedje
cw Ã©nce
ĠsÃ¥r ont
ĠsÃ¥r ter
ĠsÃ¥r ts
Ġcri me
Ġcri yive
Ġcri ssÃ´te
Ġhap Ã¨t
Ġmier nous
Ġmier keure
bl esse
cc um
Ġsinte u
Ġsinte Ã»ve
Ã¥m reye
Ġdif Ã¥t
Ġdif fÃ©
Ġdif louw
Ġbri ket
Ġbri ker
Ġbri kÃ©nt
Ġbri gÃ¥de
aedj euse
Ġcodjo wÃ¨t
Ġratind eu
Ġratind Ã¨t
Ġratind nut
ĠmÃ¥lÃ¥jhey mint
Do be
Do cÃ´
Do stoyevskiy
Ma rok
sh ab
sh uv
Ġrind a
Ġrind mint
Ġrind ous
Ġgra we
Ġgra vÃ©
Ġvier Ã¨
Ġvier min
Ġvier na
Ġvier bire
Ġvier dik
Ġdiswal p
Ġrad mar
ĠspÃ¥rd owes
Ġshuv Ã©nt
Ġshuv owes
Ġrespond eu
Ġrespond Ã©nt
Ġrespond as
din a
nu k
Ġdra peas
Ġrond ins
Ġdjond ous
Ġgal op
ĠBi bioteke
ĠBi Ã¨me
ĠCol ogne
ĠAmer ikin
ĠEs drasse
ĠDjez wites
ĠÃĶ t
ĠÃĶ ne
Ġcroey nut
Ġcroey inces
Ġy o
Ġy Ã´
Ġy inte
Ġy Ã´r
Ġy ute
Ġy od
Ġy Ã¨ne
Ġbleu wÃ¨s
Ġrlidj euses
Ġdessin Ãªye
Ġdessin eus
ĠCon cor
ĠCon cile
Ġrab ats
Ġrab ressÃ®
Ġplaijh ante
Ġplaijh anmint
ĠKi oto
Ġsfwait es
Ġcot on
Ġcot oÃ»s
Ġcot lÃ®s
Ġscol resses
ĠadjinÃ§ nÃ©s
Ġdistr Ã»tes
Ġmic olodjisses
ĠSc ott
ĠSc luze
ĠhÃ¥y nÃ©s
ĠhÃ¥y net
ĠGrand gagnage
Ġenond aedje
Ġpel oe
ĠvÃ´ yes
ĠvÃ´ rÃ®z
Ġesc ours
Ġesc lÃ¥ves
ĠhÃ¥ bit
Ġramass Ã©nt
Le xique
ast ike
ĠlÃ® ve
ĠlÃ® ves
Ġadj ust
Ġadj onde
Ġadj ondaedje
oul ots
Ġdjonn ler
Ġdjonn laedje
Ġtchey aedje
Ġtchey owe
ĠBo er
ĠBo ket
ĠBo do
Ġradj ale
ĠWi li
Ġdimor Ã©nt
Ġdimor rÃ¨
Ġcons ist
Ġrot Ã©
Ġbiy ografeye
Ġbiy olodjisse
ĠOt rich
Ġrash iyÃ¨t
Ġsierv ante
prezint oe
Ġpot ale
Ġpot ikets
Ġboute Ã»ve
lÃ¨t s
Ġind yins
Ġind roet
Ġind ouwisse
Ġsem aedje
Ġsem Ã©s
Ġclo y
Ġclo kes
andjÃ® les
ĠdirÃ® z
ĠnÃ´ bes
ĠnÃ´ blesse
Ġtchen as
Ġtchen Ã¥s
Ġoy ance
Ġoy Ã¥bes
ĠPol eur
ĠPol itike
ĠPol onÃ¨s
pol itike
pol inaire
ĠdÃ© me
ĠdÃ© mes
ĠlÃ¨ vÃ©
Ġritch Ã¨s
Ġcod aedje
Ġcoixh es
Ġcoixh ant
ĠBen oet
ĠBen oÃ®t
ĠCo ols
ĠCar los
ĠCar refour
ĠHam al
ĠHam tea
lom Ãªye
lom Ã©s
Ġcer u
Ġfla ter
Ġfla xhe
Ġfla mindje
Ġnot Ãªye
Ġnot Ãªyes
Ġnot Ã¥res
ĠBer winne
Ġplan etes
Ġrav eut
Ġrav Ã´t
ĠRen ier
oird oe
Ġver reye
Ġver Ã¥t
Ġver dire
Ġlijh aedje
ĠDu k
ĠDu ks
ĠDu ha
ĠDu val
ĠDu puis
ĠDes car
Ġmostr Ã©s
Ġfoir avant
ĠpoÃ»ss ants
Ġpene us
Ġrwait nut
men ts
ĠMe cs
ĠMe csike
ĠCome ne
dic tene
ĠAnd o
Ġdism aryÃ®
Ġ190 7
ĠHu ang
Ġspit Ã¨t
Ġspit Ã©ve
ĠDjer pene
Ġwai di
Ġinf ormÃ¥cions
Ġsur tÃ©
Ġtrin nÃ¨t
chÃ® ye
Ġdjal Ãªyes
ĠALW AC
Tcher pintaedje
ĠrÃ§ uv
ĠrÃ§ uva
ĠNo ers
ĠNo veye
ĠNo Ã«l
Ġcrap Ã¥d
Ġcrap Ã´de
Ch ar
cro es
cro ssÃ¨s
Ġpind ous
Ġru b
Ġru ne
ĠSm u
Ġuni on
Ġuni fyÃ®
ĠGof finet
Ġmil di
Ġschav aedje
Ġschav eures
bo ere
Ġapa rexhaedje
ĠavÃ¥r ci
Ġplat rÃª
Ġher le
illa me
Ġtrou c
Ġxhuf ele
Ġpre tins
Ġpre cis
Ġtre fond
Ġvel er
Ġvel aedje
Ġvel os
Ġcab as
Ġcab ardou
Ġclap antÃ¨s
pou sse
Ġlodj Ã®s
Ġlodj ike
Ġrf uzÃ©
Ġrile v
Ġrile vÃªye
Ġrile vaedje
Ġrile vÃªyes
ĠFa yis
ĠFa gnole
graf yÃ®s
Cor aedje
Ġarin djÃ®s
Ġfab rikes
ĠBra sil
Ġhal kin
Ġpubli ks
Ġpubli yÃ®s
Ġpubli ya
Ki mint
Ġdrou kÃ©s
Ġlou me
Ġlou cant
Ġapo st
Ġetroc las
amb ike
Ġom rinne
Ġom ofone
ĠSal zene
Ġrev ole
Ġbole djÃ®s
Ġaprind a
Ġaprind Ã¨t
Ġspotch eye
ĠsÃ¥v aedjes
pind ance
ug al
Ġfri st
Ġetrindj ires
Ġobli dje
dixh Ã¨t
eter s
eter mint
ĠcwÃ©n zinnes
Ġdmey Ã¨s
Ġpriy a
Ġpriy nut
ĠcÃ´ roe
Ġtu nel
Ġfene r
Ġveu l
Ġrint rÃªye
ĠdjenerÃ¥ les
lai ri
ĠDel waeye
ĠDel amarre
ĠDel bouille
Ġcron olodjike
Ġcron olodjicmint
Ġviolon isse
ec lÃ´s
hÃ¥ jh
hÃ¥ yÃ®
ĠsÃ» ner
ĠsÃ» teye
ĠsÃ» naedje
ĠpÃ© pÃ©s
Ġtrans crijhaedje
Ã¨n nÃ¨
Ġrujh ales
Ġespe ke
Ġdess ine
ĠCou yet
Ġhar loucrale
Ġhar lakes
ĠWa yindje
Ġacs Ã»tes
Ġash Ã®t
Ġrashonn Ã¨t
Ġancyin nÃ¨s
Ġsouw Ã©s
Ġcel eris
Ġmez Ã¥jhes
Ġmez alÃ©s
ĠMon on
ĠMon cea
ĠMon djoye
Ġplant Ã©s
Ġplant Ã©ve
ĠMari cica
Ġroed s
Ġamoen nÃ©ve
Ġabat aedje
Ġinst aler
Ġmilit ant
val ds
wo od
teri eur
teri um
Ã®ye nut
Ġfrexh i
Ġfrexh s
Ġbol iv
Ġ:: :
ĠCom in
ĠCom unÃ¥
ĠCom mius
Ġmayeur s
ĠRa dio
ĠRa ham
ĠGo viÃ¨r
ĠGo chliye
Ġboer Ã¨
Ġboer lÃ©ve
Ġboer lÃ¨t
Ġbiz Ã©
Ġarest Ã¨t
Sint oz
cr it
cr inme
hou ca
ign Ãªye
Ġdr ae
neye rlandÃ¨s
Ġfoum Ã©ve
Ġess il
Ġess Ã»ne
Ġavance yes
ĠtchÃ´de a
Ġoper a
Ġoper Ã¥
Ġcay Ã¥s
Ġraw ijh
Ġraw ijhÃ®
Ġun ic
Ġcomprind eut
ĠOr tografeye
ĠOr lando
Ġconse ys
Ġconse cants
Ġnouv elle
ĠThom as
ĠÃ»t ante
Ġfer mintaedje
Ġfer nuk
ĠbÃ® le
ĠbÃ® ce
Ġlat in
Ġpixh eye
Ġesp wer
Ġesp Ã´z
Ġdjo yes
ĠPrin ces
ĠPrin cip
Ġcast agnÃ®s
Ġanti biotikes
ĠpÃ¥jh irtÃ©
Ġpexh otisse
Ġrescont rÃ©ve
ĠcompÃ´z a
ĠcompÃ´z eus
ĠcompÃ´z Ã©ve
gre ter
ĠdÃ« s
Ġsal ut
Ġsal op
Ġpotch ante
Ġere tikes
Ġbuze a
Ġrco vri
Ġdoir mou
Ġod zeu
aca randa
ĠCop inreye
Ġasco xhe
ĠrÃ¥jhon mint
Ġmambor s
mou d
espr it
Ġskepi ance
Ġculture les
Ġnam urois
ĠrÃ© j
Ġronde a
Ãªr s
gna djes
Ġdisco viete
Ġrif uze
Ġrif jheut
Ġrast a
Ġrast Ã¥rdjÃ®
Ġrast amper
Ġasp alÃ©
Ġasp lani
Ġorgan isses
ĠXh ar
ĠXh of
ĠXh outsiplou
Re djon
air aedje
ĠÃ© re
Ġadier Ã§a
Ġcatch ive
Ġcatch ets
Ġfen Ã¨s
Ġfen icyin
Ġfen iches
ĠbÃ´ le
ĠbÃ´ lÃ®s
Ġim baras
Ġrai gra
Ġmaw eur
nixh eures
Ġfizi ks
Ġcomuni on
Ġpec lÃªyes
Ġrtour nÃ©ve
Ġahiv Ã©ve
ĠcodÃ¥ na
ĠcodÃ¥ nÃ©s
Ġdou Ã§mint
ĠdÃ® mÃ¨gne
Ġloye ye
Ġloye ure
Ġmed cÃ©ns
Ġton were
Ġton oere
Ġbel otmint
ĠbÃ´re at
Ġlite rateure
ĠwÃ¥r n
ĠwÃ¥r div
ĠÃī lesse
ĠÃī lis
Ġratch tÃªye
Ġega djeye
Ġpougn Ãªye
Ġredjon Ã¥s
Ġredjon Ã¥les
Ġacsegn ant
Ġcmand Ã©
Ġcmand mint
Ġcmand Ãªye
Ġmir lif
Ġbos ch
Ġrdj ib
ĠMan uel
ĠLuss imbordjwÃ¨s
ĠSer Ã¨
ĠdisbÃ¥ tchant
Ġrapo irteu
ĠNi est
ĠNi etsche
Ġshab otÃ®
Ġeva yi
ĠÃ¥rmon iom
Ġrashi aedje
Ġcrou fi
Ġemantch a
Ġemantch aedjes
Ġfranci jhas
Ġnorm Ã¥s
bot on
her tchÃ®
oes e
Ġrmet a
Ġrmet aedje
Ġrmet owe
Ġrprezint Ã©s
Ġrprezint Ãªyes
ĠLo ra
Ġaloum er
Ġaloum Ã¥cion
ĠAc wa
ĠAc lot
Ġrevint Ã©
Ġschoir ceye
Ġshonn Ã¨t
ĠBiet lete
BÃ©n rade
KÃ© cfeye
aw ous
eve kes
lat ion
Ġdur Ã©ve
Ġate le
Ġate lÃ©
Ġate lÃªye
Ġadje tes
Ġadje yants
Ġverd Ã¥sse
ĠMol ons
ĠMol do
ĠDiv ins
ĠDiv inltins
Ġoiz ires
Ġprot isses
vid Ã®s
ĠmÃ¥l feu
ĠEv lene
ĠNa ut
ĠDjib ralt
Ġledj irmint
Ġgay oles
Ġclaw Ãªyes
Ġclaw Ã©ve
Ġxhil tant
Ġmuch ete
Gu y
Gu ide
Gu illaume
PÃ¥r teyes
PÃ¥r tixhaedje
ĠØ ¨
ĠØ ·
Ġder ame
Ġran u
Ġpayiz an
Ġtchi ker
Ġnier on
Ġrespe cti
Ġespaitch mint
Pas k
trop ic
Ã¥jh minces
Ã¥li sse
Ġnature ls
leye m
Ġlim bordjwÃ¨s
ĠRou sselle
ĠNe vada
Ġtrait oe
ĠâĢĶ ,
Ġrshonn Ã©ve
Ġrshonn ance
Ġrshonn ances
Ġagran cixh
Ġtelef onikes
cla ss
hu in
ĠlÃ»te us
Ġaxh el
Ġaxh lÃªye
Ġaxh lÃ¥ves
Ġpiy an
Ġcinte mes
ĠfÃ´r lan
Ġrle ver
rof Ã´re
ĠMin istere
Ġost ake
ĠBay kon
ĠSou gnez
ĠAt las
ĠPat ton
ĠPat iniye
Ġdispi ete
ĠpÃ¥rlumint Ã®s
Ġschoy ant
Ġaco per
Ġepwez nants
Ġcromb yÃ®s
Ġcromb ireyes
ĠfÃ¥tch eus
ĠfÃ¥tch ive
ĠfÃ¥tch euse
ĠMarc elle
ĠMarc Ã¨l
ĠecrÃ¥ xhes
Ġrmou we
Ġrafoir cixhant
Ġuniviers el
Mar c
tis h
Ġpir reye
Ġdimo re
Ġmeu le
Ġtir Ã©
Ġtir aedje
Ġbar ons
Ġbar bÃ´
ita risse
ĠAnt artike
Ġriprezint Ã©
Ġriprezint ant
Ġreban aedje
Ġreban aedjes
ĠHer mÃ¥le
ĠNouve ye
Ġmetch ante
Ġapou gnaedje
Ġnaiv yinne
Ġberdel ant
Ġberdel aedje
Ġberdel Ã©ve
Ġdram atikes
cide yes
Ġplo ketes
tchÃ¥ sse
Ġfoy ou
Ġfiz icmint
ĠschÃ¥ yÃ®s
Ġbegu Ã©n
ixha il
Ġconf uzion
Ġconf uci
Ġahess eus
Ġahess ants
Ġrsint Ã¨t
Ġrsint ous
Ġcamp est
Pier dou
ĠdÃ¥r nisse
ĠpÃ» nixh
Ġcin eyasse
Ġmey naire
Ã¨f ants
dju ner
Ġrla ver
Ġgar gou
Ġgoz etes
Ġstat istikes
ĠCam ile
ĠhÃ´ teu
ĠPal Ã¥
Ġret roc
Ġtexh ous
ĠschoÃ»t Ã©nt
ĠVic twere
Ġwach isse
Ġroy Ã¥
Ġdrov Ã«
Ġdrov owes
Ġfaw s
ĠlÃ¥tch mint
ĠlÃ¥tch Ã©nt
ĠAnti kitÃ©
Ġstoca esses
ĠdifoÃ»t rins
ĠacsÃ»t s
Ġadministr atives
Ġsignor reyes
ĠmacsÃ¥d Ã©
ĠmacsÃ¥d er
Ġapoirt Ã¨t
Ġapoirt Ã©ve
Ġcu lote
ĠcÃ´r in
Ġke pi
Ġfre xhes
Ġfre cwÃ©nce
Ġrd ressÃ®
Ġdjind Ã¥mreye
rik inne
Ġtchic ter
Ġtchic tÃ©
Ġstitch etes
ĠAs fi
ĠAs noe
ĠAle gz
Ġcari ma
Ġcari ole
Ġmauj ones
ĠRÃ© gis
ĠHout on
guer ite
Ġassaz ene
ĠrapoÃ» ler
ĠrapoÃ» laedje
ĠrapoÃ» lÃ¨t
ĠBork ins
Ġprotest ante
Sic rijheus
Sic rijhaedjes
cer Ã®ye
gh t
Ġamed eu
Ġmand aye
ĠtrÃ® xhe
Ġtab eur
Ġfur maedje
Ġbwe jhe
erv elde
Ġdjey or
ĠgrÃ¥ de
ĠgrÃ¥ ces
ĠLey a
ĠBot on
ĠSe igneÃ»r
ĠSp rimont
Ġspir it
Ġcomand mint
Ġbrouw et
Ġcouyon Ã¥des
Ġrcla mes
Ġrclam Ã©
Ġrclam Ãªye
Ġcham pi
Ġdecid Ã¨t
bite re
gran ds
Ã¡ n
Ġsg ondes
Ġcriy Ã©nt
Ġbu ker
Ġgla winreyes
Ġlame les
Ġob tin
ĠSim one
ĠPe kin
ĠPe pin
ĠPer on
Ġtoir d
Ġcah outes
Ġcav ales
ĠTra itÃ©
ĠTour keye
ĠNor th
ĠIrak yins
Ġadop tÃªye
Ġegz am
Ġegol ine
Ġindj Ã©ns
Ġcondicion ele
Ġcondicion euse
Ġrsaetch a
ĠtoÃ»r nÃ©
ĠtoÃ»r ner
Ġmartchande ye
Ġspeci Ã¥le
Ġspeci Ã¥l
Ġspeci Ã¥les
Ġraloye yes
Ġaparey s
Bou ne
Bou le
Rilom ÃªyÃ¨s
dim win
pÃ´ y
à¦ ¿
Ġmun ujh
ĠkÃ©n ket
ĠkÃ©n kets
ĠbÃ¥r aedje
ĠbÃ¥r bea
Ġbour sea
Ġbour sete
Ġbrey Ã¥ds
Ġespl Ã´z
Ġdjint is
Ġavant aedjes
Ġparexh Ã©nt
war yin
war tÃ®
Ġtchab ot
olo gie
ĠocÃ¥z ions
Ġaloy a
ĠBos ret
ĠSic rijheu
ĠPi ere
ĠPi roe
ĠPet in
Ġridj h
Ġridj ondÃ¨t
ĠFi at
ĠmÃ¥jh inete
Ġmarixh Ã¥s
ĠGabri elle
ĠrelÃ® te
Ġvoer oz
ĠÃ¥rmen yins
ife cht
ĠtrÃ» tchete
Ġtourni ker
Ġconoxh ance
Ġramon Ãªye
ĠredjÃ¥r bÃ©
Ġbrouh Ã®
Ġbrouh ene
And ersen
Indust reye
Mo rance
Mo dele
Plae Ã§mint
aÃ® radje
cwa trinme
Ø§ ÙĦ
Ġinde cse
ĠsÃ¥rt aedje
ĠpÃ¥t letes
Ġcli cotes
Ġtran se
Ġtind eus
Ġfac teurs
ĠbÃ¥z Ã©
ĠbÃ¥z le
ĠbÃ¥z like
Ġbey Ã´les
Ġblo k
Ġblo ks
Ġcoli d
Ġlik eur
ĠMal tusse
Ġaloye ye
ĠFer raris
Ġurope yins
ĠTat Ã´ye
ĠTur ks
ĠWil hel
Dju djmints
ĠJac que
ĠpÃ¥l mÃ®s
Ġevoy aedjes
Ġdman ou
Ġgaye le
Ġgaye tes
Ġgaye les
Ġamid rÃ©
Ġcoujh nire
Ġcrev Ã¥de
ĠDiale ctes
Ġpouss ire
Ġgovier nance
Ġhertch eus
Ġhertch ive
Ġfrica ssÃªye
Ġdoirm Ã¨t
Ġdoirm oz
Av Ã¥r
Dim orants
pp elle
vel t
ÅŁ e
Ġloc Ã¥
Ġloc Ã¥s
Ġela stike
ĠbÃ© dÃ©
ĠbÃ© ton
Ġesper yinces
Ġstrou kÃ®
ĠBier zet
ĠSÃ¥ verdea
Ġhi ed
Ġhi kets
ĠPar k
ĠPar intÃªye
Ġdisdj urer
Ġdispl is
Ġscre pe
Ġriwait ants
Ġcapit inne
Ġcapit Ã¥le
Ġcapit alisse
Ġrahou c
ĠRab ulets
ĠTrou k
ĠDjud Ãªye
Ġbouteus e
ĠVol taire
Ġfroum aedjes
Ġzing lÃ©
Ġabwess ons
Ġsitr inde
Ġsitr Ã»ler
Ġhoup tiket
Ġ170 8
ĠimpÃ´rt ants
ĠimpÃ´rt ante
Ġgruz iner
Ġedvin ter
Ġrafroe dixhmint
Ġashid s
Ġsofrixh ance
Ġsofrixh ances
ĠassoÃ§ nÃ©
ĠassoÃ§ naedje
Sa int
Vi Ã¨
aut o
cins Ã®
pri yesse
vÃ©n rdi
âµ ı
Ġpinte ure
Ġeu xhe
Ġeu cariotes
ĠcÃ© coreye
Ġcac lin
Ġcac ame
ĠfÃ¨ yes
ĠvÃ´te us
ĠrÃ¨s pond
Ġroum atisses
Ġroum doudoum
Ġrwey Ã¥mes
ĠMel kebe
Ġstrim Ã©
ĠBau ffe
ĠCara cas
ĠCara basse
Ġmopli yaedje
ĠscrÃ® re
Ġrimet owes
Ġridiv na
Ġtoco e
Ġrah oukÃ®
ĠRoz ire
ĠRotch Ã´
Ġcwer aedje
ĠHal eu
ĠHab ets
Ġmili ces
Ġmili metes
Ġspor ons
Ġschay ires
Ġschay teu
Ġadvier bire
ĠzÃ¨ les
ĠOu lad
ĠOst razeye
nouv inme
Ġcoul mele
ĠsipÃ¥rd owe
ĠsipÃ¥rd ous
ĠBruss ela
Ġdecla rÃ©
Ġrascod owes
Ġpurd oz
Ġdismantch Ã¥ve
Ġdress ive
ĠdÃ®j in
Be acÃ´p
Col as
Cla ss
Lin ux
Tou risse
fel mint
nic k
su djet
Ġsuz on
Ġsuz iner
Ġsbar Ã©
Ġsbar ant
Ġpwez ons
ĠeÃ» wes
Ġtor leuse
ĠvÃ» de
Ġrmont Ã©ve
Ġdjen itif
Ġavinte ure
rovin Ã§Ã¥
ĠsoÃ§ one
Ġsopo ite
ĠDic Ã¥
ĠBin amÃ©
ĠBaud uin
ĠBaud huin
ĠBulg Ã¥res
ĠCre dit
ĠSte inwe
ord eum
Ġrilo per
ĠmÃ¥v is
ĠmÃ¥v lete
Ġanal y
Ġanal ijhes
Ġdivoir Ã§aedjes
Ġfiv linne
Ġfiv reuse
Ġbag aedjes
Ġbag ance
Ġacma xhÃ®
Ġmwaist ri
Ġpeze a
Ġcorespond Ã¨t
Ġ180 1
Ġ180 6
Ġsito ca
Ãħd zeu
Ãħd foÃ»
Ġtriy olet
ĠAng ola
Ġdiyacr itike
shijh inme
Ġveterin aires
Ġelectron ike
Ġrefoir ci
Ġrefoir cÃ®
Ġtchestur lins
Cat alogne
Ġ'' '
Ġdama djes
Ġarindj Ã¨t
Ġske pÃ®
ĠsÃ»te yes
Ġtac son
Ġtomb ales
Ġbene dictene
ĠvÃ¥r let
Ġrp int
Ġrp rod
Ġetrin nÃ©
Ġetrin nÃ©s
Ġdoct oresse
ĠgrÃ© ves
Ġgland s
ĠLam bert
Ġomon imeye
ĠCas bor
ĠCour cele
ĠCast ro
ĠPond lÃ´
omic Ã´ze
Ġtromp er
Ġrepet Ã©
Djer Ã¥d
Ġmoud rÃ©
Ġamou gnÃ®
Ġamou reus
Ġraspe pyÃ®
Ġtronn mint
Ġgue Ã»ye
Ġpardon e
Ġpardon er
Ġtraw Ãªyes
Ġtraw ÃªyÃ¨s
Ġcher bene
Ġaron dixhmint
Ġperio de
Ġtchaf ter
ĠmÃ©de cin
Ġdislaxh iveus
Ġfonet ikes
Ġfonet icmint
ĠcerÃ© jhe
Ġinteress Ã©
Ġindustri ye
Ġasblaw is
Ġzoup lÃ©
Ġcanton Ã¨s
Mat Ã®
Mat ante
PÃ´ ve
PÃ´ reut
Te monaedje
part ot
vÃ¨ que
Ġwe kene
Ġsb oir
ĠsÃ¨t ch
ĠsÃ¨t chi
ĠsÃ´rt ou
Ġput oit
ĠkÃ©nt osse
Ġkert ons
Ġoni est
Ġcosse mer
Ġcofrereye ye
Ġgot ire
Ġsimb ole
Ġsimb oles
ĠMen on
ĠMoz art
ĠMoz ambike
ĠDar win
ĠLon zÃªye
ĠBol iveye
ĠBat out
dite Ã»r
ĠSam winne
ĠPÃ® ce
Ġrari ver
Ġrapr otchÃ®
Ġrapa rexhe
Ġrapa uj
ĠTer monde
Ġregu lirmint
ĠEgzim pe
ĠNÃ¥cion Ã¥
Ġbosse ne
Ġsaw ri
Ġniy Ãªye
Ġniy Ã¥d
Ġscher pene
Ġscher piner
Ġacoir dÃ©
Ġcompli mints
Ġleve ÅŁe
Ġabuv roe
Ġclou ct
Ġaronde ye
ĠChar lier
Ġforma gnants
Ġbrouy ire
ĠraloyÃ® s
Ġinflu winces
Ġpretch mints
Ġfilozofe yes
cÃ©nk inme
Ġdizot rin
FranÃ§ wÃ¨s
Ġretour Ã©
Ġretour Ãªye
Ġdistrujh aedjes
ĠWilliam s
ĠcoignoÃ» lÃ®s
Na poleyon
cre pe
cel tike
hem um
ĠcrÃ® nÃ¨t
Ġdisto ker
Ġbrac nÃ®
Ġvwete ures
Ġrg ret
Ġrg rete
Ġcoc cideyes
Ġpole nes
Ġpomp Ã®s
raf oir
ĠMam bor
ĠDani elle
Ġstri me
ĠBurt ons
ĠCole dje
ĠAss imblÃªye
ĠPan ama
ĠPan zerfaust
ĠPort ugal
Ġdisdjo ker
Ġdisdjo kÃ©
Ġmarok inne
ĠGust Ã¥ve
ĠTche keye
Ġcie dje
Ġcil inde
Ġrezist ance
Ġrepubli kes
Ġboc Ã¥s
Ġboh Ãªyes
Ġsak ants
Ġsak wÃ¨
Ġspan is
Ġboubou ne
Ġboubou nes
ĠVand ervelde
Ġprumi oÃ»le
Ġcomm une
Ġvolont aire
Ġatmos fere
Ġcrom oz
Ġapre pyÃ®
Ġmannixh ance
Ġaber teke
ĠpiÃ¨r du
Ġsindic at
ĠdiscÃ´pe Ã§aedje
Ġotor itÃ©s
Ġotob usse
Ġafront Ã©
Ġdschind ants
ĠtÃ©l feye
Ġcamion ete
Ġcamion etes
Ġflor it
ĠbÃ¥b imene
ĠdispÃ¥r teye
ĠColomb in
ĠÃĶr vÃ¥
Ġadjer malÃªye
Ġdzot rins
ĠprÃ´piet Ã©s
ĠVirwin vÃ¥
Ġoridje nes
ĠmirÃ¥ kes
Ġloign reye
Ġgreviss Ã©nt
ĠredjÃ¥rb aedje
Ġcolibac iles
Ġcolibac ilÃ´ze
Wallon nes
Wallon ie
Da vid
Prov ince
Riv nou
Sin onimeye
Sac ramint
Th om
Vir oux
Ã³ n
Ðº Ð¾
Ġlur son
Ġlum Ã§on
Ġsey ance
Ġeh owe
Ġepr ont
Ġepr onter
oun di
Ġdih oter
Ġmele a
Ġfont innes
Ġflam itche
Ġbre les
ĠvÃ« ladje
ĠvÃ¨r di
Ġrbat ijhÃ®
Ġesplo reu
Ġcolo dion
Ġcoma xhÃ®
roman ia
ĠDer bu
ĠBet leyem
ĠCele bici
Ġvica ire
ĠSing ulÃ®s
Ġpres bitere
Ġhon gue
ĠPac ifike
ĠPeter hansel
ordin aire
Ġscle yi
Ġscul teures
Ġriwer ixhÃ¨t
Ġcaz ere
Ġrafi yive
ĠRif ondaedje
ĠGau lle
ĠTor valds
ĠTrans ilv
ĠWer bes
ĠsolÃ¥ cyÃ®
Ġrem antchÃ®
ĠschÃ¥l ance
Ġact ouwalitÃ©
Ġada wiant
Ġadap tÃ©s
ĠÃ¥rgu dinnes
Ġwaid yÃ®
Ġrodj Ã¥sse
Ġmoust atche
Ġped ale
ĠaporÃ§ Ã»t
Ġcorwait ant
Ġcandja xhe
ĠKa hina
Ġbonmar tchÃ®
Ġtcherpet Ã®
Ġrsch eure
Ġbotan ike
Ġbotan icmint
Ġafro yaedje
ĠaflÃ¥ wi
Ġsouf is
Ġetertin ou
Ġmolon Ãªye
Ġrespir aedje
Ġhagn ante
Ġgroumi ote
Ġaclev aedjes
Ġmicros cope
ĠScla ssin
Ġraviz Ã¨t
Ġdjalof rene
ĠÃ¥bson eu
Ġtanf ler
Ġekip mint
Ġtourniket reyes
Ġzigza guigne
ĠGodfro ed
Ġambassad eur
AdjinÃ§ na
Bast in
MÃ¥r ciene
Ta o
blo ks
izo le
pic Ã¥rd
Îµ Î
æ± ī
æ± Ł
Ġq wÃªre
Ġdet ays
Ġdza w
ĠarÃ¥ vler
Ġsy int
Ġswess ante
Ġech Ãªpe
Ġedji ps
Ġemoen ner
ĠehÃ¥ yÃ®
ted t
Ġmitch ots
Ġmitch otreyes
Ġfey od
Ġbland oÃ»
Ġbland oÃ»s
Ġralon guixhmint
Ġrbout Ã©
Ġrglat ixh
Ġetcher p
Ġetcher petaedje
Ġcof esse
Ġpoer Ã®
Ġkisch eure
Ġgon f
Ġpale ces
Ġsiba rante
ĠMas bor
Ġlaw ri
ĠLot aire
Ġali mints
Ġalint oÃ»s
ĠplÃ´ ke
ĠplÃ´ kes
Ġmor f
ĠPres gÃ¥
ĠFlo rene
Ġcale nd
Ġcaus er
ĠmÃ¥ssÃ® te
Ġmateri Ã¥
ĠLimer o
ĠLimer os
ĠTam Ã¨ne
Ġred accion
Ġrect om
Ġrefa xhe
Ġboss ou
Ġspla w
Ġspla ca
Ġenoc in
Ġenoc ins
ĠschÃ´p iaedje
Ġschoum rece
Ġacost umance
Ġwas let
Ġcompet inces
ĠbrÃ»t leus
Ġcroyixh eusÃ¨s
ĠOb servatwere
ĠOmof oneye
Ġcorwaite u
Ġcorwaite us
Ġmanif esse
Ġmargay Ã¨t
ĠKe bek
ĠKÃ© cfeye
Ġtoursi yaedje
Ġsup Ã´ze
Ġdisclo ynut
Ġsondj Ã¥d
Ġminimom s
ĠBail eu
mÃ¥jhon e
Ã«k Ã«
ĠCham se
ĠChap elle
Ġxhor bi
ocs ide
ĠaujÃ® y
ĠaujÃ® ymint
ĠmÃ¥lÃ¥jh minces
obac tereyes
Ġcrist al
Ġbrict reye
Ġbrict reyes
Ġgrav itÃ©
ĠradoÃ» cixhant
ĠotostrÃ¥ de
ĠotostrÃ¥ des
Ġbrost ions
Ġrissint ou
ĠViet nam
Ġvaccin aedje
Ġâµ ī
Ġbindd imÃ¥djes
Ġalgori sse
Flori an
Res ploe
Roz ire
Xh outsiplou
cron zo
ipe pieuzmint
mwere yes
sist inme
tro kes
åŃ Ĳ
è¯ Ń
Ġdot ances
Ġpince a
Ġpane a
Ġcse mÃ©
Ġcwe reut
Ġcran keye
Ã¨che Ã»r
Ġvuz lÃªye
Ġnour it
Ġrdje ter
Ġrwer ixh
Ġdjant Ã®
Ġdjene tike
Ġgreye yes
Ġgerman ica
ĠMuz ulmans
ĠwÃ´t ur
ambou l
Ġalpin isses
ĠBov esse
ĠCÃ© lestin
ĠCodjo waedjes
ĠSau v
Ġprati kÃ©
Ġhonte uzmint
ĠAron dixhmint
ĠPot hen
ĠPÃ´ cet
vic Ã¥reye
Ġsca waedje
Ġridob ler
ĠFra iteure
ĠFla minde
Ġragre gnÃ®
Ġmagri yetes
ĠGli ese
ĠLiber Ã¥cion
Ġannu wele
ĠandoÃ» ler
Ġtroy reyes
Ġrenai ri
Ġrewoey ive
ĠNu vele
ĠNan ete
Ġsau ce
ĠMauj one
Ġscho ver
ĠschÃ¥ye yes
Ġacwa ti
ĠVande reuse
Ġway im
Ġwaro kea
Ġrodo do
Ġziver cÃ´fs
Ġzivem bordjwÃ¨s
Ġbront ches
ĠpeÃ» mons
Ġapet it
Ġaprandj ire
Ġaboct Ã©
Ġpiti Ã©
Ġracro lÃ¨t
Ġracat uzer
ĠTchai rire
Ġcanic ules
Ġcrey Ã¥cion
ĠUz aedje
Ġtropic Ã¥s
Ġdiscla per
Ġclitch et
ĠarnÃ¥ jhes
Ġinspe cteur
Ġmesbri djÃ®
ĠYv on
ĠAnat ole
ĠpÃ¥ste djreye
Ġmeyeumar tchÃ®s
ĠBouxhon veye
ĠrÃ´b aler
ĠrÃ´bal eu
Ġbalzin Ã©
ĠBalk ans
Ġbrib eus
Ġcotin ouwer
Ġbiyotchim ike
RiwaitÃ® z
Ġospi ces
ĠAdri yin
ĠOrto dosse
Ġistor yins
Ġdizeut rinne
Ġronf lant
Ġrdingu Ã©
ĠcÃ©ru djin
ĠfÃ¨ni Ã¨sse
ĠmÃ¥hait is
ĠPortu guÃ¨s
Ġaconco istÃ©
Acle vaedje
Bout ans
Dam aedjes
Mart in
NL G
Tib Ã®
Vie bes
Wi kipedia
crou fe
cnoxh eu
cali pe
gic ismes
Ã¿ e
á¸ ĳ
ä¸ Ģ
Ġyant inme
Ġdri glÃªye
Ġsme les
Ġditermin Ã¥cion
ĠmÃ¥rt ire
Ġfesti val
ĠbÃ©nt oit
Ġnic naks
Ġrum atisses
Ġrpi ker
Ġ(? )
Ġespont anÃ©s
Ġcopet inces
Ġliga teures
Ġparoe jhe
cefal ite
ĠtchÃ¨s tia
ĠMats uo
ĠMyco plasma
ĠalÃ¥r djixh
Ġaloume tes
ĠBB C
ĠBS LLW
ĠBabil one
ĠCri kion
ĠCere xhe
Ġvig reus
ĠSpont in
Ġhos mint
Ġhist ous
ĠPwet ou
Ġdisfa f
Ġdisplae cÃ®
Ġsclim bes
ĠFid el
Ġmaz oute
Ġmass eurs
ĠRilom Ã©s
ĠGla cerÃ®ye
Ġanixh iler
ĠcwÃ¥t ron
Ġrepla ide
ĠNer uda
ĠNap ol
Ġbiyon axhe
Ġnich tÃ©s
ĠDjenerÃ¥ le
Ġenai ri
ĠIst amboul
ĠInt rez
Ġschale te
Ġfrancop rovinÃ§Ã¥
Ġfrancispagn ole
Ġacro stitche
Ġactin omicÃ´ze
ĠVire u
ĠVni jhe
ĠVoc abulaire
ĠVigne tte
Ġaswa djÃ®
Ġefou fi
Ġzingu ezel
Ġgag Ã¥z
ĠsÃ´t ler
ifi ance
ĠTchÃ´ fontinne
ĠTchand leuse
Ġsicri banne
Ġinz otike
Ġsuber oes
ĠDieu donnÃ©
Ġcalc aeje
Ġcland estins
Ġrampon o
ĠbotroÃ» lite
ĠemÃ®t rinnes
toÃ»r de
Ġrisc rÃ®te
Ġpicote use
Ġecosist inmes
Ġsacri fiaedje
ĠÃ¨sp Ãª
ĠrÃ¥p Ã©n
ĠrapÃ®Ã§ tÃªye
ĠCalifor neye
Ġcaft ire
Ġdiya mete
Ġdiyam ants
Ġdistcher djÃ®
Ġwaerante ye
Ġspect ake
ĠMiousse f
Ġbiyov aryÃ®stÃ©
ĠMezopot ameye
Ġdismacr aler
Ġhepi ete
Ġelectro magne
Ġdzeut rin
Ġcabin ets
Ġtranslat aedje
ĠClaud ine
Ġgarga sson
ĠSebasti an
Ricnoxh ance
ĠfricassÃ© ye
ĠFreder ik
ĠfrÃ¥jh Ã»le
ĠLefeb vre
Ġtubercul Ã´ze
ĠÃ´rimi ele
Ġtiestic ures
Avan Ã§mint
Abro caedje
Clas mint
Conse cwinces
Dom ingue
Luss imbork
Muz eure
Rice te
StÃ® le
Tena wete
Uni on
cni dÃ®s
cav are
clin Ã¥jhon
dli ssÃªyes
kw ondo
lol Ã´
mil itÃ¥re
ÄĲ okovi
éŁ ³
Ġlint ile
Ġauz Ã¨s
Ġadjo kÃ©
Ġpure ure
Ġeli cop
Ġedo ime
Ġeven mint
Ġcimit ire
Ġdicti onnaire
Ġting lÃ©ve
Ġkha gn
Ġfos fÃ´re
Ġfni esse
Ġbran ches
Ġbreye ut
Ġrwin Ã©
Ġestrem isses
Ġcowal icion
Ġglin disse
ĠtchÃ©nt chÃ©ns
ĠMouve ment
ĠDilÃ© rins
ĠDzir Ã©
Ġopen SUSE
ĠstÃ¥m usse
Ġalban Ã¨s
ĠBiy olodjeye
ĠBud ap
ĠBoc linville
ĠBerd elaedjes
ĠBoit te
ĠCmans ter
ĠClij sters
dict ins
Ġviert ires
ĠSourd ant
ĠSingu liers
ĠSAB AM
ĠSÃ¨gne Ã»r
ĠSotti aux
Ġnocr Ãªs
ĠAvr esses
ĠAbi djan
gnouve ye
ĠPil Ã¥te
ĠPandj Ãªye
Ġscrin Ã®s
Ġscorb ute
Ġrigo don
ĠFacul tÃ©
Ġmagr ites
ĠGans u
ĠGlan foÃ»
ĠGlim tÃ®s
ĠGoli ate
ĠHau waert
Ã´piet Ã©s
Djeyo graficmint
Ġbibl ots
Ġspoz er
ĠMaub euge
ĠDjÃ´s Ã¨f
ĠIgnazi o
ĠVier zi
Ġepice ya
Ġepoirt Ã©
Ġdema rer
ĠdeÃ»zy inme
guign ons
codjo waedje
ĠprobÃ¥ blumint
Ġtipo grafeye
Ġtipet ape
Ġzigue za
ĠatÃ¥ve le
Ġpect Ã®
Ġdirect umint
Ġaplou re
Ġaprovi jhÃ®
ĠOult re
Ġamnis teye
Ġabaci Ã¥le
ullet in
Ġmonote yisses
Ġquaus u
ĠKost row
Ġsinistr Ã©s
Ġdisconse ye
Ġcourtin nmint
Ġchrap nels
ĠBauthi Ã¨re
tÃ©ph ane
ĠChry sant
Ġforteu ne
Ġfordjet aedje
Ġtrimb lene
ĠLehai e
ĠFrancofon reye
Ġingredy ints
ĠYsa Ã¿e
ĠYoug osla
Ġoffic inalis
Ġfalbal as
Ġtazot as
ĠMouza ive
ĠZiven bork
ĠRoose velt
ĠSichu an
ĠSombre fe
ĠdiffÃ© ren
Ġradmar Ãªye
ĠhÃ¥ynet mint
ĠOtrich yins
ĠDescar tes
ĠRaham na
ĠÃīlesse ne
ĠDjibralt ar
ĠBaykon our
ĠbarbÃ´ jhe
Ġconfuci anisse
ĠMelkebe ke
ĠSteinwe g
ĠCelebici han
ĠTransilv aneye
ÄĲokovi Äĩ
! Â»
) ).
) ),
) ",
) ''
) -.
, .
- ).
. );
. âĢĿ
/ ;
/ ),
0 7
0 61
3 19
3 20
3 28
3 48
3 75
3 270
3 179
4 15
4 25
4 30
4 65
4 66
5 22
5 94
5 44
5 80
5 67
6 20
6 10
6 14
6 13
6 26
6 30
6 70
6 68
6 35
6 96
6 93
6 77
6 44
6 46
7 18
7 00
7 12
7 70
7 68
7 35
7 34
7 64
8 50
8 40
8 60
8 70
8 43
8 69
9 24
9 25
9 30
9 45
9 94
> (
A I
A T
A U
A w
A le
A ri
A st
A ut
A is
A pr
A li
A id
A ma
A wÃ¨
A hin
A sto
A mer
A ron
A zeye
A mb
A cc
A gr
A djer
A lain
A gnesse
A part
A iwes
A schoÃ»te
A tincion
A ppelle
B B
B R
B an
B os
B il
B etch
B Ã¥le
B ay
B ijhe
B elÃ¨s
B ea
B iet
B urt
B erna
B ref
B ern
B rel
B ando
C dj
C am
C and
C ons
C uz
C esses
C ap
C av
C atch
C Ã´re
C Ã´pe
C az
C lÃ´
C he
C oleur
C ali
C lÃ´s
C rupet
C limat
D A
D L
D ro
D ic
D if
D ier
D oir
D aye
D ate
D iccion
D ofe
D ec
D inant
D iccionaire
D utcheye
D urant
D oug
D aph
D EP
D WE
D oppagne
E li
E viÃ¨
E poirt
E veke
E ug
E hÃ¥yaedje
E urope
E vekes
E lÃ©men
E hÃ¥yÃ®
F e
F o
F y
F at
F ar
F lo
F ond
F au
F ab
F ris
F lam
F ram
F ontaine
F lipe
F aut
F leuru
F ern
F DL
G r
G er
G ot
G ra
G ar
G rÃ¥
G oz
G il
G ust
G od
G oet
G ym
H E
H H
H a
H e
H o
H in
H Ãª
H ab
H av
H oul
H eli
H ancre
H Ã©l
H ordeum
I H
I X
I ye
I st
I pocal
J im
J uni
J ules
J ulos
J uli
K E
K at
K Ã«
K ara
K ame
K ong
K idujhance
L E
L an
L Ã´
L at
L am
L ete
L eye
L wÃ¨s
L djÃ®
L etes
L ai
L ong
L Ãł
L ovin
M L
M eu
M el
M im
M ous
M iy
M oy
M Ã¥m
M oul
M olaedje
M ost
M uzÃªye
N N
N d
N Ã®
N um
N iv
N ole
N ote
N ann
N etscape
O K
O f
O te
O ri
O Ã»
O ut
O ran
O vr
O Ã»te
P B
P ot
P ri
P out
P lo
P tit
P rin
P ap
P lan
P otch
P ice
P inse
P lam
P riy
P ea
P rof
P ablo
P Ã¥lene
P itite
P Ã«t
P ays
P luriyal
P insÃªyes
R os
R ap
R oum
R ime
R iss
R oc
R mey
R oland
R Ã¥lmint
R esp
R elÃ®
R TBF
R Ã®les
S F
S M
S on
S te
S eu
S et
S us
S Ã¥r
S oÃ»
S im
S eur
S inne
S id
S onne
S ab
S wer
S oir
S aye
S Ã¥v
S ad
S hi
S ta
S Ã¥m
S ayes
S tiene
S crire
S chaver
S ambre
S NLG
T G
T P
T r
T an
T el
T ri
T im
T our
T or
T ome
T ier
T em
T hy
T ouwaedje
T tossu
T onea
T ML
U s
U y
U rope
V I
V Ã©
V wÃ¨s
V Ã¥t
V resse
V oleur
V incent
W is
W il
W ill
X ham
Y ves
Z a
Z im
a in
a on
a we
a reye
a ver
a vier
a wousse
a djinÃ§
a rante
a dire
a gr
a wÃªye
a rem
a gaz
a xe
b n
b ins
b Ã¨s
b Ã»
b aedje
b we
b en
b ure
b Ã´r
b wÃ¨
b win
b eure
b ab
b rÃ©
b ots
b oe
b art
b Ã¥rs
b osse
b oke
b rÃ¥mont
b illon
b Ã¨res
b ocs
b Å«
b Ãªrt
b ocsi
c n
c Ã¨
c Ã¥r
c eus
c ci
c our
c Ãªyes
c ond
c inde
c oz
c yin
c Ã¥d
c eure
c ers
c ru
c wer
c ots
c eles
c teye
c lete
c ini
c euse
c Ã¥v
c atche
c cÃ´
c rev
c ande
c res
c laedje
c yinne
c ane
c tene
c teus
c amp
c laire
c rat
c imont
c ondes
c Äĥ
c weri
c atisse
c lÃ´s
c lÃ´re
c urÃ©
c wince
c ken
c teuse
c riya
c itron
d z
d re
d ro
d ir
d ol
d at
d inme
d yÃ®
d Ã©s
d rÃ¥
d Ã©ve
d Ã¥l
d ots
d un
d yins
d ron
d ites
d fi
d ingue
d eux
d roete
d yisses
d ress
d rap
d vÃ©n
d rome
d ujhances
d ujheu
d ujhÃ¨t
d dimwin
e on
e al
e vi
e jhe
e ves
e mon
e cher
e plaid
e hÃ¥ye
e plaeÃ§mint
e Ã»re
e wÃ¥de
f aedje
f ve
f esse
f id
f ler
f etch
f ijh
f ive
f leur
f rÃ©
f one
f reyes
f lou
f ist
f iz
f lamind
f ront
f lets
f lu
f Ã´rt
f ani
f aneye
f oice
f rumint
f Ã´mes
f ouye
f oyes
f leuve
f jhance
f wadje
f iletike
g g
g y
g in
g wa
g at
g yÃ®
g out
g ere
g oz
g Ã¥s
g ru
g ade
g Ã¥cion
g ote
g ots
g ts
g otes
g ga
g bi
g rope
g ha
g Ã¥cions
g ama
g aeye
g iter
g olete
g ister
g ener
g Ã¼
g olene
g omicetes
g eyevitch
h j
h t
h et
h Ãª
h ut
h yÃ®
h ire
h and
h eye
h ome
h oz
h ous
h onte
h ale
h ap
h ard
h man
h Ã¥re
h ez
h Ã´te
h eurs
h ogne
h ttp
h Åį
h ington
i h
i i
i ri
i mint
i Ã©nt
i um
i ene
i Ã¥de
i per
i ber
i Ã¨r
i eurs
i gnon
i gneur
i ges
i oÃ»les
i aca
i ela
i acus
i acas
j k
j in
j an
j Ã¨s
j eus
j ite
j ole
j anvÃ®
j Ã©r
j Ã®ye
j ito
j Ã¶r
k g
k le
k ing
k ov
k ai
k euse
k ÃªyÃ¨s
k bar
k ka
k kel
l Ã»
l ess
l ans
l ver
l otÃ®
l yins
l Ã»te
l Ã¨r
l Ã´z
l umont
l ÃªyÃ¨s
l lus
l inea
m s
m w
m Ã¨
m our
m or
m out
m Ã©ve
m uz
m ing
m ante
m na
m ier
m ales
m eures
m ie
m iz
m winne
m arin
m illa
m ule
m Ã´zes
m atikes
m Ãªs
m Ã¥rtÃ©n
m ael
m essaedje
m strong
n v
n y
n an
n at
n oÃ»
n di
n our
n reye
n ans
n ru
n itÃ©
n antÃ¨s
n umint
n Ãªre
n reces
n za
n Ã¥ds
n aud
n Ã¥ltÃ©
n onke
n voye
n irer
n insk
o ch
o be
o kes
o id
o pu
o caedje
o reyes
o des
o cen
o randje
o dikes
o ËĲ
o ciation
p an
p le
p int
p pe
p our
p eur
p esse
p ti
p wÃ¨s
p ite
p isse
p nut
p yi
p id
p ler
p onte
p etes
p Ã¥s
p ers
p tÃ®
p Ã®t
p onde
p rijhe
p Ã®ye
p rov
p acÃ´
p rof
p intes
p rodÃ»t
p Ã¢rde
q ara
r s
r ae
r al
r ous
r Ã©ns
r tÃ®
r Ã´ze
r din
r ates
r wesse
r alitÃ©
r alis
s Ã¨s
s us
s oÃ»
s ac
s ike
s av
s tea
s ince
s eles
s Ã´res
s kepyÃ®
s aye
s ourd
s ouwer
s cha
s adje
s mÃ¥le
s bourg
s crin
s aveur
s chaver
s crip
s tedt
t l
t Ã¨
t ind
t ing
t ome
t Ã´r
t ru
t ris
t ote
t ances
t resse
t rib
t uzer
t ireyes
t omic
t hieu
t uzaedjes
t imps
t riyingue
u p
u er
u wa
u yÃ®
u ter
u che
u djÃ®
u pi
u vant
u wÃ©
u vion
v d
v is
v ac
v eur
v rece
v au
v lÃ©
v Ã©ns
v oy
v eles
v itÃ©
v atche
v Ã´te
v rans
v ites
v ane
v reces
v aedj
v iron
v risse
v uwe
v euses
v ana
v euzmint
v reÃ»t
v lÃ¨
v wÃªr
v Ã´zÃ©
w n
w is
w Ã®s
w Ã¥d
w tere
w tant
w ta
w etÃ©
w son
w Ã¢rd
w issin
w ick
w oyisse
x t
x y
x ic
x ia
x ast
y t
y x
y te
y me
y le
y ri
y st
y os
y am
y as
y or
y ces
y Ã©ve
y inte
y reut
y lÃªye
y oe
y to
y nt
y ad
y atike
y gon
y tÃ®s
y rum
y Ã¡
y tri
y Ã¨res
y avane
z z
z Ã´
z al
z Ãª
z mint
z os
z ra
z ac
z Ã©s
z Ã©ve
z isse
z ner
z ive
z eles
z Ã´ne
z Ã¥rder
© ±
® éĢ
° ur
¹ ÐºÐ¾
¼ éŁ³
¿ ener
¿ ÏĤ
Ã °ur
Ä Ĺ
Å ¿ener
Ê Ģ
Î £
Ï ĥ
Ï Į
Ð ±
Ð ¿
Ð Ŀ
Ð ĳÐ°
Ð ¹ÐºÐ¾
Ñ ĥ
Ñ ĩ
× Ļ
Ø ²
Ù ĩ
â ´
â ģ
â Ł
æ ³
æ ĭ
ç Ļ½
è ©±
Ġ Ú
Ġ è
Ġ Ã»
Ġ 98
Ġ 97
Ġ were
Ġ 99
Ġ ine
Ġ 43
Ġ 69
Ġ 49
Ġ 86
Ġ 56
Ġ 000
Ġ 230
Ġ 62
Ġ 255
Ġ Ãªtre
Ġ 680
Ġ 232
Ġ 262
Ġ 355
Ġ 941
Ġ 341
Ġ 367
Ġ 333
Ġ 442
Ġ Î±
Ġ äº
Ġ xheyes
Ġ Ãªwe
Ġ olandesse
Ġ ÅŁi
Ġ á¸ĳ
Ġ ÄĲokoviÄĩ
Ļ ®éĢ
ľ Ð¸Ñ
Ł ¨
Ń a
Ġd b
Ġd c
Ġd g
Ġd h
Ġd eu
Ġd Ã©n
Ġd me
Ġd us
Ġd ont
Ġd la
Ġd ouw
Ġd vint
Ġd Ã»t
Ġd wÃ¨
Ġd ous
Ġd pu
Ġd rÃ®t
Ġd Ã´ze
Ġd poy
Ġd euz
Ġd pind
Ġd atÃ©
Ġd accion
Ġd Ã©nreut
Ġd cl
Ġd vent
Ġd vegnnut
Ġd rÃ¨ssÃ®
es ch
es ar
es pa
es teÃ»t
es nires
Ġl Ã´
Ġl us
Ġl ont
Ġl owe
Ġl ver
Ġl Ã®t
Ġl otes
Ġl inse
Ġl zeu
Ġl ourd
Ġl Ã§on
Ġl ates
Ġl ouwÃ©
Ġl amb
Ġl eth
Ġl anti
Ġl Âº
Ġl ettres
Ġl yri
in o
in el
in us
in Ã¨t
in Ã®s
in xhe
in Ãªyes
in Ã©ve
in ze
in ler
in cÃ®
in isses
in reyes
in Ãªre
in nÃ¨s
in ois
in djeye
in nixh
in kyÃ®
in jiang
in hez
on Ã®
on is
on esse
on etes
on iye
on ibe
on oxh
[...]
